{
  "version": "1.0",
  "truncation": null,
  "padding": null,
  "added_tokens": [
    {
      "id": 0,
      "content": "[UNK]",
      "single_word": false,
      "lstrip": false,
      "rstrip": false,
      "normalized": false,
      "special": true
    },
    {
      "id": 1,
      "content": "[PAD]",
      "single_word": false,
      "lstrip": false,
      "rstrip": false,
      "normalized": false,
      "special": true
    },
    {
      "id": 2,
      "content": "[BOS]",
      "single_word": false,
      "lstrip": false,
      "rstrip": false,
      "normalized": false,
      "special": true
    },
    {
      "id": 3,
      "content": "[EOS]",
      "single_word": false,
      "lstrip": false,
      "rstrip": false,
      "normalized": false,
      "special": true
    }
  ],
  "normalizer": {
    "type": "Sequence",
    "normalizers": [
      {
        "type": "NFKC"
      },
      {
        "type": "Replace",
        "pattern": {
          "String": " {2,}"
        },
        "content": " "
      }
    ]
  },
  "pre_tokenizer": {
    "type": "Metaspace",
    "replacement": "▁",
    "add_prefix_space": true,
    "prepend_scheme": "always"
  },
  "post_processor": {
    "type": "TemplateProcessing",
    "single": [
      {
        "SpecialToken": {
          "id": "[BOS]",
          "type_id": 0
        }
      },
      {
        "Sequence": {
          "id": "A",
          "type_id": 0
        }
      },
      {
        "SpecialToken": {
          "id": "[EOS]",
          "type_id": 0
        }
      }
    ],
    "pair": [
      {
        "Sequence": {
          "id": "A",
          "type_id": 0
        }
      },
      {
        "Sequence": {
          "id": "B",
          "type_id": 1
        }
      }
    ],
    "special_tokens": {
      "[BOS]": {
        "id": "[BOS]",
        "ids": [
          2
        ],
        "tokens": [
          "[BOS]"
        ]
      },
      "[EOS]": {
        "id": "[EOS]",
        "ids": [
          3
        ],
        "tokens": [
          "[EOS]"
        ]
      }
    }
  },
  "decoder": {
    "type": "Metaspace",
    "replacement": "▁",
    "add_prefix_space": true,
    "prepend_scheme": "always"
  },
  "model": {
    "type": "BPE",
    "dropout": null,
    "unk_token": null,
    "continuing_subword_prefix": null,
    "end_of_word_suffix": null,
    "fuse_unk": false,
    "byte_fallback": false,
    "vocab": {
      "[UNK]": 0,
      "[PAD]": 1,
      "[BOS]": 2,
      "[EOS]": 3,
      "\t": 4,
      "\n": 5,
      "!": 6,
      "\"": 7,
      "$": 8,
      "%": 9,
      "&": 10,
      "'": 11,
      "(": 12,
      ")": 13,
      "*": 14,
      "+": 15,
      ",": 16,
      "-": 17,
      ".": 18,
      "/": 19,
      "0": 20,
      "1": 21,
      "2": 22,
      "3": 23,
      "4": 24,
      "5": 25,
      "6": 26,
      "7": 27,
      "8": 28,
      "9": 29,
      ":": 30,
      ";": 31,
      "<": 32,
      ">": 33,
      "?": 34,
      "@": 35,
      "A": 36,
      "B": 37,
      "C": 38,
      "D": 39,
      "E": 40,
      "F": 41,
      "G": 42,
      "H": 43,
      "I": 44,
      "J": 45,
      "K": 46,
      "L": 47,
      "M": 48,
      "N": 49,
      "O": 50,
      "P": 51,
      "Q": 52,
      "R": 53,
      "S": 54,
      "T": 55,
      "U": 56,
      "V": 57,
      "W": 58,
      "X": 59,
      "Y": 60,
      "Z": 61,
      "_": 62,
      "`": 63,
      "a": 64,
      "b": 65,
      "c": 66,
      "d": 67,
      "e": 68,
      "f": 69,
      "g": 70,
      "h": 71,
      "i": 72,
      "j": 73,
      "k": 74,
      "l": 75,
      "m": 76,
      "n": 77,
      "o": 78,
      "p": 79,
      "q": 80,
      "r": 81,
      "s": 82,
      "t": 83,
      "u": 84,
      "v": 85,
      "w": 86,
      "x": 87,
      "y": 88,
      "z": 89,
      "|": 90,
      "~": 91,
      "¢": 92,
      "£": 93,
      "«": 94,
      "±": 95,
      "·": 96,
      "»": 97,
      "Ï": 98,
      "Ð": 99,
      "Ñ": 100,
      "Ó": 101,
      "×": 102,
      "Þ": 103,
      "á": 104,
      "â": 105,
      "ä": 106,
      "ç": 107,
      "è": 108,
      "ï": 109,
      "ò": 110,
      "ö": 111,
      "÷": 112,
      "ü": 113,
      "Ÿ": 114,
      "́": 115,
      "̃": 116,
      "̄": 117,
      "̈": 118,
      "Δ": 119,
      "έ": 120,
      "α": 121,
      "λ": 122,
      "μ": 123,
      "ν": 124,
      "ο": 125,
      "ς": 126,
      "σ": 127,
      "ا": 128,
      "ر": 129,
      "ص": 130,
      "ع": 131,
      "م": 132,
      "ن": 133,
      "ی": 134,
      "ँ": 135,
      "ं": 136,
      "ः": 137,
      "अ": 138,
      "आ": 139,
      "इ": 140,
      "ई": 141,
      "उ": 142,
      "ऊ": 143,
      "ऋ": 144,
      "ऍ": 145,
      "ऎ": 146,
      "ए": 147,
      "ऐ": 148,
      "ऑ": 149,
      "ऒ": 150,
      "ओ": 151,
      "औ": 152,
      "क": 153,
      "ख": 154,
      "ग": 155,
      "घ": 156,
      "ङ": 157,
      "च": 158,
      "छ": 159,
      "ज": 160,
      "झ": 161,
      "ञ": 162,
      "ट": 163,
      "ठ": 164,
      "ड": 165,
      "ढ": 166,
      "ण": 167,
      "त": 168,
      "थ": 169,
      "द": 170,
      "ध": 171,
      "न": 172,
      "ऩ": 173,
      "प": 174,
      "फ": 175,
      "ब": 176,
      "भ": 177,
      "म": 178,
      "य": 179,
      "र": 180,
      "ऱ": 181,
      "ल": 182,
      "ळ": 183,
      "व": 184,
      "श": 185,
      "ष": 186,
      "स": 187,
      "ह": 188,
      "़": 189,
      "ऽ": 190,
      "ा": 191,
      "ि": 192,
      "ी": 193,
      "ु": 194,
      "ू": 195,
      "ृ": 196,
      "ॅ": 197,
      "ॆ": 198,
      "े": 199,
      "ै": 200,
      "ॉ": 201,
      "ॊ": 202,
      "ो": 203,
      "ौ": 204,
      "्": 205,
      "ॐ": 206,
      "॒": 207,
      "॓": 208,
      "ॠ": 209,
      "ॢ": 210,
      "।": 211,
      "॥": 212,
      "०": 213,
      "१": 214,
      "२": 215,
      "३": 216,
      "४": 217,
      "५": 218,
      "६": 219,
      "७": 220,
      "८": 221,
      "९": 222,
      "॰": 223,
      "ῆ": 224,
      "​": 225,
      "‌": 226,
      "‍": 227,
      "‎": 228,
      "‏": 229,
      "–": 230,
      "—": 231,
      "‘": 232,
      "’": 233,
      "“": 234,
      "”": 235,
      "•": 236,
      "′": 237,
      "‹": 238,
      "›": 239,
      "⁄": 240,
      "↑": 241,
      "−": 242,
      "∧": 243,
      "⌂": 244,
      "▁": 245,
      "✒": 246,
      "➡": 247,
      "➤": 248,
      "": 249,
      "": 250,
      "": 251,
      "▁क": 252,
      "▁स": 253,
      "▁ह": 254,
      "▁म": 255,
      "▁प": 256,
      "ें": 257,
      "ार": 258,
      "▁के": 259,
      "।\n": 260,
      "ने": 261,
      "्र": 262,
      "▁है": 263,
      "▁ब": 264,
      "या": 265,
      "▁ज": 266,
      "▁द": 267,
      "▁में": 268,
      "▁व": 269,
      "▁ल": 270,
      "ों": 271,
      "▁र": 272,
      "▁अ": 273,
      "▁की": 274,
      "▁1": 275,
      "▁2": 276,
      "▁न": 277,
      "ता": 278,
      "▁को": 279,
      "र्": 280,
      "▁ग": 281,
      "▁से": 282,
      "▁आ": 283,
      "▁कि": 284,
      "▁त": 285,
      "ान": 286,
      "▁कर": 287,
      "▁का": 288,
      "▁भ": 289,
      "▁उ": 290,
      "्य": 291,
      "ना": 292,
      "िक": 293,
      "और": 294,
      "▁पर": 295,
      "▁और": 296,
      "ाल": 297,
      "▁ने": 298,
      "स्": 299,
      "▁इ": 300,
      ".\n": 301,
      "▁है।\n": 302,
      "▁प्र": 303,
      "▁च": 304,
      "ही": 305,
      "िल": 306,
      "▁हो": 307,
      "▁श": 308,
      "क्": 309,
      "▁ए": 310,
      "ड़": 311,
      "▁हैं": 312,
      "हा": 313,
      "▁थ": 314,
      "ित": 315,
      "▁जा": 316,
      "ते": 317,
      "िया": 318,
      "▁भी": 319,
      "िए": 320,
      "ाम": 321,
      "न्": 322,
      "िय": 323,
      "वा": 324,
      "▁य": 325,
      "▁ख": 326,
      "ती": 327,
      "के": 328,
      "से": 329,
      "ंग": 330,
      "हीं": 331,
      "▁फ": 332,
      "त्र": 333,
      "ले": 334,
      "ला": 335,
      "▁बा": 336,
      "▁वि": 337,
      "रा": 338,
      "▁स्": 339,
      "री": 340,
      "ति": 341,
      "▁दे": 342,
      "नी": 343,
      "▁नहीं": 344,
      "▁एक": 345,
      "सी": 346,
      "▁लिए": 347,
      "▁इस": 348,
      "कर": 349,
      "\tइ": 350,
      "त्": 351,
      "▁सा": 352,
      "▁सम": 353,
      "गा": 354,
      "कि": 355,
      "▁अप": 356,
      "▁ही": 357,
      "▁रा": 358,
      "कार": 359,
      "का": 360,
      "▁सं": 361,
      "ेश": 362,
      "ोग": 363,
      "▁हु": 364,
      "्या": 365,
      "ुर": 366,
      "0\t": 367,
      "4\t": 368,
      "1\t": 369,
      "2\t": 370,
      "6\t": 371,
      "9\t": 372,
      "5\t": 373,
      "3\t": 374,
      "7\t": 375,
      "8\t": 376,
      "िस": 377,
      "▁तो": 378,
      "▁हैं।\n": 379,
      "क्ष": 380,
      "▁किया": 381,
      "टी": 382,
      "▁ले": 383,
      "▁रह": 384,
      "ली": 385,
      "की": 386,
      "▁मु": 387,
      "वार": 388,
      "▁था": 389,
      "\tइस": 390,
      "ां": 391,
      "ाय": 392,
      "ंद": 393,
      "▁गया": 394,
      "▁नि": 395,
      "▁ड": 396,
      "ियों": 397,
      "मा": 398,
      "ार्": 399,
      "▁20": 400,
      "▁पह": 401,
      "ारी": 402,
      "सा": 403,
      "न्ह": 404,
      "ुल": 405,
      "▁करने": 406,
      "▁कहा": 407,
      "रे": 408,
      "िन": 409,
      "▁कार": 410,
      "्म": 411,
      "ास": 412,
      "▁ट": 413,
      "ष्": 414,
      "▁घ": 415,
      "दी": 416,
      "ैं": 417,
      "िला": 418,
      "िर": 419,
      "भा": 420,
      "▁3": 421,
      "ाह": 422,
      "▁है.\n": 423,
      "▁वाल": 424,
      "▁आप": 425,
      "वि": 426,
      "▁उन": 427,
      "▁साथ": 428,
      "्री": 429,
      "▁उस": 430,
      "गी": 431,
      "▁यह": 432,
      "▁कु": 433,
      "▁सक": 434,
      "▁5": 435,
      "ढ़": 436,
      "▁सु": 437,
      "ल्": 438,
      "▁छ": 439,
      "▁सि": 440,
      "जी": 441,
      "दा": 442,
      "▁रहे": 443,
      "▁4": 444,
      "▁अन": 445,
      "ंत्र": 446,
      "भी": 447,
      "▁अध": 448,
      "▁बाद": 449,
      "▁पू": 450,
      "श्": 451,
      "▁हम": 452,
      "▁या": 453,
      "▁जो": 454,
      "▁10": 455,
      "▁तक": 456,
      "ओं": 457,
      "▁दिया": 458,
      "गे": 459,
      "▁थी": 460,
      "▁राज": 461,
      "▁6": 462,
      "देश": 463,
      "ंच": 464,
      "▁7": 465,
      "▁लोग": 466,
      "▁19": 467,
      "्रे": 468,
      "च्": 469,
      "वी": 470,
      "▁दो": 471,
      "द्": 472,
      "▁ध": 473,
      "जा": 474,
      "▁है,": 475,
      "तर": 476,
      "▁8": 477,
      "ंड": 478,
      "बा": 479,
      "▁रहा": 480,
      "▁12": 481,
      "था": 482,
      "▁चु": 483,
      "▁9": 484,
      "▁11": 485,
      "▁अपने": 486,
      "पी": 487,
      "▁हुए": 488,
      "▁15": 489,
      "▁सर": 490,
      "प्": 491,
      "ोज": 492,
      "▁25": 493,
      "▁14": 494,
      "▁13": 495,
      "▁17": 496,
      "पा": 497,
      "▁16": 498,
      "▁18": 499,
      "▁रही": 500,
      "गर": 501,
      "ानी": 502,
      "ोंने": 503,
      "▁थे": 504,
      "▁पा": 505,
      "ये": 506,
      "▁गई": 507,
      "स्ट": 508,
      "▁21": 509,
      "न्होंने": 510,
      "▁22": 511,
      "▁28": 512,
      "किन": 513,
      "में": 514,
      "▁23": 515,
      "▁29": 516,
      "▁24": 517,
      "▁26": 518,
      "्ष": 519,
      "▁27": 520,
      "▁(": 521,
      "खा": 522,
      "ाना": 523,
      "ष्ट": 524,
      "▁मिल": 525,
      "▁।\n": 526,
      "▁मह": 527,
      "▁मे": 528,
      "▁ला": 529,
      "▁भा": 530,
      "▁दी": 531,
      "▁मा": 532,
      "▁जी": 533,
      "वे": 534,
      "ूर": 535,
      "▁बार": 536,
      "▁सरकार": 537,
      "ौर": 538,
      "टर": 539,
      "हां": 540,
      "▁भार": 541,
      "▁सी": 542,
      "▁बात": 543,
      "▁बना": 544,
      "शन": 545,
      "▁बी": 546,
      "ड़ी": 547,
      "नों": 548,
      "को": 549,
      "▁वह": 550,
      "मी": 551,
      "ेल": 552,
      "▁लगा": 553,
      "▁जाए": 554,
      "ंध": 555,
      "▁तर": 556,
      "▁कह": 557,
      "रो": 558,
      "स्त": 559,
      "▁कुछ": 560,
      "ड़ा": 561,
      "िव": 562,
      "▁बता": 563,
      "हर": 564,
      "▁होने": 565,
      "▁उप": 566,
      "ंत्री": 567,
      "▁अधिक": 568,
      "▁ऐ": 569,
      "▁चाह": 570,
      "▁बे": 571,
      "▁था।\n": 572,
      "बर": 573,
      "ूप": 574,
      "टे": 575,
      "द्र": 576,
      "▁गए": 577,
      "ड़े": 578,
      "▁कोई": 579,
      "▁सब": 580,
      "ुलिस": 581,
      "▁बह": 582,
      "▁स्थ": 583,
      "ंह": 584,
      "▁दिन": 585,
      "▁कम": 586,
      "00": 587,
      "र्म": 588,
      "▁जिस": 589,
      "▁पहले": 590,
      "▁कार्य": 591,
      "क्र": 592,
      "▁वर्": 593,
      "प्र": 594,
      "▁अनु": 595,
      "▁अपनी": 596,
      "कों": 597,
      "चार": 598,
      "▁द्": 599,
      "▁वाले": 600,
      "ैसे": 601,
      "▁करते": 602,
      "ोक": 603,
      "बी": 604,
      "ुत": 605,
      "▁मो": 606,
      "▁लोगों": 607,
      "गा।\n": 608,
      "▁लेकिन": 609,
      "चा": 610,
      "वं": 611,
      "▁किसी": 612,
      "▁मौ": 613,
      "िश": 614,
      "▁सो": 615,
      "▁काम": 616,
      "ूल": 617,
      "क्त": 618,
      "्यों": 619,
      "▁जब": 620,
      "▁देश": 621,
      "▁वे": 622,
      "▁जान": 623,
      "वर": 624,
      "▁प्रति": 625,
      "▁निर्": 626,
      "▁हि": 627,
      "▁तरह": 628,
      "▁साम": 629,
      "▁व्य": 630,
      "▁द्वार": 631,
      "▁बढ़": 632,
      "टा": 633,
      "ब्": 634,
      "ोल": 635,
      "न्हें": 636,
      "म्": 637,
      "क्षा": 638,
      "िंग": 639,
      "▁पी": 640,
      "ूस": 641,
      "▁देख": 642,
      "▁हुआ": 643,
      "ीन": 644,
      "स्ता": 645,
      "धान": 646,
      "ारा": 647,
      "▁रूप": 648,
      "▁द्वारा": 649,
      "▁क्ष": 650,
      "▁पुलिस": 651,
      "▁लग": 652,
      "▁ओ": 653,
      "ज़": 654,
      "जे": 655,
      "▁सिंह": 656,
      "च्च": 657,
      "द्ध": 658,
      "पर": 659,
      "मान": 660,
      "▁साल": 661,
      "िल्": 662,
      "▁रु": 663,
      "र्व": 664,
      "▁बि": 665,
      "▁अं": 666,
      "▁भारत": 667,
      "मे": 668,
      "स्थ": 669,
      "▁समय": 670,
      "?\n": 671,
      "▁201": 672,
      "▁माम": 673,
      "िल्म": 674,
      "र्ट": 675,
      "▁पहु": 676,
      "▁लेकर": 677,
      "▁जाता": 678,
      "▁रख": 679,
      "▁विक": 680,
      "नि": 681,
      "▁हैं.\n": 682,
      "मु": 683,
      "▁शुर": 684,
      "▁हुई": 685,
      "▁'": 686,
      "▁परि": 687,
      "▁नाम": 688,
      "ारे": 689,
      "िका": 690,
      "ंप": 691,
      "▁इन": 692,
      "▁करें": 693,
      "▁दु": 694,
      "▁जाने": 695,
      "वाल": 696,
      "▁अब": 697,
      "डी": 698,
      "▁सकता": 699,
      "▁हैं,": 700,
      "सर": 701,
      "▁हा": 702,
      "▁उनके": 703,
      "यह": 704,
      "मंत्री": 705,
      "▁जन": 706,
      "▁एवं": 707,
      "▁लि": 708,
      "▁थे।\n": 709,
      "▁बन": 710,
      "▁चल": 711,
      "ेट": 712,
      "▁कई": 713,
      "▁दि": 714,
      "योग": 715,
      "▁बताया": 716,
      "दे": 717,
      "्यू": 718,
      "उन्होंने": 719,
      "▁गु": 720,
      "▁‘": 721,
      "▁दौर": 722,
      "▁लिया": 723,
      "▁ये": 724,
      "▁ना": 725,
      "ेत्र": 726,
      "▁पहुंच": 727,
      "▁उत्": 728,
      "▁प्रा": 729,
      "▁होता": 730,
      "▁मुख": 731,
      "दि": 732,
      "▁बै": 733,
      "▁वा": 734,
      "च्छ": 735,
      "बंध": 736,
      "पुर": 737,
      "ोट": 738,
      "म्म": 739,
      "जन": 740,
      "▁आज": 741,
      "्ल": 742,
      "्स": 743,
      "▁मैं": 744,
      "नाव": 745,
      "गी।\n": 746,
      "▁बहुत": 747,
      "्त": 748,
      "▁जु": 749,
      "▁गया।\n": 750,
      "▁थी।\n": 751,
      "ंग्रे": 752,
      "▁करना": 753,
      "एस": 754,
      "▁पार्": 755,
      "▁टी": 756,
      "ोड़": 757,
      "▁उन्हें": 758,
      "▁गां": 759,
      "ंस": 760,
      "▁क्षेत्र": 761,
      "▁रि": 762,
      "▁मान": 763,
      "\tइसके": 764,
      "▁ऑ": 765,
      "▁तथा": 766,
      "▁सह": 767,
      "धार": 768,
      "▁पु": 769,
      "▁सभी": 770,
      "▁खिला": 771,
      "▁खु": 772,
      "▁मै": 773,
      "तीय": 774,
      "▁उन्होंने": 775,
      "क्ति": 776,
      "▁ता": 777,
      "्ञ": 778,
      "वन": 779,
      "▁हर": 780,
      "▁दर्": 781,
      "▁शिक": 782,
      "कारी": 783,
      "एं": 784,
      "▁फिल्म": 785,
      "ंत": 786,
      "जार": 787,
      "▁शुरू": 788,
      "र्थ": 789,
      "▁रुप": 790,
      "▁फिर": 791,
      "▁पि": 792,
      "ून": 793,
      "ोर": 794,
      "वाद": 795,
      "धी": 796,
      "मार": 797,
      "▁बु": 798,
      "▁दौरान": 799,
      "▁जि": 800,
      "▁वाली": 801,
      "▁जर": 802,
      "▁घर": 803,
      "्रीय": 804,
      "दार": 805,
      "▁निक": 806,
      "्रा": 807,
      "क्स": 808,
      "ियां": 809,
      "शी": 810,
      "ेंद्र": 811,
      "▁क्या": 812,
      "सार": 813,
      "▁सू": 814,
      "▁अभ": 815,
      "▁समा": 816,
      "▁वर्ष": 817,
      "िल्ली": 818,
      "▁पास": 819,
      "▁चाहिए": 820,
      "आई": 821,
      "▁हू": 822,
      "▁सकते": 823,
      "ठा": 824,
      "▁उसे": 825,
      "्यादा": 826,
      "▁शाम": 827,
      "जब": 828,
      "▁झ": 829,
      "▁आय": 830,
      "ंग्रेस": 831,
      "फी": 832,
      "ूम": 833,
      "▁चुनाव": 834,
      "▁बीच": 835,
      "हम": 836,
      "▁कारण": 837,
      "▁दूस": 838,
      "▁ग्र": 839,
      "▁बच्च": 840,
      "ृत": 841,
      "एम": 842,
      "▁यु": 843,
      "लय": 844,
      "र्स": 845,
      "▁फै": 846,
      "▁स्व": 847,
      "गे।\n": 848,
      "20": 849,
      "▁होती": 850,
      "▁मुख्य": 851,
      "जू": 852,
      "दान": 853,
      "▁आई": 854,
      "▁सबसे": 855,
      "जर": 856,
      "▁अव": 857,
      "▁स्थित": 858,
      "▁उनकी": 859,
      "ंक": 860,
      "ंट": 861,
      "श्व": 862,
      "▁क्यों": 863,
      "▁देने": 864,
      "▁नी": 865,
      "▁राज्य": 866,
      "पू": 867,
      "र्ण": 868,
      "ाई": 869,
      "▁मन": 870,
      "▁बद": 871,
      "टना": 872,
      "भाव": 873,
      "ैन": 874,
      "ताओं": 875,
      "..\n": 876,
      "ध्य": 877,
      "▁आरो": 878,
      "▁किया।\n": 879,
      "प्त": 880,
      "▁प्रदेश": 881,
      "न्न": 882,
      "िये": 883,
      "▁राष्ट": 884,
      "▁उसके": 885,
      "लों": 886,
      "▁महिला": 887,
      "स्था": 888,
      "ोजना": 889,
      "▁कै": 890,
      "▁अपना": 891,
      "▁-": 892,
      "▁ज्यादा": 893,
      "▁वो": 894,
      "पो": 895,
      "हत": 896,
      "▁ठ": 897,
      "भाग": 898,
      "▁स्ट": 899,
      "लग": 900,
      "▁रो": 901,
      "▁अच्छ": 902,
      "▁छा": 903,
      "▁मामले": 904,
      "झे": 905,
      "यर": 906,
      "▁दोनों": 907,
      "िट": 908,
      "शे": 909,
      "▁पै": 910,
      "ज्ञ": 911,
      "▁सुर": 912,
      "त्व": 913,
      "रण": 914,
      "▁कांग्रेस": 915,
      "राज": 916,
      "▁पार्टी": 917,
      "ोन": 918,
      "एक": 919,
      "गत": 920,
      "क्रम": 921,
      "हार": 922,
      "▁क्र": 923,
      "ाली": 924,
      "भार": 925,
      "▁बैठ": 926,
      "▁ओर": 927,
      "वान": 928,
      "िम": 929,
      "लेकिन": 930,
      "▁अन्य": 931,
      "इन": 932,
      "▁तै": 933,
      "▁दिल्ली": 934,
      "उस": 935,
      "दर्": 936,
      "सभा": 937,
      "09": 938,
      "▁बो": 939,
      "▁सद": 940,
      "ाला": 941,
      "ांच": 942,
      "▁खिलाफ": 943,
      "ीड": 944,
      "स्तान": 945,
      "▁टीम": 946,
      "चना": 947,
      "08": 948,
      "19": 949,
      "▁श्री": 950,
      "निया": 951,
      "मैं": 952,
      "हाल": 953,
      "▁समझ": 954,
      "07": 955,
      "लो": 956,
      "▁तीन": 957,
      "25": 958,
      "धा": 959,
      "▁शामिल": 960,
      "30": 961,
      "णा": 962,
      "▁करा": 963,
      "▁किए": 964,
      "▁करता": 965,
      "त्म": 966,
      "▁बारे": 967,
      "यी": 968,
      "▁संबंध": 969,
      "▁जारी": 970,
      "क्ट": 971,
      "▁जाती": 972,
      "वास": 973,
      "▁खा": 974,
      "▁लोक": 975,
      "▁चौ": 976,
      "35": 977,
      "तिक": 978,
      "लिए": 979,
      "06": 980,
      "05": 981,
      "आप": 982,
      "िता": 983,
      "▁विकास": 984,
      "11": 985,
      "99": 986,
      "▁मांग": 987,
      "▁पूर्व": 988,
      "स्प": 989,
      "त्रा": 990,
      "02": 991,
      "15": 992,
      "ंब": 993,
      "उन": 994,
      "ेज": 995,
      "र्ष": 996,
      "▁सकती": 997,
      "12": 998,
      "14": 999,
      "तों": 1000,
      "द्य": 1001,
      "▁अध्य": 1002,
      "सान": 1003,
      "वाई": 1004,
      "04": 1005,
      "16": 1006,
      "17": 1007,
      "र्ड": 1008,
      "▁गो": 1009,
      "▁भारतीय": 1010,
      "चित": 1011,
      "▁कॉ": 1012,
      "18": 1013,
      "जपा": 1014,
      "ोष": 1015,
      "▁मंत्री": 1016,
      "्यालय": 1017,
      "▁ई": 1018,
      "▁कंप": 1019,
      "▁पड़": 1020,
      "22": 1021,
      "▁यहां": 1022,
      "मुख": 1023,
      "तु": 1024,
      "छले": 1025,
      "▁अग": 1026,
      "क्टर": 1027,
      "▁डॉ": 1028,
      "▁गांव": 1029,
      "▁आरोप": 1030,
      "▁गिर": 1031,
      "ियम": 1032,
      "त्या": 1033,
      "ुरु": 1034,
      "13": 1035,
      "कु": 1036,
      "फ़": 1037,
      "▁जानकारी": 1038,
      "26": 1039,
      "77": 1040,
      "98": 1041,
      "धिक": 1042,
      "▁संग": 1043,
      "▁योजना": 1044,
      "▁गई।\n": 1045,
      "03": 1046,
      "▁आने": 1047,
      "▁करोड़": 1048,
      "माण": 1049,
      "!\n": 1050,
      "28": 1051,
      "▁जैसे": 1052,
      "45": 1053,
      "47": 1054,
      "िले": 1055,
      "▁होगा": 1056,
      "▁था.\n": 1057,
      "ियो": 1058,
      "10": 1059,
      "er": 1060,
      "शा": 1061,
      "▁गा": 1062,
      "ामी": 1063,
      "\tइन": 1064,
      "48": 1065,
      "95": 1066,
      "्ड": 1067,
      "27": 1068,
      "65": 1069,
      "ची": 1070,
      "▁अनुसार": 1071,
      "37": 1072,
      "ीस": 1073,
      "▁आए": 1074,
      "▁ऐसा": 1075,
      "वल": 1076,
      "▁शिक्ष": 1077,
      "36": 1078,
      "38": 1079,
      "▁शु": 1080,
      "जूद": 1081,
      "46": 1082,
      "पाल": 1083,
      "75": 1084,
      "96": 1085,
      "बाद": 1086,
      "▁अधिकार": 1087,
      "▁मोदी": 1088,
      "ुक": 1089,
      "76": 1090,
      "88": 1091,
      "▁:": 1092,
      "▁इसके": 1093,
      "24": 1094,
      "55": 1095,
      "▁ली": 1096,
      "न्द": 1097,
      "▁विभाग": 1098,
      "34": 1099,
      "▁काफी": 1100,
      "▁डि": 1101,
      "39": 1102,
      "29": 1103,
      "▁मार्": 1104,
      "▁तैय": 1105,
      "50": 1106,
      "▁इं": 1107,
      "▁स्क": 1108,
      "मो": 1109,
      "▁पूरी": 1110,
      "78": 1111,
      "▁दिया।\n": 1112,
      "44": 1113,
      "▁हों": 1114,
      "ेशन": 1115,
      "सम": 1116,
      "▁कहा,": 1117,
      "▁लाख": 1118,
      "▁दिखा": 1119,
      "▁हूं": 1120,
      "66": 1121,
      "in": 1122,
      "23": 1123,
      "▁ऐसे": 1124,
      "01": 1125,
      "97": 1126,
      "▁जग": 1127,
      "58": 1128,
      "▁पत्र": 1129,
      "▁दिए": 1130,
      "▁ऊ": 1131,
      "▁सफ": 1132,
      "▁प्रधान": 1133,
      "▁कुमार": 1134,
      "40": 1135,
      "68": 1136,
      "ेंद": 1137,
      "▁रे": 1138,
      "▁राम": 1139,
      "ताब": 1140,
      "33": 1141,
      "चे": 1142,
      "बह": 1143,
      "सल": 1144,
      "सि": 1145,
      "▁बैं": 1146,
      "▁दा": 1147,
      "▁लड़": 1148,
      "▁चला": 1149,
      "49": 1150,
      "▁\"": 1151,
      "▁दें": 1152,
      "▁चार": 1153,
      "▁होते": 1154,
      "▁तु": 1155,
      "▁याद": 1156,
      "70": 1157,
      "र्फ": 1158,
      "56": 1159,
      "जय": 1160,
      "▁आधार": 1161,
      "▁ट्र": 1162,
      "▁व्यक्ति": 1163,
      "पोर्ट": 1164,
      "21": 1165,
      "43": 1166,
      "▁विश्व": 1167,
      "79": 1168,
      "86": 1169,
      "सं": 1170,
      "▁सामने": 1171,
      "शेष": 1172,
      "तना": 1173,
      "▁करे": 1174,
      "▁प्रश": 1175,
      "▁व्यव": 1176,
      "▁की।\n": 1177,
      "93": 1178,
      "▁बड़ी": 1179,
      "ंगे": 1180,
      "57": 1181,
      "▁शा": 1182,
      "87": 1183,
      "ar": 1184,
      "▁आगे": 1185,
      "ासन": 1186,
      "▁अध्यक्ष": 1187,
      "ूट": 1188,
      "किस्तान": 1189,
      "60": 1190,
      "85": 1191,
      "89": 1192,
      "▁भर": 1193,
      "▁प्रे": 1194,
      "32": 1195,
      "41": 1196,
      "31": 1197,
      "णी": 1198,
      "▁चे": 1199,
      "▁आपको": 1200,
      "69": 1201,
      "▁उसकी": 1202,
      "▁भाजपा": 1203,
      "84": 1204,
      "at": 1205,
      "▁जाते": 1206,
      "▁बनाने": 1207,
      "्‍": 1208,
      "▁इसे": 1209,
      "80": 1210,
      "तार": 1211,
      "▁पद": 1212,
      "▁करी": 1213,
      "▁जांच": 1214,
      "67": 1215,
      "91": 1216,
      "42": 1217,
      "ंबर": 1218,
      "▁पता": 1219,
      "▁क्योंकि": 1220,
      "83": 1221,
      "92": 1222,
      "दन": 1223,
      "हन": 1224,
      "▁मत": 1225,
      "▁दर": 1226,
      "90": 1227,
      "ोध": 1228,
      "▁जिन": 1229,
      "र्क": 1230,
      "51": 1231,
      "श्य": 1232,
      "स्क": 1233,
      "स्ते": 1234,
      "54": 1235,
      "82": 1236,
      "अब": 1237,
      "▁मिला": 1238,
      "ालय": 1239,
      "94": 1240,
      "तन": 1241,
      "बे": 1242,
      "▁अला": 1243,
      "▁अभी": 1244,
      "ंदर": 1245,
      "म्मी": 1246,
      "72": 1247,
      "कर्": 1248,
      "▁अगर": 1249,
      "▁राजनी": 1250,
      "62": 1251,
      "▁यू": 1252,
      "63": 1253,
      "64": 1254,
      "73": 1255,
      "81": 1256,
      "लि": 1257,
      "▁अलग": 1258,
      "▁कार्यक्रम": 1259,
      "52": 1260,
      "▁विशेष": 1261,
      "53": 1262,
      "71": 1263,
      "▁कभी": 1264,
      "हाँ": 1265,
      "ंगा": 1266,
      "▁था,": 1267,
      "ंदी": 1268,
      "▁फैस": 1269,
      "▁सदस": 1270,
      "61": 1271,
      "सु": 1272,
      "▁बल्": 1273,
      "▁वै": 1274,
      "▁एस": 1275,
      "▁घटना": 1276,
      "▁दर्ज": 1277,
      "74": 1278,
      "▁महा": 1279,
      "▁इला": 1280,
      "▁लिख": 1281,
      "59": 1282,
      "्ला": 1283,
      "▁मुझे": 1284,
      "▁परिवार": 1285,
      "▁आयोज": 1286,
      "▁सुरक्षा": 1287,
      "ुक्त": 1288,
      "▁आम": 1289,
      "करण": 1290,
      "जह": 1291,
      "ष्ठ": 1292,
      "▁हमें": 1293,
      "मेर": 1294,
      "शि": 1295,
      "▁कप": 1296,
      "▁हे": 1297,
      "▁इंड": 1298,
      "भव": 1299,
      "▁पांच": 1300,
      "▁होगा।\n": 1301,
      "▁खे": 1302,
      "▁वाला": 1303,
      "▁जरूर": 1304,
      "अप": 1305,
      "त्य": 1306,
      "मन": 1307,
      "▁सुन": 1308,
      "▁रुपये": 1309,
      "▁समाज": 1310,
      "पूर्ण": 1311,
      "▁अलावा": 1312,
      "इट": 1313,
      "धि": 1314,
      "▁बाहर": 1315,
      "प्ता": 1316,
      "▁भाग": 1317,
      "▁बेह": 1318,
      "ख्या": 1319,
      "▁ढ": 1320,
      "ेंट": 1321,
      "▁जाएगा।\n": 1322,
      "▁दिनों": 1323,
      "ग्र": 1324,
      "रि": 1325,
      "▁अम": 1326,
      "▁खेल": 1327,
      "▁कहना": 1328,
      "▁तैयार": 1329,
      "ीर": 1330,
      "▁हाल": 1331,
      "▁पत्": 1332,
      "▁तब": 1333,
      "न्द्र": 1334,
      "ायत": 1335,
      "▁जीवन": 1336,
      "म्मीद": 1337,
      "▁हजार": 1338,
      "▁डे": 1339,
      "ार्थ": 1340,
      "▁छो": 1341,
      "आर": 1342,
      "फ्त": 1343,
      "▁पढ़": 1344,
      "▁शहर": 1345,
      "ंगल": 1346,
      "इल": 1347,
      "यास": 1348,
      "▁उठा": 1349,
      "▁प्रकार": 1350,
      "▁बढ़ा": 1351,
      "▁आया": 1352,
      "▁योग": 1353,
      "क्षण": 1354,
      "▁टे": 1355,
      "▁हाथ": 1356,
      "पति": 1357,
      "’\n": 1358,
      "वीर": 1359,
      "on": 1360,
      "जिस": 1361,
      "डे": 1362,
      "हित": 1363,
      "ूरी": 1364,
      "▁ज़": 1365,
      "▁जै": 1366,
      "▁अधिकारी": 1367,
      "▁बड़े": 1368,
      "▁शे": 1369,
      "त्री": 1370,
      "an": 1371,
      "पे": 1372,
      "षा": 1373,
      "शत": 1374,
      "▁कल": 1375,
      "ताल": 1376,
      "▁चुके": 1377,
      "पन": 1378,
      "▁वजह": 1379,
      "▁ची": 1380,
      "वह": 1381,
      "▁मंत्र": 1382,
      "▁जहां": 1383,
      "ैंड": 1384,
      "▁पो": 1385,
      "▁लिये": 1386,
      "▁तहत": 1387,
      "▁उम्मीद": 1388,
      "▁करीब": 1389,
      "▁बंद": 1390,
      "▁जिला": 1391,
      "▁डी": 1392,
      "▁ऑफ": 1393,
      "▁पिछले": 1394,
      "▁बच्चों": 1395,
      "▁राष्ट्र": 1396,
      "आज": 1397,
      "▁रुपए": 1398,
      "▁जगह": 1399,
      "ट्": 1400,
      "▁बड़ा": 1401,
      "▁जनता": 1402,
      "▁प्रधानमंत्री": 1403,
      "▁बस": 1404,
      "▁स्थान": 1405,
      "▁दूसरे": 1406,
      "फा": 1407,
      "▁पे": 1408,
      "ें।\n": 1409,
      "▁सेवा": 1410,
      "▁जिसमें": 1411,
      "▁नेता": 1412,
      "▁कोश": 1413,
      "र्य": 1414,
      "▁आर": 1415,
      "▁आदि": 1416,
      "▁हिस्": 1417,
      "▁चाहिए।\n": 1418,
      "▁सच": 1419,
      "▁मद": 1420,
      "त्रों": 1421,
      "ांकि": 1422,
      "▁मेरे": 1423,
      "▁प्राप्त": 1424,
      "बार": 1425,
      "मत": 1426,
      "वरी": 1427,
      "▁पानी": 1428,
      "▁रात": 1429,
      "▁कर्म": 1430,
      "▁स्वा": 1431,
      "▁हमारे": 1432,
      "माल": 1433,
      "▁मार": 1434,
      "▁दूर": 1435,
      "▁नौ": 1436,
      "▁न्या": 1437,
      "ल्प": 1438,
      "मेंट": 1439,
      "▁उपल": 1440,
      "स्थान": 1441,
      "भि": 1442,
      "साथ": 1443,
      "▁पाकिस्तान": 1444,
      "▁गांधी": 1445,
      "▁कान": 1446,
      "▁वहां": 1447,
      "▁विध": 1448,
      "es": 1449,
      "दों": 1450,
      "ीय": 1451,
      "▁बजे": 1452,
      "▁देते": 1453,
      "्यान": 1454,
      "▁मुख्यमंत्री": 1455,
      "वेश": 1456,
      "▁उनका": 1457,
      "▁करती": 1458,
      "▁फ़": 1459,
      "▁विचार": 1460,
      "▁जीत": 1461,
      "▁गए।\n": 1462,
      "दर्शन": 1463,
      "▁उपलब्": 1464,
      "छा": 1465,
      "मिक": 1466,
      "▁कंपनी": 1467,
      "तम": 1468,
      "▁मीड": 1469,
      "▁है?\n": 1470,
      "▁व्या": 1471,
      "▁आद": 1472,
      "▁चि": 1473,
      "ित्र": 1474,
      "काश": 1475,
      "▁रहने": 1476,
      "▁सिर्फ": 1477,
      "▁स्कूल": 1478,
      "काल": 1479,
      "जो": 1480,
      "फ्": 1481,
      "▁आपके": 1482,
      "▁मिले": 1483,
      "▁खुद": 1484,
      "-प": 1485,
      "▁ब्र": 1486,
      "▁पहली": 1487,
      "▁बैंक": 1488,
      "ं।\n": 1489,
      "▁परी": 1490,
      "स्या": 1491,
      "▁मुताब": 1492,
      "▁दुनिया": 1493,
      "▁उत्तर": 1494,
      "▁मीडिया": 1495,
      "ंज": 1496,
      "▁सौ": 1497,
      "▁लगे": 1498,
      "▁गयी": 1499,
      "ार्ड": 1500,
      "▁स्थिति": 1501,
      "▁मुताबिक": 1502,
      "भग": 1503,
      "ियन": 1504,
      "ियर": 1505,
      "▁विरो": 1506,
      "▁सम्म": 1507,
      "▁मौत": 1508,
      "▁राष्ट्रीय": 1509,
      "जि": 1510,
      "यन": 1511,
      "वहीं": 1512,
      "▁जबकि": 1513,
      "िज": 1514,
      "▁मैच": 1515,
      "▁शिक्षा": 1516,
      "टन": 1517,
      "ेंगे": 1518,
      "र्चा": 1519,
      "▁खबर": 1520,
      "ायक": 1521,
      "▁मिली": 1522,
      "▁ऐसी": 1523,
      "▁कोशिश": 1524,
      "'\n": 1525,
      "▁P": 1526,
      "▁जिले": 1527,
      "ड़क": 1528,
      "▁घोष": 1529,
      "जों": 1530,
      "रों": 1531,
      "ूत": 1532,
      "▁गै": 1533,
      "▁प्रमुख": 1534,
      "▁होना": 1535,
      "▁प्रतिशत": 1536,
      "श्म": 1537,
      "▁नजर": 1538,
      "▁गये": 1539,
      "्व": 1540,
      "▁सर्": 1541,
      "▁पुर": 1542,
      "▁केंद्र": 1543,
      "▁इसी": 1544,
      "▁शर्": 1545,
      "▁फीस": 1546,
      "डा": 1547,
      "तनी": 1548,
      "हरा": 1549,
      "▁कृ": 1550,
      "▁सही": 1551,
      "▁सवाल": 1552,
      "▁बॉ": 1553,
      "▁जाना": 1554,
      "▁श्र": 1555,
      "\tइससे": 1556,
      "▁बैठक": 1557,
      "कान": 1558,
      "दारी": 1559,
      "\tइसमें": 1560,
      "ंदिर": 1561,
      "ग्": 1562,
      "चान": 1563,
      "वर्": 1564,
      "▁न्यू": 1565,
      "▁निर्माण": 1566,
      "भारत": 1567,
      "▁मदद": 1568,
      "▁निय": 1569,
      "▁छोड़": 1570,
      "सू": 1571,
      "ोह": 1572,
      "▁मि": 1573,
      "ेंगे।\n": 1574,
      "िति": 1575,
      "▁लेने": 1576,
      "▁लाभ": 1577,
      "ज्ञान": 1578,
      "छे": 1579,
      "द्यालय": 1580,
      "▁इसका": 1581,
      "▁पूरा": 1582,
      "▁रिपोर्ट": 1583,
      "पुलिस": 1584,
      "▁ब्ल": 1585,
      "▁तौर": 1586,
      "▁भूम": 1587,
      "▁धर्म": 1588,
      "यू": 1589,
      "ीत": 1590,
      "▁मूल": 1591,
      "▁बचा": 1592,
      "▁करके": 1593,
      "वासी": 1594,
      "\tइसी": 1595,
      "या।\n": 1596,
      "▁इसलिए": 1597,
      "▁दी।\n": 1598,
      "▁व्यवस्था": 1599,
      "कल": 1600,
      "ण्ड": 1601,
      "▁संघ": 1602,
      "▁हूँ": 1603,
      "▁युव": 1604,
      "▁अच्छा": 1605,
      "▁उपलब्ध": 1606,
      "ीक": 1607,
      "▁पं": 1608,
      "यान": 1609,
      "▁अर": 1610,
      "वाह": 1611,
      "▁उसका": 1612,
      "▁अंतर": 1613,
      "▁जल": 1614,
      "▁आव": 1615,
      "▁शिव": 1616,
      "त्ता": 1617,
      "▁थी.\n": 1618,
      "दो": 1619,
      "▁कौ": 1620,
      "▁माह": 1621,
      "▁अस्प": 1622,
      "लाई": 1623,
      "ायर": 1624,
      "▁पेश": 1625,
      "▁किसान": 1626,
      "भिन्न": 1627,
      "गढ़": 1628,
      "▁बाल": 1629,
      "▁ते": 1630,
      "▁ध्यान": 1631,
      "▁मौजूद": 1632,
      "हालांकि": 1633,
      "▁कैसे": 1634,
      "▁ख़": 1635,
      "▁खरी": 1636,
      "▁देखा": 1637,
      "ार्ट": 1638,
      "▁लगता": 1639,
      "en": 1640,
      "दर": 1641,
      "▁A": 1642,
      "▁वित": 1643,
      "राब": 1644,
      "▁उसने": 1645,
      "षण": 1646,
      "ाज": 1647,
      "▁सके": 1648,
      "▁पार": 1649,
      "वाब": 1650,
      "▁स्तर": 1651,
      "▁समस्या": 1652,
      "▁संख्या": 1653,
      "▁अधिकारियों": 1654,
      "▁माल": 1655,
      "▁मही": 1656,
      "▁दिल": 1657,
      "र्जी": 1658,
      "▁प्रो": 1659,
      "▁खान": 1660,
      "▁कहते": 1661,
      "टक": 1662,
      "लब": 1663,
      "▁बर": 1664,
      "▁दल": 1665,
      "▁आस": 1666,
      "▁प्रयास": 1667,
      "▁एन": 1668,
      "▁महत्व": 1669,
      "फ्तार": 1670,
      "जें": 1671,
      "पि": 1672,
      "पु": 1673,
      "▁केवल": 1674,
      "▁विधान": 1675,
      "▁उपयोग": 1676,
      "ंका": 1677,
      "दम": 1678,
      "बल": 1679,
      "यं": 1680,
      "लत": 1681,
      "ुआ": 1682,
      "▁प्रदर्शन": 1683,
      "वादी": 1684,
      "▁सहित": 1685,
      "ऐसे": 1686,
      "लर": 1687,
      "ृति": 1688,
      "▁मंदिर": 1689,
      "▁नगर": 1690,
      "▁होगी": 1691,
      "ल्ड": 1692,
      "▁तरफ": 1693,
      "▁बदल": 1694,
      "अगर": 1695,
      "र्च": 1696,
      "▁इससे": 1697,
      "▁सुबह": 1698,
      "ैल": 1699,
      "▁हत्या": 1700,
      "▁रन": 1701,
      "▁रोक": 1702,
      "▁इसकी": 1703,
      "▁डाल": 1704,
      "▁निर्देश": 1705,
      "ठन": 1706,
      "▁जल्": 1707,
      "▁डा": 1708,
      "ंबई": 1709,
      "यहां": 1710,
      "सो": 1711,
      "▁प्रभाव": 1712,
      "त्ति": 1713,
      "▁सदस्य": 1714,
      "िरा": 1715,
      "▁अफ": 1716,
      "▁विदेश": 1717,
      "▁ट्रे": 1718,
      "▁सीट": 1719,
      "▁लिया।\n": 1720,
      "श्यक": 1721,
      "एल": 1722,
      "▁लौ": 1723,
      "▁रखा": 1724,
      "▁स्प": 1725,
      "▁समर्थ": 1726,
      "▁पीछे": 1727,
      "▁कुल": 1728,
      "▁बज": 1729,
      "▁नए": 1730,
      "▁आत": 1731,
      "▁तस्": 1732,
      "▁तरी": 1733,
      "हाय": 1734,
      "▁भाव": 1735,
      "▁रखने": 1736,
      "धन": 1737,
      "शल": 1738,
      "ष्य": 1739,
      "ुन": 1740,
      "▁पक": 1741,
      "▁अति": 1742,
      "▁अमेर": 1743,
      "▁नई": 1744,
      "▁कोर्ट": 1745,
      "स्ती": 1746,
      "▁चा": 1747,
      "न्म": 1748,
      "▁वाप": 1749,
      "▁बच्चे": 1750,
      "दाय": 1751,
      "▁दिव": 1752,
      "▁आग": 1753,
      "▁होगी।\n": 1754,
      "क्षि": 1755,
      "विधा": 1756,
      "▁सरकारी": 1757,
      "ou": 1758,
      "मवार": 1759,
      "▁गं": 1760,
      "▁बाजार": 1761,
      "गल": 1762,
      "मर": 1763,
      "व्य": 1764,
      "नाथ": 1765,
      "िकेट": 1766,
      "स्‍": 1767,
      "▁दिख": 1768,
      "▁विरोध": 1769,
      "▁फीसदी": 1770,
      "भर": 1771,
      "▁लाल": 1772,
      "हास": 1773,
      "ियान": 1774,
      "श्च": 1775,
      "▁सोच": 1776,
      "▁बिज": 1777,
      "▁सफल": 1778,
      "झा": 1779,
      "▁बने": 1780,
      "▁शब्": 1781,
      "▁विभिन्न": 1782,
      "ायल": 1783,
      "▁करें।\n": 1784,
      "▁बल्कि": 1785,
      "▁अस्पताल": 1786,
      "-अ": 1787,
      "श्री": 1788,
      "र्ज": 1789,
      "▁भग": 1790,
      "▁चुकी": 1791,
      "▁चाहते": 1792,
      "▁लगभग": 1793,
      "▁मामला": 1794,
      "स्तेमाल": 1795,
      "बि": 1796,
      "▁जे": 1797,
      "▁रंग": 1798,
      "▁किस": 1799,
      "िक्ष": 1800,
      "▁इस्तेमाल": 1801,
      "▁यही": 1802,
      "▁संप": 1803,
      "▁मिलने": 1804,
      "जेपी": 1805,
      "▁बिना": 1806,
      "▁इंडिया": 1807,
      "▁आवश्यक": 1808,
      "एन": 1809,
      "कत": 1810,
      "खंड": 1811,
      "▁t": 1812,
      "▁नर": 1813,
      "▁जाये": 1814,
      "▁फैसला": 1815,
      "किल": 1816,
      "पित": 1817,
      "ूब": 1818,
      "▁मजब": 1819,
      "▁चर्चा": 1820,
      "ामा": 1821,
      "राष्ट": 1822,
      "▁थे.\n": 1823,
      "द्योग": 1824,
      "ंटे": 1825,
      "▁शरी": 1826,
      "▁मुद्": 1827,
      "भीर": 1828,
      "▁चुका": 1829,
      "▁मेरी": 1830,
      "मि": 1831,
      "्रम": 1832,
      "▁रेल": 1833,
      "▁गुरु": 1834,
      "▁संय": 1835,
      "▁बनाया": 1836,
      "▁सामान": 1837,
      "▁चलते": 1838,
      "▁दूसरी": 1839,
      "▁परीक्षा": 1840,
      "हि": 1841,
      "ुड": 1842,
      "▁करवा": 1843,
      "▁स्वी": 1844,
      "ध्यम": 1845,
      "..": 1846,
      "यों": 1847,
      "▁औ": 1848,
      "▁अस": 1849,
      "▁फा": 1850,
      "▁विश्": 1851,
      "रात": 1852,
      "ांत": 1853,
      "▁ठीक": 1854,
      "▁पोस्ट": 1855,
      "▁शर्मा": 1856,
      "▁बच": 1857,
      "▁बोल": 1858,
      "▁सुविधा": 1859,
      "▁जिससे": 1860,
      "कुछ": 1861,
      "ूर्": 1862,
      "▁हास": 1863,
      "▁उठ": 1864,
      "▁होकर": 1865,
      "क्शन": 1866,
      "▁आपकी": 1867,
      "▁धन": 1868,
      "▁अंत": 1869,
      "▁लिखा": 1870,
      "▁जरूरत": 1871,
      "धर": 1872,
      "▁पंच": 1873,
      "▁सांस": 1874,
      "▁भाषा": 1875,
      "▁यादव": 1876,
      "▁विधानसभा": 1877,
      "al": 1878,
      "▁N": 1879,
      "▁रोज": 1880,
      "▁परेश": 1881,
      "▁शाह": 1882,
      "▁एम": 1883,
      "▁पिता": 1884,
      "▁प्रशासन": 1885,
      "िवार": 1886,
      "ुओं": 1887,
      "▁मना": 1888,
      "▁पड़ा": 1889,
      "स्व": 1890,
      "क्या": 1891,
      "▁देर": 1892,
      "▁टा": 1893,
      "▁थे,": 1894,
      "▁मौके": 1895,
      "चाल": 1896,
      "रिक": 1897,
      "▁पड़े": 1898,
      "▁जमा": 1899,
      "▁वृ": 1900,
      "▁लगी": 1901,
      "▁उम": 1902,
      "िकी": 1903,
      "▁पूरे": 1904,
      "वरण": 1905,
      "▁तस्वीर": 1906,
      "पह": 1907,
      "फिर": 1908,
      "वित": 1909,
      "हुल": 1910,
      "▁अन्": 1911,
      "लेज": 1912,
      "▁यात्रा": 1913,
      "क्रिया": 1914,
      "िशा": 1915,
      "▁देखने": 1916,
      "▁व्याप": 1917,
      "चर": 1918,
      "बू": 1919,
      "मता": 1920,
      "▁फोन": 1921,
      "तिहास": 1922,
      "▁देना": 1923,
      "▁रहते": 1924,
      "ंद्र": 1925,
      "▁जाएगा": 1926,
      "स्थ्य": 1927,
      "▁उत्पा": 1928,
      "▁महीने": 1929,
      "-क": 1930,
      "कुल": 1931,
      "गम": 1932,
      "लिया": 1933,
      "सब": 1934,
      "▁कमी": 1935,
      "▁जवाब": 1936,
      "▁महिलाओं": 1937,
      "▁शादी": 1938,
      "श्मीर": 1939,
      "गू": 1940,
      "▁सहाय": 1941,
      "▁रवि": 1942,
      "▁आदेश": 1943,
      "▁तय": 1944,
      "▁स्था": 1945,
      "किंग": 1946,
      "▁लेख": 1947,
      "▁रहता": 1948,
      "▁लगातार": 1949,
      "▁जिसके": 1950,
      "▁निकल": 1951,
      "▁युवा": 1952,
      "▁न्याया": 1953,
      "▁हासिल": 1954,
      "ed": 1955,
      "।’\n": 1956,
      "▁कवि": 1957,
      "ेंस": 1958,
      "▁बयान": 1959,
      "▁अद": 1960,
      "▁समिति": 1961,
      "▁30": 1962,
      "▁लगाया": 1963,
      "ामीण": 1964,
      "▁तुम": 1965,
      "तरा": 1966,
      "्रवाई": 1967,
      "▁ज्ञ": 1968,
      "▁दौ": 1969,
      "▁वक्त": 1970,
      "▁लो": 1971,
      "र्या": 1972,
      "▁थाना": 1973,
      "रीब": 1974,
      "ांस": 1975,
      "ष्ण": 1976,
      "▁अभियान": 1977,
      "तंत्र": 1978,
      "▁S": 1979,
      "▁जन्म": 1980,
      "▁नही": 1981,
      "▁गर्": 1982,
      "▁प्रकाश": 1983,
      "▁फर": 1984,
      "बाइल": 1985,
      "▁अच्छी": 1986,
      "▁लोकसभा": 1987,
      "▁सम्मान": 1988,
      "एफ": 1989,
      "धे": 1990,
      "ुट": 1991,
      "ेंड": 1992,
      "▁कार्रवाई": 1993,
      "▁माध्यम": 1994,
      "▁पहुंचे": 1995,
      "▁अभि": 1996,
      "▁राजनीतिक": 1997,
      "▁गंभीर": 1998,
      "तियों": 1999,
      "ूह": 2000,
      "▁भे": 2001,
      "▁सूचना": 2002,
      "▁गिरफ्तार": 2003,
      "▁पत्नी": 2004,
      "▁सड़क": 2005,
      "▁पाल": 2006,
      "▁नियम": 2007,
      "▁प्रयोग": 2008,
      "▁बाव": 2009,
      "▁सम्": 2010,
      "विद्यालय": 2011,
      "टेड": 2012,
      "▁अवसर": 2013,
      "त्मक": 2014,
      "▁आयोजित": 2015,
      "▁मंत्रालय": 2016,
      "शु": 2017,
      "▁वन": 2018,
      "स्ल": 2019,
      "▁हो।\n": 2020,
      "ायद": 2021,
      "▁निवासी": 2022,
      "गार": 2023,
      "▁वीड": 2024,
      "ेशा": 2025,
      "▁भाई": 2026,
      "▁क्रिकेट": 2027,
      "▁राजनीति": 2028,
      "▁महत्वपूर्ण": 2029,
      "▁बिजली": 2030,
      "तक": 2031,
      "तो": 2032,
      "हरी": 2033,
      "▁सर्व": 2034,
      "▁सेना": 2035,
      "▁भेज": 2036,
      "▁प्रदान": 2037,
      "▁चाल": 2038,
      "▁वालों": 2039,
      "वेदन": 2040,
      "▁देखते": 2041,
      "▁जिसे": 2042,
      "st": 2043,
      "ूं": 2044,
      "▁कहीं": 2045,
      "▁मी": 2046,
      "▁मंगल": 2047,
      "▁पक्ष": 2048,
      "▁तेज": 2049,
      "▁उसी": 2050,
      "▁शनि": 2051,
      "▁वीडियो": 2052,
      "▁o": 2053,
      "▁वाह": 2054,
      "▁गेंद": 2055,
      "▁भारी": 2056,
      "▁गया.\n": 2057,
      "मीन": 2058,
      "▁कहानी": 2059,
      "म्ह": 2060,
      "▁मैंने": 2061,
      "▁शिकायत": 2062,
      "षि": 2063,
      "▁बनी": 2064,
      "▁उद्": 2065,
      "िली": 2066,
      "▁फे": 2067,
      "▁चुन": 2068,
      "▁कानून": 2069,
      "▁बावजूद": 2070,
      "रु": 2071,
      "▁लॉ": 2072,
      "▁नोट": 2073,
      "▁गति": 2074,
      "▁गलत": 2075,
      "▁प्रस्ता": 2076,
      "▁विष": 2077,
      "▁मोबाइल": 2078,
      "▁निर्ण": 2079,
      "ंगे।\n": 2080,
      "क्षिण": 2081,
      "मह": 2082,
      "माम": 2083,
      "यदि": 2084,
      "▁a": 2085,
      "▁परिव": 2086,
      "नीय": 2087,
      "कारों": 2088,
      "▁हाई": 2089,
      "▁निकाल": 2090,
      "ंसा": 2091,
      "ठी": 2092,
      "धवार": 2093,
      "ूक": 2094,
      "ृह": 2095,
      "▁सै": 2096,
      "तान": 2097,
      "िकल": 2098,
      "िकों": 2099,
      "▁प्रक्रिया": 2100,
      "▁इसमें": 2101,
      "▁टै": 2102,
      "▁जाएगी।\n": 2103,
      "▁सोमवार": 2104,
      "र्थिक": 2105,
      "ेंद्रीय": 2106,
      "▁बेहतर": 2107,
      "▁हिस्सा": 2108,
      "▁भगवान": 2109,
      "कृत": 2110,
      "ट्र": 2111,
      "पना": 2112,
      "वुड": 2113,
      "ोरी": 2114,
      "ालत": 2115,
      "▁विप": 2116,
      "▁समु": 2117,
      "ांति": 2118,
      "ंदा": 2119,
      "श्न": 2120,
      "▁पाए": 2121,
      "▁सीमा": 2122,
      "द्धि": 2123,
      "▁पहुंचा": 2124,
      "म्मे": 2125,
      "▁आदमी": 2126,
      "▁शरीर": 2127,
      "जल": 2128,
      "तने": 2129,
      "▁कला": 2130,
      "▁अर्थ": 2131,
      "▁नंबर": 2132,
      "▁तला": 2133,
      "▁नेताओं": 2134,
      "▁इतना": 2135,
      "▁अपरा": 2136,
      "▁राय": 2137,
      "काब": 2138,
      "▁मुंबई": 2139,
      "ष्टि": 2140,
      "▁शी": 2141,
      "▁शो": 2142,
      "▁नहीं,": 2143,
      "▁बीजेपी": 2144,
      "▁हुआ।\n": 2145,
      "देव": 2146,
      "शील": 2147,
      "▁दिखाई": 2148,
      "▁प्रेम": 2149,
      "▁स्वास्थ्य": 2150,
      "ाजिक": 2151,
      "इस": 2152,
      "गु": 2153,
      "िप्": 2154,
      "▁क्ल": 2155,
      "▁माना": 2156,
      "्रष्ट": 2157,
      "▁आता": 2158,
      "▁उच्च": 2159,
      "▁देव": 2160,
      "▁कार्यालय": 2161,
      "▁48": 2162,
      "▁थी,": 2163,
      "क्रवार": 2164,
      "▁हुई।\n": 2165,
      "भावना": 2166,
      "▁ऊपर": 2167,
      "\"\n": 2168,
      "बता": 2169,
      "▁कदम": 2170,
      "▁ती": 2171,
      "्यार": 2172,
      "िक्": 2173,
      "▁लगाने": 2174,
      "▁सहयोग": 2175,
      "▁ताकि": 2176,
      "ज्ञा": 2177,
      "▁ब्लॉ": 2178,
      "▁खरीद": 2179,
      "▁आतंक": 2180,
      "it": 2181,
      "फे": 2182,
      "▁आयोग": 2183,
      "▁थो": 2184,
      "▁देता": 2185,
      "\tइसलिए": 2186,
      "000": 2187,
      "▁जुड़े": 2188,
      "▁छात्र": 2189,
      "▁आयोजन": 2190,
      "ce": 2191,
      "लू": 2192,
      "सद": 2193,
      "▁जेल": 2194,
      "ंगी": 2195,
      "ल्स": 2196,
      "▁हमेशा": 2197,
      "बाजी": 2198,
      "शनल": 2199,
      "▁‘‘": 2200,
      "▁जैसी": 2201,
      "▁राष्ट्रपति": 2202,
      "▁उम्र": 2203,
      "कम": 2204,
      "चन": 2205,
      "धानी": 2206,
      "ौल": 2207,
      "्वी": 2208,
      "▁बिल": 2209,
      "▁एक्स": 2210,
      "▁खास": 2211,
      "लीवुड": 2212,
      "▁45": 2213,
      "▁कार्यकर्": 2214,
      "धिकार": 2215,
      "▁मार्ग": 2216,
      "▁घोषणा": 2217,
      "ंभ": 2218,
      "▁वोट": 2219,
      "▁लक्ष": 2220,
      "▁अंदर": 2221,
      "▁हो,": 2222,
      "ड़ों": 2223,
      "▁जाकर": 2224,
      "▁स्म": 2225,
      "तिम": 2226,
      "▁अप्र": 2227,
      "▁घंटे": 2228,
      "ानीय": 2229,
      "▁देशों": 2230,
      "▁शेयर": 2231,
      "ंता": 2232,
      "रिया": 2233,
      "वै": 2234,
      "ॉल": 2235,
      "▁C": 2236,
      "▁M": 2237,
      "▁मां": 2238,
      "▁वी": 2239,
      "▁कीमत": 2240,
      "▁लेते": 2241,
      "▁35": 2242,
      "▁बनाए": 2243,
      "▁बिहार": 2244,
      "▁दुर्": 2245,
      "▁ग्राम": 2246,
      "▁ग्रामीण": 2247,
      "▁बदला": 2248,
      "▁रोड": 2249,
      "▁मार्च": 2250,
      "▁बेहद": 2251,
      "▁समर्थन": 2252,
      "▁निर्णय": 2253,
      "दय": 2254,
      "▁१": 2255,
      "▁जता": 2256,
      "▁दृ": 2257,
      "▁अहम": 2258,
      "▁नया": 2259,
      "▁आश": 2260,
      "▁आर्थिक": 2261,
      "▁यदि": 2262,
      "क्षित": 2263,
      "विध": 2264,
      "▁पूछ": 2265,
      "ंडी": 2266,
      "स्ट्रे": 2267,
      "स्थित": 2268,
      "▁शुरुआ": 2269,
      "▁स्वयं": 2270,
      "▁संगठन": 2271,
      "ew": 2272,
      "मारी": 2273,
      "▁हार": 2274,
      "▁मृत": 2275,
      "▁जय": 2276,
      "▁दिशा": 2277,
      "▁वहीं": 2278,
      "▁तीस": 2279,
      "्यो": 2280,
      "▁उससे": 2281,
      "▁हमारी": 2282,
      "ध्यक्ष": 2283,
      "▁वापस": 2284,
      "▁शनिवार": 2285,
      "ग्री": 2286,
      "िकित": 2287,
      "लेख": 2288,
      "▁राशि": 2289,
      "▁पहचान": 2290,
      "▁38": 2291,
      "▁50": 2292,
      "▁वर्ग": 2293,
      "▁नीचे": 2294,
      "भारतीय": 2295,
      "▁संबंधित": 2296,
      "▁सचिव": 2297,
      "पिछले": 2298,
      "...\n": 2299,
      "ंख": 2300,
      "दु": 2301,
      "ब्र": 2302,
      "िटी": 2303,
      "ोस": 2304,
      "▁मध्य": 2305,
      "▁जून": 2306,
      "्यु": 2307,
      "▁जाय": 2308,
      "▁खूब": 2309,
      "▁विवाद": 2310,
      "▁मुकाब": 2311,
      "ांड": 2312,
      "गी.\n": 2313,
      "▁सुधार": 2314,
      "वीं": 2315,
      "▁सामाजिक": 2316,
      "ोलन": 2317,
      "▁जरूरी": 2318,
      "▁पैदा": 2319,
      "▁इंटर": 2320,
      "्ले": 2321,
      "▁मं": 2322,
      "▁दबा": 2323,
      "र्न": 2324,
      "▁अनुभव": 2325,
      "▁अंक": 2326,
      "▁बनने": 2327,
      "▁बोर्ड": 2328,
      "अपने": 2329,
      "▁भूमिका": 2330,
      "सत": 2331,
      "हे": 2332,
      "▁दिला": 2333,
      "▁रै": 2334,
      "▁भू": 2335,
      "▁शि": 2336,
      "▁हैं?\n": 2337,
      "▁साफ": 2338,
      "जाब": 2339,
      "▁लागू": 2340,
      "▁विकेट": 2341,
      "▁किसानों": 2342,
      "नो": 2343,
      "ाचार": 2344,
      "▁मिन": 2345,
      "▁दू": 2346,
      "▁किये": 2347,
      "▁तेल": 2348,
      "▁इंत": 2349,
      "श्चित": 2350,
      "ाराज": 2351,
      "बंधन": 2352,
      "▁जुलाई": 2353,
      "हित्य": 2354,
      "इड": 2355,
      "साय": 2356,
      "▁पस": 2357,
      "▁यहाँ": 2358,
      "▁खो": 2359,
      "▁फाय": 2360,
      "▁देवी": 2361,
      "▁रहे।\n": 2362,
      "▁पाठ": 2363,
      "मुझे": 2364,
      "▁जिम्मे": 2365,
      "▁कराने": 2366,
      "▁पड़ता": 2367,
      "्‍य": 2368,
      "▁तरीके": 2369,
      "ंव": 2370,
      "असल": 2371,
      "कट": 2372,
      "खी": 2373,
      "चल": 2374,
      "तृ": 2375,
      "▁T": 2376,
      "▁सित": 2377,
      "▁बल": 2378,
      "▁अर्": 2379,
      "▁आख": 2380,
      "त्तर": 2381,
      "▁सात": 2382,
      "▁55": 2383,
      "▁करेंगे।\n": 2384,
      "▁जल्द": 2385,
      "खे": 2386,
      "जरी": 2387,
      "दूस": 2388,
      "प्री": 2389,
      "ूड": 2390,
      "▁वरि": 2391,
      "▁शायद": 2392,
      "लाह": 2393,
      "▁राहुल": 2394,
      "▁निवेश": 2395,
      "▁जाए।\n": 2396,
      "▁अंतिम": 2397,
      "▁करेंगे": 2398,
      "▁बुधवार": 2399,
      "▁आरोपी": 2400,
      "मुख्य": 2401,
      "▁तुम्ह": 2402,
      "▁नरेंद्र": 2403,
      "राष्ट्रीय": 2404,
      "▁अदालत": 2405,
      "▁मंगलवार": 2406,
      "एँ": 2407,
      "कई": 2408,
      "पण": 2409,
      "फर": 2410,
      "सों": 2411,
      "▁H": 2412,
      "▁मश": 2413,
      "नेट": 2414,
      "▁आवा": 2415,
      "▁ति": 2416,
      "▁देकर": 2417,
      "▁मुला": 2418,
      "▁सुना": 2419,
      "▁पूर्ण": 2420,
      "ोजन": 2421,
      "▁कंपन": 2422,
      "▁फैसले": 2423,
      "प्ताह": 2424,
      "-ब": 2425,
      "di": 2426,
      "करी": 2427,
      "लोग": 2428,
      "वें": 2429,
      "▁पति": 2430,
      "▁पेट": 2431,
      "▁में,": 2432,
      "▁अख": 2433,
      "▁भु": 2434,
      "स्म": 2435,
      "▁चीन": 2436,
      "▁चिकित": 2437,
      "ियाँ": 2438,
      "▁विजय": 2439,
      "▁रहती": 2440,
      "▁मुश्": 2441,
      "▁घा": 2442,
      "ंडल": 2443,
      "बीआई": 2444,
      "▁नागर": 2445,
      "▁डॉ.\n": 2446,
      "चीत": 2447,
      "▁विधायक": 2448,
      "▁युवक": 2449,
      "▁कौन": 2450,
      "तरी": 2451,
      "पल": 2452,
      "ॉप": 2453,
      "।'\n": 2454,
      "▁ऋ": 2455,
      "▁सत्ता": 2456,
      "्रोल": 2457,
      "▁दस": 2458,
      "▁वही": 2459,
      "▁नव": 2460,
      "▁किलो": 2461,
      "ानि": 2462,
      "▁भ्रष्ट": 2463,
      "▁साह": 2464,
      "▁समे": 2465,
      "▁संस्था": 2466,
      "▁स्वीकार": 2467,
      "▁वरिष्ठ": 2468,
      "▁मुश्किल": 2469,
      "प्रे": 2470,
      "यु": 2471,
      "वती": 2472,
      "हरे": 2473,
      "▁–": 2474,
      "▁हटा": 2475,
      "▁उल्": 2476,
      "▁इतनी": 2477,
      "▁चले": 2478,
      "▁साब": 2479,
      "▁संस्थान": 2480,
      "▁संभावना": 2481,
      "ुल्": 2482,
      "▁आपका": 2483,
      "▁हमले": 2484,
      "▁थीं": 2485,
      "▁बारिश": 2486,
      "▁हिंदी": 2487,
      "▁छात्रों": 2488,
      "▁शब्द": 2489,
      "▁प्रस्ताव": 2490,
      "il": 2491,
      "or": 2492,
      "कृ": 2493,
      "जु": 2494,
      "टने": 2495,
      "दिल्ली": 2496,
      "नु": 2497,
      "ेक": 2498,
      "▁“": 2499,
      "▁सारे": 2500,
      "▁गाय": 2501,
      "लाइन": 2502,
      "▁निजी": 2503,
      "▁निगम": 2504,
      "▁टिक": 2505,
      "▁छह": 2506,
      "म्बर": 2507,
      "▁जनवरी": 2508,
      "▁अमेरिका": 2509,
      "pt": 2510,
      "घर": 2511,
      "णाम": 2512,
      "▁रचना": 2513,
      "▁अल": 2514,
      "्यता": 2515,
      "क्ता": 2516,
      "▁देती": 2517,
      "▁साहित्य": 2518,
      "▁समान": 2519,
      "0\tअ": 2520,
      "साद": 2521,
      "▁टिप्": 2522,
      "▁घायल": 2523,
      "▁थीं।\n": 2524,
      "▁बातचीत": 2525,
      "▁2019": 2526,
      "उनके": 2527,
      "▁कॉलेज": 2528,
      "▁सदस्यों": 2529,
      "▁तेजी": 2530,
      "▁ट्रेन": 2531,
      "▁सांसद": 2532,
      "काम": 2533,
      "क्यों": 2534,
      "गो": 2535,
      "पक": 2536,
      "▁कर्": 2537,
      "▁कश्मीर": 2538,
      "▁सजा": 2539,
      "▁सैन": 2540,
      "▁जमीन": 2541,
      "▁दक्षिण": 2542,
      "▁रिक": 2543,
      "र्गत": 2544,
      "▁36": 2545,
      "▁दिया.\n": 2546,
      "▁पाया": 2547,
      "स्टर": 2548,
      "▁माता": 2549,
      "▁व्यक्त": 2550,
      "▁पुत्र": 2551,
      "▁न्यायालय": 2552,
      "स्ट्रेलिया": 2553,
      "-स": 2554,
      "ic": 2555,
      "एच": 2556,
      "जान": 2557,
      "जरात": 2558,
      "थि": 2559,
      "लिक": 2560,
      "लोक": 2561,
      "ॉड": 2562,
      "▁s": 2563,
      "▁सभा": 2564,
      "▁हॉ": 2565,
      "▁जित": 2566,
      "▁आते": 2567,
      "स्कार": 2568,
      "▁शान": 2569,
      "▁एड": 2570,
      "▁भीतर": 2571,
      "न्‍": 2572,
      "▁खत्म": 2573,
      "राने": 2574,
      "▁समी": 2575,
      "▁संचाल": 2576,
      "4\tअ": 2577,
      "1\tअ": 2578,
      "2\tअ": 2579,
      "9\tअ": 2580,
      "5\tअ": 2581,
      "3\tअ": 2582,
      "▁आपने": 2583,
      "▁58": 2584,
      "▁40": 2585,
      "▁बदलाव": 2586,
      "▁शुरुआत": 2587,
      "▁समेत": 2588,
      "ter": 2589,
      "खन": 2590,
      "चारी": 2591,
      "ड्ड": 2592,
      "मति": 2593,
      "षद": 2594,
      "सिक": 2595,
      "▁केंद्रीय": 2596,
      "▁आती": 2597,
      "▁तत्": 2598,
      "▁प्रव": 2599,
      "▁एजें": 2600,
      "ड़ियों": 2601,
      "▁समार": 2602,
      "▁पहला": 2603,
      "बाज": 2604,
      "▁रहा।\n": 2605,
      "▁मिलता": 2606,
      "स्तव": 2607,
      "स्तुत": 2608,
      "▁चाहता": 2609,
      "▁मोह": 2610,
      "▁अच्छे": 2611,
      "दर्श": 2612,
      "सिंह": 2613,
      "▁विश्वविद्यालय": 2614,
      "▁प्रभावित": 2615,
      "▁सामान्य": 2616,
      "▁अपराध": 2617,
      "ews": 2618,
      "▁साबित": 2619,
      "har": 2620,
      "om": 2621,
      "घा": 2622,
      "घटना": 2623,
      "▁/": 2624,
      "▁सें": 2625,
      "नेक": 2626,
      "▁दिस": 2627,
      "▁आत्म": 2628,
      "न्दी": 2629,
      "ियार": 2630,
      "▁खर्च": 2631,
      "6\tअ": 2632,
      "8\tअ": 2633,
      "▁तकनी": 2634,
      "▁सूची": 2635,
      "रिक्त": 2636,
      "▁विषय": 2637,
      "चिका": 2638,
      "जाम": 2639,
      "▁बर्": 2640,
      "▁रण": 2641,
      "▁गिरा": 2642,
      "7\tअ": 2643,
      "ाये": 2644,
      "दीप": 2645,
      "जीत": 2646,
      "▁46": 2647,
      "राज्य": 2648,
      "▁होंगे": 2649,
      "▁मिनट": 2650,
      "▁समारोह": 2651,
      "वत": 2652,
      "▁R": 2653,
      "▁सल": 2654,
      "▁सप्ताह": 2655,
      "▁आंद": 2656,
      "▁फ्र": 2657,
      "▁विद्य": 2658,
      "▁किया.\n": 2659,
      "▁घु": 2660,
      "▁हमला": 2661,
      "म्स": 2662,
      "▁मामलों": 2663,
      "▁फिल्मों": 2664,
      "▁समाप्त": 2665,
      "मैंने": 2666,
      "▁शुक्रवार": 2667,
      "▁हूं।\n": 2668,
      "out": 2669,
      "▁संयुक्त": 2670,
      "▁परेशान": 2671,
      "▁ज्ञान": 2672,
      "क़": 2673,
      "टल": 2674,
      "टो": 2675,
      "फोन": 2676,
      "राम": 2677,
      "▁I": 2678,
      "▁रू": 2679,
      "▁रोग": 2680,
      "र्ग": 2681,
      "▁गठ": 2682,
      "▁आन": 2683,
      "▁इतिहास": 2684,
      "▁प्रण": 2685,
      "▁प्रचार": 2686,
      "त्ती": 2687,
      "\tइसका": 2688,
      "▁57": 2689,
      "च्चा": 2690,
      "▁मेरा": 2691,
      "▁बताते": 2692,
      "▁डॉलर": 2693,
      "▁हेतु": 2694,
      "-अलग": 2695,
      "▁विश्वास": 2696,
      "▁पंचायत": 2697,
      "ion": 2698,
      "नर": 2699,
      "मक": 2700,
      "▁सिर": 2701,
      "▁मर": 2702,
      "▁प्यार": 2703,
      "▁प्रभ": 2704,
      "▁चली": 2705,
      "ड़ने": 2706,
      "▁पूछा": 2707,
      "चारियों": 2708,
      "▁जानते": 2709,
      "म्प": 2710,
      "▁स्टेशन": 2711,
      "धिकारी": 2712,
      "▁छोटे": 2713,
      "▁सफलता": 2714,
      "▁रविवार": 2715,
      "▁अप्रैल": 2716,
      "इक": 2717,
      "कर्म": 2718,
      "बु": 2719,
      "सन": 2720,
      "▁कैं": 2721,
      "▁पर्या": 2722,
      "▁लड़ा": 2723,
      "▁असर": 2724,
      "▁गीत": 2725,
      "▁त्र": 2726,
      "▁एंड": 2727,
      "▁एयर": 2728,
      "ियाणा": 2729,
      "▁विस्त": 2730,
      "गा.\n": 2731,
      "▁कारो": 2732,
      "विष्य": 2733,
      "▁उसमें": 2734,
      "▁छु": 2735,
      "▁पूजा": 2736,
      "▁धो": 2737,
      "▁स्थानीय": 2738,
      "▁जिसका": 2739,
      "▁हिंद": 2740,
      "▁परिणाम": 2741,
      "च्छा": 2742,
      "ंतु": 2743,
      "▁सहायता": 2744,
      "is": 2745,
      "ज्": 2746,
      "तमान": 2747,
      "फिल्म": 2748,
      "रल": 2749,
      "▁पट": 2750,
      "▁पैसे": 2751,
      "▁केस": 2752,
      "▁बिल्": 2753,
      "▁चरण": 2754,
      "ित्व": 2755,
      "▁सां": 2756,
      "ायी": 2757,
      "▁37": 2758,
      "▁उनसे": 2759,
      "▁राजधानी": 2760,
      "▁जाएंगे।\n": 2761,
      "▁दुकान": 2762,
      "ोटो": 2763,
      "▁जुड़ी": 2764,
      "▁खुश": 2765,
      "▁दावा": 2766,
      "स्कृत": 2767,
      "▁अलग-अलग": 2768,
      "▁उम्मीदवार": 2769,
      "फ्ट": 2770,
      "▁to": 2771,
      "▁ब्लॉग": 2772,
      "जनों": 2773,
      "ध्या": 2774,
      "यही": 2775,
      "ॉन": 2776,
      "▁p": 2777,
      "▁क्": 2778,
      "र्ती": 2779,
      "▁तुल": 2780,
      "▁प्रवेश": 2781,
      "त्त": 2782,
      "▁समूह": 2783,
      "▁56": 2784,
      "▁रिश्": 2785,
      "▁खुला": 2786,
      "पूर्व": 2787,
      "▁अगले": 2788,
      "▁होंगे।\n": 2789,
      "दरअसल": 2790,
      "▁भावना": 2791,
      "▁दबाव": 2792,
      "तृत्व": 2793,
      "▁आंदोलन": 2794,
      "चि": 2795,
      "दू": 2796,
      "बाल": 2797,
      "यम": 2798,
      "वट": 2799,
      "▁कार्ड": 2800,
      "▁मिश": 2801,
      "▁अनेक": 2802,
      "र्जा": 2803,
      "▁उपा": 2804,
      "ियल": 2805,
      "▁लेना": 2806,
      "▁59": 2807,
      "जीव": 2808,
      "दाता": 2809,
      "▁यानी": 2810,
      "▁याचिका": 2811,
      "▁जोर": 2812,
      "मीटर": 2813,
      "▁सोशल": 2814,
      "▁2016": 2815,
      "▁पुन": 2816,
      "ग्रह": 2817,
      "▁पसंद": 2818,
      "▁भ्रष्टाचार": 2819,
      "ंकी": 2820,
      "खर": 2821,
      "चु": 2822,
      "दिन": 2823,
      "मित": 2824,
      "सित": 2825,
      "▁कही": 2826,
      "▁कप्ता": 2827,
      "▁हथ": 2828,
      "▁शक्ति": 2829,
      "▁स्‍": 2830,
      "▁संत": 2831,
      "▁संवाद": 2832,
      "▁49": 2833,
      "▁राजा": 2834,
      "ंडा": 2835,
      "▁बातें": 2836,
      "▁वेब": 2837,
      "ज़ा": 2838,
      "▁क्षेत्रों": 2839,
      "▁पुस्त": 2840,
      "▁नीति": 2841,
      "▁बैठे": 2842,
      "▁कराया": 2843,
      "▁शुभ": 2844,
      "▁इलाके": 2845,
      "▁खेद": 2846,
      "▁घोषित": 2847,
      "▁भूमि": 2848,
      "▁मुद्दे": 2849,
      "▁परिवर्": 2850,
      "कर्ष": 2851,
      "जहां": 2852,
      "बै": 2853,
      "लाल": 2854,
      "▁सिल": 2855,
      "▁जवान": 2856,
      "▁नेतृत्व": 2857,
      "िलहाल": 2858,
      "▁शासन": 2859,
      "क्‍": 2860,
      "ियोग": 2861,
      "▁खड़े": 2862,
      "▁नहीं।\n": 2863,
      "कारा": 2864,
      "कांग्रेस": 2865,
      "ूरत": 2866,
      "प्रिय": 2867,
      "प्रदेश": 2868,
      "वाली": 2869,
      "▁संबंधी": 2870,
      "▁बल्ले": 2871,
      "▁टेस्ट": 2872,
      "▁कर्मचारियों": 2873,
      "▁दिवस": 2874,
      "मुख्यमंत्री": 2875,
      "pt-": 2876,
      "जद": 2877,
      "मै": 2878,
      "ील": 2879,
      "ोप": 2880,
      "▁c": 2881,
      "▁पल": 2882,
      "▁बिक": 2883,
      "▁बंग": 2884,
      "▁गण": 2885,
      "▁करनी": 2886,
      "▁उद्योग": 2887,
      "▁इन्": 2888,
      "▁प्रत्य": 2889,
      "▁श्रे": 2890,
      "▁यून": 2891,
      "रीज": 2892,
      "सीसी": 2893,
      "▁33": 2894,
      "▁39": 2895,
      "▁47": 2896,
      "▁राजस्थान": 2897,
      "स्तु": 2898,
      "▁सामना": 2899,
      "▁2011": 2900,
      "इनल": 2901,
      "चानक": 2902,
      "▁नियंत्र": 2903,
      "ent": 2904,
      "▁बजट": 2905,
      "▁अतिरिक्त": 2906,
      "▁टाइ": 2907,
      "▁वृद्धि": 2908,
      "▁opt-": 2909,
      "▁उद्देश": 2910,
      "खनऊ": 2911,
      "▁opt-out": 2912,
      "ँच": 2913,
      "जैसे": 2914,
      "नई": 2915,
      "पत्र": 2916,
      "▁L": 2917,
      "▁कट": 2918,
      "▁मगर": 2919,
      "▁नदी": 2920,
      "▁गोल": 2921,
      "▁आठ": 2922,
      "िक्स": 2923,
      "▁प्रत": 2924,
      "▁खुल": 2925,
      "त्मा": 2926,
      "साइट": 2927,
      "▁राज्यों": 2928,
      "▁चुना": 2929,
      "▁मेड": 2930,
      "▁बेटे": 2931,
      "▁बहु": 2932,
      "म्मू": 2933,
      "एसपी": 2934,
      "▁बुला": 2935,
      "जबकि": 2936,
      "▁डॉक्टर": 2937,
      "▁प्रशिक्ष": 2938,
      "▁कृषि": 2939,
      "▁मजबूत": 2940,
      ",000": 2941,
      "-साथ": 2942,
      "गौर": 2943,
      "न,": 2944,
      "बो": 2945,
      "यक": 2946,
      "ॉय": 2947,
      "▁B": 2948,
      "▁D": 2949,
      "▁रक्षा": 2950,
      "▁भविष्य": 2951,
      "▁प्रार": 2952,
      "▁खोज": 2953,
      "7\tस": 2954,
      "ंदगी": 2955,
      "ार्ज": 2956,
      "▁34": 2957,
      "▁सिद्ध": 2958,
      "▁मिलती": 2959,
      "▁बेटी": 2960,
      "▁क्षमता": 2961,
      "▁पहुंची": 2962,
      "▁जरिए": 2963,
      "्राइ": 2964,
      "उनका": 2965,
      "उनकी": 2966,
      "▁अगस्त": 2967,
      "▁जैसा": 2968,
      "पहले": 2969,
      "▁कविता": 2970,
      "ra": 2971,
      "ंतर": 2972,
      "ट्स": 2973,
      "पं": 2974,
      "है": 2975,
      "ौती": 2976,
      "ियोजना": 2977,
      "वाही": 2978,
      "सेना": 2979,
      "▁दोष": 2980,
      "▁बेच": 2981,
      "वाले": 2982,
      "▁गुजरात": 2983,
      "▁खिलाड़ी": 2984,
      "▁गाँ": 2985,
      "▁लड़की": 2986,
      "▁आधारित": 2987,
      "▁चिंता": 2988,
      "▁रेलवे": 2989,
      "▁समुदाय": 2990,
      "1\tइस": 2991,
      "2\tइस": 2992,
      "टिंग": 2993,
      "त:": 2994,
      "थी": 2995,
      "धु": 2996,
      "वो": 2997,
      "▁सलाह": 2998,
      "▁प्ले": 2999,
      "▁केन्द्र": 3000,
      "▁दश": 3001,
      "▁किताब": 3002,
      "▁काल": 3003,
      "कार्य": 3004,
      "4\tस": 3005,
      "6\tस": 3006,
      "9\tस": 3007,
      "िसा": 3008,
      "▁साथ-साथ": 3009,
      "वेज": 3010,
      "▁बनाई": 3011,
      "▁लगाए": 3012,
      "▁गुण": 3013,
      "उसके": 3014,
      "▁इलाज": 3015,
      "▁छोटी": 3016,
      "▁कर्मचारी": 3017,
      "▁गैस": 3018,
      "▁श्रद्ध": 3019,
      "▁सके।\n": 3020,
      "▁स्थापित": 3021,
      "▁अभिने": 3022,
      "स्लिम": 3023,
      "▁कंपनियों": 3024,
      "),": 3025,
      "डि": 3026,
      "नगर": 3027,
      "सव": 3028,
      "सूस": 3029,
      "▁कथ": 3030,
      "▁पश्च": 3031,
      "▁अंग्रे": 3032,
      "▁भवन": 3033,
      "▁परियोजना": 3034,
      "▁एल": 3035,
      "▁एक्ट": 3036,
      "ियत": 3037,
      "किसी": 3038,
      "▁राहत": 3039,
      "5\tस": 3040,
      "8\tस": 3041,
      "▁किया,": 3042,
      "▁निर": 3043,
      "▁डाय": 3044,
      "▁44": 3045,
      "▁हमने": 3046,
      "▁लाइन": 3047,
      "▁देखकर": 3048,
      "स्तानी": 3049,
      "ज़र": 3050,
      "▁दूसरा": 3051,
      "▁बढ़ाने": 3052,
      "ट्ट": 3053,
      "▁लौट": 3054,
      "▁तलाश": 3055,
      "-\n": 3056,
      "उन्हें": 3057,
      "वैसे": 3058,
      "”\n": 3059,
      "▁गृह": 3060,
      "▁प्रती": 3061,
      "▁प्रश्न": 3062,
      "3\tस": 3063,
      "क्षक": 3064,
      "ायण": 3065,
      "▁छि": 3066,
      "▁चाहे": 3067,
      "▁''": 3068,
      "सरकार": 3069,
      "▁दर्द": 3070,
      "▁युद्ध": 3071,
      "▁छात्रा": 3072,
      "▁समझा": 3073,
      "▁रेड": 3074,
      "▁फरवरी": 3075,
      "ऐसा": 3076,
      "कृति": 3077,
      "तः": 3078,
      "शाला": 3079,
      "।\"\n": 3080,
      "▁पौ": 3081,
      "▁वार्": 3082,
      "▁गौ": 3083,
      "▁आवेदन": 3084,
      "▁भर्ती": 3085,
      "स्त्र": 3086,
      "▁चढ़": 3087,
      "▁खड़ा": 3088,
      "▁संसद": 3089,
      "0\tस": 3090,
      "▁गया,": 3091,
      "▁54": 3092,
      "श्वर": 3093,
      "देशक": 3094,
      "कोर्ट": 3095,
      "▁मौका": 3096,
      "▁मानव": 3097,
      "est": 3098,
      "▁माहौल": 3099,
      "▁आवश्यकता": 3100,
      "▁गुरुवार": 3101,
      "▁News": 3102,
      "प्रीम": 3103,
      "oo": 3104,
      "बोध": 3105,
      "रान": 3106,
      "▁मई": 3107,
      "▁पृ": 3108,
      "▁वार": 3109,
      "▁अथ": 3110,
      "▁नाराज": 3111,
      "▁गंगा": 3112,
      "क्कर": 3113,
      "▁खराब": 3114,
      "ंग्ल": 3115,
      "▁संदेश": 3116,
      "1\tस": 3117,
      "2\tस": 3118,
      "▁सुख": 3119,
      "▁100": 3120,
      "दोनों": 3121,
      "▁स्पष्ट": 3122,
      "▁फायदा": 3123,
      "▁टिकट": 3124,
      "क्योंकि": 3125,
      "▁दिसंबर": 3126,
      "▁उद्देश्य": 3127,
      "4\tइस": 3128,
      "बारा": 3129,
      "िरी": 3130,
      "▁b": 3131,
      "▁२": 3132,
      "▁ठा": 3133,
      "▁कमा": 3134,
      "▁पड़ी": 3135,
      "्राम": 3136,
      "▁लं": 3137,
      "▁उद": 3138,
      "ाले": 3139,
      "▁प्रसाद": 3140,
      "▁जाति": 3141,
      "न्स": 3142,
      "न्तु": 3143,
      "▁खोल": 3144,
      "कात": 3145,
      "▁संभव": 3146,
      "ंदन": 3147,
      "ष्‍": 3148,
      "भाजपा": 3149,
      "▁सुपर": 3150,
      "▁60": 3151,
      "द्दी": 3152,
      "▁धी": 3153,
      "▁मौसम": 3154,
      "▁निर्धार": 3155,
      "▁2012": 3156,
      "निर्": 3157,
      "▁हरियाणा": 3158,
      "▁गैर": 3159,
      "▁संपर्क": 3160,
      "▁शानदार": 3161,
      "le": 3162,
      "ंकर": 3163,
      "ंटी": 3164,
      "वर्ष": 3165,
      "हो": 3166,
      "ॉर्ड": 3167,
      "▁F": 3168,
      "▁पुरु": 3169,
      "▁बहा": 3170,
      "▁अश": 3171,
      "▁1.": 3172,
      "▁नुक": 3173,
      "▁उचित": 3174,
      "▁शव": 3175,
      "न्ना": 3176,
      "▁फी": 3177,
      "त्कार": 3178,
      "▁साइ": 3179,
      "▁तोड़": 3180,
      "कीय": 3181,
      "▁डर": 3182,
      "▁दोस्त": 3183,
      "द्द": 3184,
      "पीट": 3185,
      "▁पाने": 3186,
      "▁पीएम": 3187,
      "▁2014": 3188,
      "▁परिजनों": 3189,
      "▁हाद": 3190,
      "▁पंजाब": 3191,
      "▁उत्पादन": 3192,
      "▁स्मार्ट": 3193,
      "▁इंतजार": 3194,
      "▁चिकित्स": 3195,
      ".’\n": 3196,
      "3\tइस": 3197,
      "ंजी": 3198,
      "क,": 3199,
      "तरे": 3200,
      "▁कड़ी": 3201,
      "▁पारी": 3202,
      "ें,": 3203,
      "▁गे": 3204,
      "▁तारी": 3205,
      "▁करो": 3206,
      "▁भूल": 3207,
      "▁उतर": 3208,
      "▁जागर": 3209,
      "त्‍": 3210,
      "ार्व": 3211,
      "ार्मिक": 3212,
      "्मी": 3213,
      "▁उनको": 3214,
      "▁महसूस": 3215,
      "▁प्रतिनि": 3216,
      "▁2010": 3217,
      "▁ऑन": 3218,
      "▁ऊर्जा": 3219,
      "▁लड़क": 3220,
      "▁मतदान": 3221,
      "▁मतलब": 3222,
      "▁कपूर": 3223,
      "▁न्याय": 3224,
      "▁व्यापार": 3225,
      "▁वाहन": 3226,
      "▁मुकाबले": 3227,
      "▁किलोमीटर": 3228,
      "▁कप्तान": 3229,
      "डर": 3230,
      "धरी": 3231,
      "रित": 3232,
      "ेद": 3233,
      "▁कठ": 3234,
      "▁सत": 3235,
      "▁मस": 3236,
      "▁मित्र": 3237,
      "ों,": 3238,
      "र्द": 3239,
      "▁तुर": 3240,
      "▁भरो": 3241,
      "▁शराब": 3242,
      "ित्य": 3243,
      "\tइसे": 3244,
      "्याण": 3245,
      "▁मुस्लिम": 3246,
      "▁31": 3247,
      "ंची": 3248,
      "▁बनाकर": 3249,
      "कोई": 3250,
      "▁उपाय": 3251,
      "म्ब": 3252,
      "▁रखते": 3253,
      "▁मनु": 3254,
      "▁संघर्ष": 3255,
      "▁शीर्ष": 3256,
      "▁कार्यकर्ताओं": 3257,
      "जरीवाल": 3258,
      "▁तत्काल": 3259,
      "▁वेबसाइट": 3260,
      "▁पुरुष": 3261,
      "आइ": 3262,
      "गन": 3263,
      "चीन": 3264,
      "थम": 3265,
      "भो": 3266,
      "ूँ": 3267,
      "ैर": 3268,
      "▁at": 3269,
      "▁अचानक": 3270,
      "▁नार": 3271,
      "▁तत्व": 3272,
      "क्सर": 3273,
      "ड़ित": 3274,
      "न्या": 3275,
      "तीश": 3276,
      "▁फोटो": 3277,
      "किस्तानी": 3278,
      "▁संभ": 3279,
      "2\tउन्होंने": 3280,
      "3\tउन्होंने": 3281,
      "िसर": 3282,
      "माश": 3283,
      "▁धारा": 3284,
      "▁हुए।\n": 3285,
      "प्ति": 3286,
      "वेद": 3287,
      "▁रिज": 3288,
      "▁समझौ": 3289,
      "ंबे": 3290,
      "▁यूपी": 3291,
      "▁अरब": 3292,
      "▁विदेशी": 3293,
      "▁आतंकवाद": 3294,
      "▁परिवर्तन": 3295,
      "▁नुकसान": 3296,
      "कद": 3297,
      "ख़": 3298,
      "ठे": 3299,
      "पथ": 3300,
      "फल": 3301,
      "वाना": 3302,
      "वस्था": 3303,
      "▁h": 3304,
      "▁प्ल": 3305,
      "▁बौ": 3306,
      "▁जम": 3307,
      "▁की.\n": 3308,
      "▁गरीब": 3309,
      "▁आये": 3310,
      "▁तमाम": 3311,
      "▁इच्छा": 3312,
      "▁प्रस्तुत": 3313,
      "ामद": 3314,
      "केश": 3315,
      "▁बाबा": 3316,
      "▁स्टे": 3317,
      "▁साझा": 3318,
      "7\tउन्होंने": 3319,
      "8\tउन्होंने": 3320,
      "क्षी": 3321,
      "▁निश": 3322,
      "ैंक": 3323,
      "▁53": 3324,
      "▁43": 3325,
      "्रेड": 3326,
      "▁धार": 3327,
      "▁कहने": 3328,
      "▁हिंसा": 3329,
      "▁हिन्दी": 3330,
      "▁सिंह,": 3331,
      "▁2018": 3332,
      "▁रखी": 3333,
      "▁मैदान": 3334,
      "▁तैना": 3335,
      "उसने": 3336,
      "आपको": 3337,
      "बहुत": 3338,
      "▁सुनवाई": 3339,
      "▁योगदान": 3340,
      "▁हिस्से": 3341,
      "▁फ़िल्म": 3342,
      "▁पकड़": 3343,
      "''": 3344,
      "उट": 3345,
      "▁मॉड": 3346,
      "▁पर्य": 3347,
      "▁लु": 3348,
      "र्श": 3349,
      "▁आकर": 3350,
      "▁आजा": 3351,
      "▁तू": 3352,
      "▁प्रमाण": 3353,
      "▁चैन": 3354,
      "▁भीड़": 3355,
      "▁फल": 3356,
      "लाब": 3357,
      "4\tयह": 3358,
      "4\tउन्होंने": 3359,
      "3\tयह": 3360,
      "8\tयह": 3361,
      "▁बीमारी": 3362,
      "▁विकल्प": 3363,
      "▁प्राइ": 3364,
      "जनक": 3365,
      "▁मैने": 3366,
      "▁ग्राह": 3367,
      "▁सुरक्षित": 3368,
      "▁बोले": 3369,
      "▁अग्र": 3370,
      "▁आरोपियों": 3371,
      "▁संगीत": 3372,
      "▁हालत": 3373,
      "▁ज़र": 3374,
      "▁कल्याण": 3375,
      "▁मूल्य": 3376,
      "▁अंतरराष्ट्रीय": 3377,
      "▁वित्त": 3378,
      "as": 3379,
      "मगर": 3380,
      "लम": 3381,
      "लैंड": 3382,
      "हान": 3383,
      "▁E": 3384,
      "▁हल": 3385,
      "्रो": 3386,
      "▁बंध": 3387,
      "▁आकर्ष": 3388,
      "ानों": 3389,
      "िलों": 3390,
      "▁शांति": 3391,
      "क्का": 3392,
      "▁खाली": 3393,
      "केट": 3394,
      "▁स्वर": 3395,
      "0\tयह": 3396,
      "1\tयह": 3397,
      "1\tउन्होंने": 3398,
      "2\tयह": 3399,
      "6\tयह": 3400,
      "5\tउन्होंने": 3401,
      "7\tयह": 3402,
      "विंद": 3403,
      "▁लाइ": 3404,
      "▁उपस्थित": 3405,
      "वंबर": 3406,
      "▁पहुंचने": 3407,
      "▁मानना": 3408,
      "▁ताजा": 3409,
      "दारों": 3410,
      "▁वर्षीय": 3411,
      "▁चाहिए.\n": 3412,
      "▁अवै": 3413,
      "▁होगा.\n": 3414,
      "▁गाड़ी": 3415,
      "\tइनमें": 3416,
      "▁तैयारी": 3417,
      "ing": 3418,
      "▁पत्रकार": 3419,
      "▁ट्रै": 3420,
      "अपनी": 3421,
      "ार्थियों": 3422,
      "▁अमेरिकी": 3423,
      "▁लक्ष्य": 3424,
      "त्तीस": 3425,
      "▁प्रतियोग": 3426,
      "re": 3427,
      "उत्तर": 3428,
      "गति": 3429,
      "टका": 3430,
      "तलब": 3431,
      "थर": 3432,
      "थमिक": 3433,
      "पास": 3434,
      "पहर": 3435,
      "मरा": 3436,
      "शिया": 3437,
      "ैतिक": 3438,
      "▁f": 3439,
      "▁m": 3440,
      "▁हित": 3441,
      "ेंज": 3442,
      "▁बू": 3443,
      "▁लें": 3444,
      "▁लखनऊ": 3445,
      "▁आंक": 3446,
      "▁तह": 3447,
      "▁शौ": 3448,
      "▁फ्ल": 3449,
      "▁विश": 3450,
      "गा,": 3451,
      "▁संर": 3452,
      "0\tउन्होंने": 3453,
      "4\tक": 3454,
      "6\tउन्होंने": 3455,
      "9\tयह": 3456,
      "5\tयह": 3457,
      "क्षर": 3458,
      "रेट": 3459,
      "▁पूर्": 3460,
      "▁महान": 3461,
      "िवर्स": 3462,
      "द्रा": 3463,
      "▁वर्तमान": 3464,
      "▁अनुमान": 3465,
      "ंपरा": 3466,
      "जनिक": 3467,
      "▁ऑस्ट्रेलिया": 3468,
      "▁स्वतंत्र": 3469,
      "▁अध्ययन": 3470,
      "मोहन": 3471,
      "▁बचाने": 3472,
      "▁सीटों": 3473,
      "▁एजेंसी": 3474,
      "hare": 3475,
      "▁कारोबार": 3476,
      "▁अथवा": 3477,
      "id": 3478,
      "आत": 3479,
      "जिला": 3480,
      "पणी": 3481,
      "ुप": 3482,
      "▁सारी": 3483,
      "▁मंच": 3484,
      "▁पहा": 3485,
      "यात": 3486,
      "▁रिली": 3487,
      "▁इंस": 3488,
      "▁चित्र": 3489,
      "▁चयन": 3490,
      "▁फॉ": 3491,
      "▁विवाह": 3492,
      "9\tउन्होंने": 3493,
      "▁थाने": 3494,
      "▁पहल": 3495,
      "▁500": 3496,
      "▁चाहती": 3497,
      "▁जिसकी": 3498,
      "बीर": 3499,
      "मेरे": 3500,
      "▁चलने": 3501,
      "सलमान": 3502,
      "▁जिनमें": 3503,
      "कर्ता": 3504,
      "▁नौकरी": 3505,
      "▁PM": 3506,
      "ूर्ति": 3507,
      "▁भेजा": 3508,
      "▁गतिविध": 3509,
      "▁मुलाकात": 3510,
      "▁प्रभारी": 3511,
      "गौरतलब": 3512,
      "ार्वजनिक": 3513,
      "ंघ": 3514,
      "ई।\n": 3515,
      "कुर": 3516,
      "मौ": 3517,
      "ेक्षा": 3518,
      "▁कब्": 3519,
      "▁ब्ला": 3520,
      "▁दाम": 3521,
      "▁दिये": 3522,
      "▁वैसे": 3523,
      "▁लै": 3524,
      "▁नो": 3525,
      "▁नवंबर": 3526,
      "ता,": 3527,
      "▁गुर": 3528,
      "▁आंख": 3529,
      "▁तभी": 3530,
      "▁नेट": 3531,
      "त्रियों": 3532,
      "▁विमान": 3533,
      "गांव": 3534,
      "1\tक": 3535,
      "▁कहां": 3536,
      "विधान": 3537,
      "▁42": 3538,
      "्रेट": 3539,
      "पाकिस्तान": 3540,
      "स्ट्री": 3541,
      "वेट": 3542,
      "ेलन": 3543,
      "▁2013": 3544,
      "▁विकसित": 3545,
      "▁परिषद": 3546,
      "▁प्राथमिक": 3547,
      "▁खिलाड़ियों": 3548,
      "▁आयु": 3549,
      "▁स्वामी": 3550,
      "िट्": 3551,
      "▁लोकप्रिय": 3552,
      "▁सफाई": 3553,
      "▁इलाकों": 3554,
      "▁पुरानी": 3555,
      "▁युवाओं": 3556,
      "▁जिम्मेदारी": 3557,
      "▁आखिर": 3558,
      "▁पेट्रोल": 3559,
      "▁नागरिक": 3560,
      "▁सलमान": 3561,
      "▁आनंद": 3562,
      "▁लड़ाई": 3563,
      "▁विस्तार": 3564,
      "▁तुलना": 3565,
      "▁पुस्तक": 3566,
      "▁तुरंत": 3567,
      "▁अवैध": 3568,
      "Share": 3569,
      "ct": 3570,
      "el": 3571,
      "इयों": 3572,
      "डिया": 3573,
      "ण्": 3574,
      "तब": 3575,
      "धुन": 3576,
      "नान": 3577,
      "वनी": 3578,
      "▁कार्": 3579,
      "▁मास": 3580,
      "▁दवा": 3581,
      "▁कितना": 3582,
      "िक्र": 3583,
      "▁चंद्र": 3584,
      "▁चोरी": 3585,
      "▁बाइक": 3586,
      "▁विद्यालय": 3587,
      "राय": 3588,
      "2\tक": 3589,
      "3\tक": 3590,
      "\tइसकी": 3591,
      "▁2009": 3592,
      "ढ़ी": 3593,
      "▁सुप्रीम": 3594,
      "ल्ट": 3595,
      "▁छू": 3596,
      "▁धर": 3597,
      "▁मिलकर": 3598,
      "ूरो": 3599,
      "▁कम्": 3600,
      "प्रति": 3601,
      "प्रधान": 3602,
      "▁लगती": 3603,
      "▁बिग": 3604,
      "▁रखे": 3605,
      "्‍या": 3606,
      "▁वैज्ञान": 3607,
      "▁सर्वे": 3608,
      "▁बरामद": 3609,
      "▁बंगाल": 3610,
      "▁प्रशिक्षण": 3611,
      "त्तीसगढ़": 3612,
      "ST": 3613,
      "उसे": 3614,
      "चक": 3615,
      "चौ": 3616,
      "टों": 3617,
      "टकर": 3618,
      "बारी": 3619,
      "शोध": 3620,
      "ॉक": 3621,
      "ौन": 3622,
      "▁क़": 3623,
      "▁हवा": 3624,
      "ेंशन": 3625,
      "▁बढ": 3626,
      "▁बरा": 3627,
      "▁परंपरा": 3628,
      "▁इंद": 3629,
      "▁चै": 3630,
      "▁खाना": 3631,
      "लेट": 3632,
      "रीन": 3633,
      "▁एक-": 3634,
      "▁रास्ते": 3635,
      "ायकों": 3636,
      "▁निर्म": 3637,
      "माने": 3638,
      "▁घूम": 3639,
      "▁रही।\n": 3640,
      "स्ट्र": 3641,
      "▁लाने": 3642,
      "प्रा": 3643,
      "▁दर्शन": 3644,
      "हमारे": 3645,
      "▁पैसा": 3646,
      "▁खाने": 3647,
      "न्दर": 3648,
      "▁दरवा": 3649,
      "▁अंतर्गत": 3650,
      "▁स्थापना": 3651,
      "▁प्रकाशित": 3652,
      "▁लॉन्": 3653,
      "▁रैली": 3654,
      "▁हथियार": 3655,
      "ul": 3656,
      "उंड": 3657,
      "खिल": 3658,
      "गुरु": 3659,
      "धारा": 3660,
      "बत": 3661,
      "बॉ": 3662,
      "बंदी": 3663,
      "भू": 3664,
      "मल": 3665,
      "मैन": 3666,
      "युक्त": 3667,
      "ूनी": 3668,
      "ोने": 3669,
      "▁केजरीवाल": 3670,
      "▁तनाव": 3671,
      "नाटक": 3672,
      "▁इतने": 3673,
      "▁प्रसार": 3674,
      "केत": 3675,
      "0\tक": 3676,
      "8\tक": 3677,
      "▁रहना": 3678,
      "▁मुझ": 3679,
      "▁निप": 3680,
      "▁32": 3681,
      "्रीन": 3682,
      "्रीका": 3683,
      "▁52": 3684,
      "▁सुंदर": 3685,
      "्रेस": 3686,
      "▁मात्रा": 3687,
      "▁बातों": 3688,
      "▁अनुमति": 3689,
      "चार्य": 3690,
      "▁सोनिया": 3691,
      "▁निर्वा": 3692,
      "▁इनके": 3693,
      "▁पार्ट": 3694,
      "▁घरों": 3695,
      "▁झू": 3696,
      "▁स्टार": 3697,
      "indi": 3698,
      "▁जिनके": 3699,
      "स्कृति": 3700,
      "▁योगी": 3701,
      "▁मारपीट": 3702,
      "▁पुरस्कार": 3703,
      "▁रोजगार": 3704,
      "▁सितंबर": 3705,
      "ुल्क": 3706,
      "▁गाँव": 3707,
      "▁तैनात": 3708,
      "0\tइस": 3709,
      "दल": 3710,
      "मती": 3711,
      "ह्": 3712,
      "ूंगा": 3713,
      "्तीय": 3714,
      "▁कले": 3715,
      "▁सार्वजनिक": 3716,
      "▁मजद": 3717,
      "नेस": 3718,
      "▁वीर": 3719,
      "▁कितनी": 3720,
      "▁करार": 3721,
      "▁कराई": 3722,
      "▁भि": 3723,
      "नाक": 3724,
      "▁शै": 3725,
      "▁फें": 3726,
      "▁अपील": 3727,
      "9\tक": 3728,
      "ांक": 3729,
      "▁पाकिस्तानी": 3730,
      "▁माँ": 3731,
      "टेन": 3732,
      "▁स्थल": 3733,
      "▁कमे": 3734,
      "▁ओवर": 3735,
      "▁सालों": 3736,
      "▁2017": 3737,
      "देन": 3738,
      "▁शिकार": 3739,
      "▁वर्षों": 3740,
      "▁चुनावों": 3741,
      "जूदा": 3742,
      "▁अवधि": 3743,
      "▁चौधरी": 3744,
      "▁गोली": 3745,
      "▁रेखा": 3746,
      "सिद्ध": 3747,
      "▁व्यवहार": 3748,
      "▁उठाया": 3749,
      "▁बॉलीवुड": 3750,
      "▁समस्याओं": 3751,
      "▁जल्दी": 3752,
      "▁बजाय": 3753,
      "▁तीनों": 3754,
      "उंट": 3755,
      "जोर": 3756,
      "नियर": 3757,
      "पने": 3758,
      "पता": 3759,
      "फ्र": 3760,
      "मिल": 3761,
      "ोत्": 3762,
      "▁कब": 3763,
      "▁हाला": 3764,
      "▁मरी": 3765,
      "▁ब्रे": 3766,
      "▁दलों": 3767,
      "▁रहीं": 3768,
      "▁अके": 3769,
      "▁अका": 3770,
      "▁किन": 3771,
      "▁भोजन": 3772,
      "▁उन्": 3773,
      "नाम": 3774,
      "▁इन्हें": 3775,
      "▁इंग्ल": 3776,
      "▁प्रथम": 3777,
      "▁प्रगति": 3778,
      "वां": 3779,
      "▁विज्ञान": 3780,
      "▁संकट": 3781,
      "5\tक": 3782,
      "7\tक": 3783,
      "▁निरी": 3784,
      "माग": 3785,
      "साह": 3786,
      "▁टूट": 3787,
      "▁सक्र": 3788,
      "▁अनुर": 3789,
      "▁70": 3790,
      "▁दोपहर": 3791,
      "▁धार्मिक": 3792,
      "पीएल": 3793,
      "▁गई.\n": 3794,
      "▁सीबीआई": 3795,
      "▁उपचार": 3796,
      "▁2015": 3797,
      "▁चलता": 3798,
      "▁गुजर": 3799,
      "▁बदमाश": 3800,
      "▁क्रम": 3801,
      "▁अनुसार,": 3802,
      "▁अध्यक्षता": 3803,
      "▁मालिक": 3804,
      "▁परेशानी": 3805,
      "▁अन्ना": 3806,
      "▁टैक्स": 3807,
      "▁तीसरे": 3808,
      "▁टिप्पणी": 3809,
      "िसाब": 3810,
      "▁पश्चिम": 3811,
      "द्दीन": 3812,
      "▁ऑनलाइन": 3813,
      "गरी": 3814,
      "थे": 3815,
      "दरा": 3816,
      "धाई": 3817,
      "नम": 3818,
      "लिंग": 3819,
      "ूद": 3820,
      "्वर": 3821,
      "▁0": 3822,
      "▁कक्षा": 3823,
      "▁सिया": 3824,
      "▁सवार": 3825,
      "▁पुल": 3826,
      "▁पोल": 3827,
      "▁जंग": 3828,
      "▁जिलों": 3829,
      "▁दस्ता": 3830,
      "▁ग़": 3831,
      "▁प्रता": 3832,
      "▁प्रतिक": 3833,
      "▁शोध": 3834,
      "न्ध": 3835,
      "▁फूल": 3836,
      "त्रि": 3837,
      "▁साध": 3838,
      "▁संसा": 3839,
      "▁निदेशक": 3840,
      "ार्क": 3841,
      "▁200": 3842,
      "▁ट्": 3843,
      "▁मात्र": 3844,
      "▁हिन्द": 3845,
      "ज़ार": 3846,
      "▁गुप्ता": 3847,
      "म्मद": 3848,
      "▁टीवी": 3849,
      "▁ताकत": 3850,
      "▁बुरा": 3851,
      "▁जिंदगी": 3852,
      "▁योजनाओं": 3853,
      "मोदी": 3854,
      "▁मुताबिक,": 3855,
      "▁मृत्यु": 3856,
      "▁दूध": 3857,
      "▁बिल्कुल": 3858,
      "▁निर्धारित": 3859,
      "धुनिक": 3860,
      "▁सक्रिय": 3861,
      "9\tइस": 3862,
      "ab": 3863,
      "ch": 3864,
      "ment": 3865,
      "जिन": 3866,
      "नन": 3867,
      "बस": 3868,
      "बद्ध": 3869,
      "मेश": 3870,
      "िनी": 3871,
      "ूली": 3872,
      "▁K": 3873,
      "▁on": 3874,
      "▁सत्र": 3875,
      "▁मारे": 3876,
      "▁पॉ": 3877,
      "ारिज": 3878,
      "▁नज़र": 3879,
      "▁कोल": 3880,
      "▁आलो": 3881,
      "▁भले": 3882,
      "▁परिसर": 3883,
      "▁चर": 3884,
      "▁स्टा": 3885,
      "नीति": 3886,
      "▁संकेत": 3887,
      "▁संस्कृति": 3888,
      "्यास": 3889,
      "▁मुक्त": 3890,
      "▁निष्": 3891,
      "ैंस": 3892,
      "▁साथी": 3893,
      "ढ़े": 3894,
      "▁सुनी": 3895,
      "▁सीधे": 3896,
      "▁कहता": 3897,
      "▁बहस": 3898,
      "▁बढ़ती": 3899,
      "▁रूपए": 3900,
      "▁वास्तव": 3901,
      "▁पुराने": 3902,
      "धीश": 3903,
      "▁ग्रह": 3904,
      "▁पैर": 3905,
      "ार्थी": 3906,
      "सबुक": 3907,
      "▁साहब": 3908,
      "▁गिरावट": 3909,
      "▁उपाध्यक्ष": 3910,
      "▁यूनिवर्स": 3911,
      "▁नियंत्रण": 3912,
      "▁प्रतियोगिता": 3913,
      "-प्र": 3914,
      "ro": 3915,
      "इए": 3916,
      "गंज": 3917,
      "यत": 3918,
      "रत": 3919,
      "वण": 3920,
      "वधान": 3921,
      "शाह": 3922,
      "▁हिसाब": 3923,
      "▁पदा": 3924,
      "▁जानी": 3925,
      "▁नती": 3926,
      "ताछ": 3927,
      "▁कोच": 3928,
      "6\tक": 3929,
      "▁मुकद": 3930,
      "साइ": 3931,
      "ंचाई": 3932,
      "▁दोबारा": 3933,
      "▁महारा": 3934,
      "▁सीख": 3935,
      "▁कामया": 3936,
      "▁मानते": 3937,
      "▁मानसिक": 3938,
      "▁खुशी": 3939,
      "▁जिन्होंने": 3940,
      "▁ठे": 3941,
      "▁बोली": 3942,
      "▁सफर": 3943,
      "▁स्वागत": 3944,
      "▁न्यूज": 3945,
      "▁वितरण": 3946,
      "पुरा": 3947,
      "▁अफ्रीका": 3948,
      "▁पड़ा।\n": 3949,
      "दूसरे": 3950,
      "▁प्रणाली": 3951,
      "▁रिश्ते": 3952,
      "▁कथित": 3953,
      "▁अंग्रेजी": 3954,
      "प्रधानमंत्री": 3955,
      "▁कमेटी": 3956,
      "-फ": 3957,
      "iv": 3958,
      "un": 3959,
      "आम": 3960,
      "उप": 3961,
      "घु": 3962,
      "निक": 3963,
      "मेल": 3964,
      "वानी": 3965,
      "ूबर": 3966,
      "ेर": 3967,
      "▁सड़": 3968,
      "▁सका": 3969,
      "▁हद": 3970,
      "▁हड़": 3971,
      "▁जहाँ": 3972,
      "▁विल": 3973,
      "▁लूट": 3974,
      "▁भो": 3975,
      "▁उन्ह": 3976,
      "▁प्रभा": 3977,
      "▁खारिज": 3978,
      "▁विरा": 3979,
      "गाह": 3980,
      "▁संबोध": 3981,
      "▁मुसलमान": 3982,
      "▁निभा": 3983,
      "रेलू": 3984,
      "िनियम": 3985,
      "▁आपत्ति": 3986,
      "▁सुनि": 3987,
      "▁छूट": 3988,
      "▁हमारा": 3989,
      "▁जोड़": 3990,
      "स्टम": 3991,
      "ष्ट्र": 3992,
      "▁लगाते": 3993,
      "▁बहन": 3994,
      "▁बढ़ने": 3995,
      "देख": 3996,
      "▁दर्श": 3997,
      "▁पिछ": 3998,
      "▁जिन्हें": 3999,
      "▁अभिन": 4000,
      "▁करेगा।\n": 4001,
      "▁करेगी।\n": 4002,
      "▁पढ़ाई": 4003,
      "▁पेड़": 4004,
      "▁विधायकों": 4005,
      "▁वित्तीय": 4006,
      "▁शब्दों": 4007,
      "▁पालन": 4008,
      "▁चुनौती": 4009,
      "▁थोड़ा": 4010,
      "▁मंजू": 4011,
      "▁Hindi": 4012,
      "▁सिलस": 4013,
      "▁धीरे": 4014,
      "▁भरोसा": 4015,
      "-20": 4016,
      ".5": 4017,
      "2\tइसके": 4018,
      "7\tइस": 4019,
      "ay": 4020,
      "खों": 4021,
      "ठक": 4022,
      "दक": 4023,
      "पक्ष": 4024,
      "शासन": 4025,
      "▁in": 4026,
      "▁सुल": 4027,
      "▁मस्": 4028,
      "▁पटना": 4029,
      "▁बधाई": 4030,
      "▁जम्मू": 4031,
      "▁वायर": 4032,
      "▁री": 4033,
      "▁नज": 4034,
      "▁आसान": 4035,
      "▁किर": 4036,
      "▁होनी": 4037,
      "▁खि": 4038,
      "▁खतरा": 4039,
      "▁बाकी": 4040,
      "▁स्पी": 4041,
      "▁रास्ता": 4042,
      "्याज": 4043,
      "ांश": 4044,
      "गी,": 4045,
      "श्त": 4046,
      "▁75": 4047,
      "▁लोगो": 4048,
      "▁पाते": 4049,
      "▁दी.\n": 4050,
      "ंधे": 4051,
      "▁मौजूदा": 4052,
      "▁लगने": 4053,
      "▁रखना": 4054,
      "वाला": 4055,
      "▁सकता।\n": 4056,
      "▁हाउस": 4057,
      "▁लिमि": 4058,
      "वासियों": 4059,
      "▁खाते": 4060,
      "समय": 4061,
      "▁दें।\n": 4062,
      "▁ऑफिस": 4063,
      "वहीं,": 4064,
      "▁दलित": 4065,
      "राष्ट्र": 4066,
      "▁दृष्टि": 4067,
      "▁आवाज": 4068,
      "स्कृतिक": 4069,
      "▁मेडिकल": 4070,
      "▁लॉन्च": 4071,
      "▁ट्वि": 4072,
      "▁लिमिटेड": 4073,
      "1\tइसके": 4074,
      "3\tइसके": 4075,
      "ad": 4076,
      "am": 4077,
      "ंटर": 4078,
      "ख्": 4079,
      "तौर": 4080,
      "बच्च": 4081,
      "रू": 4082,
      "वक": 4083,
      "विक": 4084,
      "▁G": 4085,
      "▁हल्": 4086,
      "▁पव": 4087,
      "ें.\n": 4088,
      "▁है।": 4089,
      "▁दम": 4090,
      "▁दूरी": 4091,
      "▁में।\n": 4092,
      "▁वाय": 4093,
      "▁अंग": 4094,
      "▁आँ": 4095,
      "▁आना": 4096,
      "▁उड़": 4097,
      "स्त्री": 4098,
      "▁प्री": 4099,
      "▁शही": 4100,
      "राह": 4101,
      "कील": 4102,
      "▁पहन": 4103,
      "▁ट्वी": 4104,
      "▁घोट": 4105,
      "▁उनमें": 4106,
      "डीएम": 4107,
      "▁रिट": 4108,
      "▁ताप": 4109,
      "▁झु": 4110,
      "▁ली।\n": 4111,
      "▁बैंकों": 4112,
      "▁शहरों": 4113,
      "जिसमें": 4114,
      "सूत्रों": 4115,
      "▁चालक": 4116,
      "महिला": 4117,
      "▁आशंका": 4118,
      "लोगों": 4119,
      "▁भुग": 4120,
      "कृष्ण": 4121,
      "▁ठाकुर": 4122,
      "▁मनुष्य": 4123,
      "▁रिलीज": 4124,
      "▁यूनिवर्सिटी": 4125,
      "4\tइसके": 4126,
      "ur": 4127,
      "ं.\n": 4128,
      "कल्प": 4129,
      "गण": 4130,
      "शिव": 4131,
      "ॉट": 4132,
      "▁J": 4133,
      "▁कंट": 4134,
      "▁कल्प": 4135,
      "▁हवाई": 4136,
      "▁पर्": 4137,
      "▁पर्व": 4138,
      "▁बें": 4139,
      "▁जू": 4140,
      "▁जबर": 4141,
      "▁अक": 4142,
      "▁की,": 4143,
      "▁नवी": 4144,
      "▁गल": 4145,
      "▁से,": 4146,
      "▁प्रत्या": 4147,
      "क्सी": 4148,
      "▁एच": 4149,
      "ंग्ला": 4150,
      "▁फिलहाल": 4151,
      "ला,": 4152,
      "4\tम": 4153,
      "1\tआ": 4154,
      "टीएम": 4155,
      "रेक्टर": 4156,
      "▁टू": 4157,
      "ाहरण": 4158,
      "▁धम": 4159,
      "▁सीरीज": 4160,
      "▁कहती": 4161,
      "▁गए.\n": 4162,
      "▁कमरे": 4163,
      "▁सामग्री": 4164,
      "ब्ल": 4165,
      "▁पीड़ित": 4166,
      "▁दिमाग": 4167,
      "▁मनो": 4168,
      "िटल": 4169,
      "▁क्रिया": 4170,
      "र्डर": 4171,
      "कुमार": 4172,
      "▁होगा,": 4173,
      "▁डिग्री": 4174,
      "▁पत्रिका": 4175,
      "▁चारों": 4176,
      "शिप": 4177,
      "▁अमरी": 4178,
      "▁हाथों": 4179,
      "जिसके": 4180,
      "ट्टी": 4181,
      "▁सम्मेलन": 4182,
      "▁आसानी": 4183,
      "▁फाइनल": 4184,
      "लेखनीय": 4185,
      "▁मशीन": 4186,
      "जानकारी": 4187,
      "▁प्रवक्ता": 4188,
      "बैठक": 4189,
      "▁प्रत्येक": 4190,
      "▁चुनावी": 4191,
      "▁दशक": 4192,
      "▁मरीजों": 4193,
      "▁भुगतान": 4194,
      "ot": 4195,
      "ं,": 4196,
      "ंजन": 4197,
      "दास": 4198,
      "पत": 4199,
      "रोज": 4200,
      "▁कर्ज": 4201,
      "▁मकान": 4202,
      "ारखंड": 4203,
      "▁ज्यो": 4204,
      "▁वहाँ": 4205,
      "▁सेक": 4206,
      "▁किश": 4207,
      "▁नेशनल": 4208,
      "राग": 4209,
      "राव": 4210,
      "▁संजय": 4211,
      "वार्": 4212,
      "▁ड्राइ": 4213,
      "ार्म": 4214,
      "▁2008": 4215,
      "्मण": 4216,
      "▁अनिवार": 4217,
      "▁अधिनियम": 4218,
      "श्वास": 4219,
      "▁दिया,": 4220,
      "▁गई,": 4221,
      "▁उपभो": 4222,
      "▁कार्यों": 4223,
      "▁देखें": 4224,
      "▁देखना": 4225,
      "हतरीन": 4226,
      "▁रोम": 4227,
      "▁पड़ती": 4228,
      "▁संगठ": 4229,
      "▁अमित": 4230,
      "▁ज़्यादा": 4231,
      "...": 4232,
      "▁कार्यकर्ता": 4233,
      "▁ऋण": 4234,
      "▁रिकॉर्ड": 4235,
      "▁संचालन": 4236,
      "▁पर्यावरण": 4237,
      "▁दोषी": 4238,
      "▁लड़कियों": 4239,
      "▁जमकर": 4240,
      "▁आजादी": 4241,
      "▁इंसान": 4242,
      "▁सड़कों": 4243,
      "-ज": 4244,
      "ap": 4245,
      "खु": 4246,
      "छो": 4247,
      "जिए": 4248,
      "टरी": 4249,
      "डियो": 4250,
      "नतम": 4251,
      "पद": 4252,
      "यो": 4253,
      "लंका": 4254,
      "शहर": 4255,
      "हली": 4256,
      "ेड़": 4257,
      "्हा": 4258,
      "▁)": 4259,
      "▁पढ": 4260,
      "▁प्ला": 4261,
      "▁है-": 4262,
      "यावती": 4263,
      "▁जैन": 4264,
      "▁वर": 4265,
      "▁अत्य": 4266,
      "▁नवा": 4267,
      "न्व": 4268,
      "वाणी": 4269,
      "▁फसल": 4270,
      "2\tआ": 4271,
      "6\tआ": 4272,
      "6\tम": 4273,
      "9\tआ": 4274,
      "5\tआ": 4275,
      "▁मुंह": 4276,
      "▁निरा": 4277,
      "▁निश्चित": 4278,
      "दीय": 4279,
      "भाषा": 4280,
      "▁51": 4281,
      "▁राजन": 4282,
      "जागर": 4283,
      "▁80": 4284,
      "▁दीवार": 4285,
      "▁कमजोर": 4286,
      "▁वर्ल्ड": 4287,
      "मेरी": 4288,
      "▁इनकी": 4289,
      "▁दुख": 4290,
      "▁बैठा": 4291,
      "▁पुष्टि": 4292,
      "एं।\n": 4293,
      "▁स्टूड": 4294,
      "▁चौक": 4295,
      "▁गांवों": 4296,
      "▁चलाने": 4297,
      "▁चेहरे": 4298,
      "▁मिलाकर": 4299,
      "▁महास": 4300,
      "ग्ध": 4301,
      "▁आसपास": 4302,
      "▁होगी.\n": 4303,
      "दायिक": 4304,
      "व्यवस्था": 4305,
      "▁बचने": 4306,
      "▁अन्त": 4307,
      "▁व्यापक": 4308,
      "टेडियम": 4309,
      "▁मीटर": 4310,
      "ज्ञात": 4311,
      "▁गठबंधन": 4312,
      "कारात्मक": 4313,
      "▁अशोक": 4314,
      "▁स्मार्टफोन": 4315,
      "▁जागरूक": 4316,
      "▁प्राइवेट": 4317,
      "▁विशाल": 4318,
      "▁हालात": 4319,
      "दराबाद": 4320,
      "जत": 4321,
      "डु": 4322,
      "पेट": 4323,
      "बान": 4324,
      "वहां": 4325,
      "ुष": 4326,
      "००": 4327,
      "▁सन्": 4328,
      "▁सत्य": 4329,
      "▁हरा": 4330,
      "▁हफ्": 4331,
      "▁पां": 4332,
      "्रत": 4333,
      "यां": 4334,
      "▁जला": 4335,
      "▁वार्ड": 4336,
      "▁लंबे": 4337,
      "▁रद्द": 4338,
      "▁अह": 4339,
      "तावरण": 4340,
      "▁गहरा": 4341,
      "▁सेक्स": 4342,
      "▁कां": 4343,
      "▁काउ": 4344,
      "▁इका": 4345,
      "▁इजा": 4346,
      "▁इस्ती": 4347,
      "▁इस्ल": 4348,
      "▁खी": 4349,
      "▁फो": 4350,
      "▁बांध": 4351,
      "▁स्टेडियम": 4352,
      "सील": 4353,
      "▁अपेक्षा": 4354,
      "0\tआ": 4355,
      "4\tआ": 4356,
      "5\tम": 4357,
      "3\tआ": 4358,
      "3\tम": 4359,
      "8\tआ": 4360,
      "टीवी": 4361,
      "विश्व": 4362,
      "▁सिटी": 4363,
      "▁सिखा": 4364,
      "दाबाद": 4365,
      "▁41": 4366,
      "▁मिलते": 4367,
      "▁माइ": 4368,
      "▁सीएम": 4369,
      "▁जिसने": 4370,
      "▁लगते": 4371,
      "▁रुक": 4372,
      "▁नामक": 4373,
      "▁दुष्": 4374,
      "▁बनाना": 4375,
      "▁दिग्": 4376,
      "्यूटर": 4377,
      "क्टूबर": 4378,
      "▁मिला।\n": 4379,
      "▁घटनाओं": 4380,
      "▁हालांकि": 4381,
      "▁हजारों": 4382,
      "▁चीज": 4383,
      "▁विरोधी": 4384,
      "जिद": 4385,
      "▁खबरें": 4386,
      "▁कृष्ण": 4387,
      "▁नियुक्त": 4388,
      "▁अफसर": 4389,
      "▁वापसी": 4390,
      "बिहार": 4391,
      "▁निकालने": 4392,
      "▁पूछताछ": 4393,
      "▁घुस": 4394,
      "▁कैंसर": 4395,
      "चुनाव": 4396,
      "▁बिक्री": 4397,
      "▁पवित्र": 4398,
      "▁ज्योति": 4399,
      "-च": 4400,
      "6\tइस": 4401,
      "ig": 4402,
      "इज": 4403,
      "ख्त": 4404,
      "जित": 4405,
      "तल": 4406,
      "दुर": 4407,
      "पै": 4408,
      "फिक": 4409,
      "विल": 4410,
      "शिक्ष": 4411,
      "हमें": 4412,
      "िग": 4413,
      "▁V": 4414,
      "▁d": 4415,
      "▁॥": 4416,
      "▁अली": 4417,
      "▁अक्सर": 4418,
      "▁नम": 4419,
      "▁नक्स": 4420,
      "▁गुल": 4421,
      "▁गौर": 4422,
      "▁आवं": 4423,
      "▁करियर": 4424,
      "▁काला": 4425,
      "्यवाद": 4426,
      "▁इले": 4427,
      "▁प्रबंधन": 4428,
      "▁हो.\n": 4429,
      "▁शास": 4430,
      "▁फु": 4431,
      "▁विज": 4432,
      "▁विभा": 4433,
      "▁समक्ष": 4434,
      "ंदे": 4435,
      "▁ड्र": 4436,
      "▁छत्तीसगढ़": 4437,
      "श्‍": 4438,
      "ोजे": 4439,
      "▁पाता": 4440,
      "▁लागत": 4441,
      "▁सीमित": 4442,
      "▁सोने": 4443,
      "▁वेतन": 4444,
      "▁निर्मा": 4445,
      "ंपनी": 4446,
      "▁वातावरण": 4447,
      "▁समाचार": 4448,
      "▁ग्रुप": 4449,
      "न्नई": 4450,
      "माणु": 4451,
      "▁शिक्षक": 4452,
      "▁दावे": 4453,
      "▁ट्रक": 4454,
      "▁करेगा": 4455,
      "▁कपड़े": 4456,
      "▁पत्थर": 4457,
      "▁शेर": 4458,
      "▁चीनी": 4459,
      "▁स्थानों": 4460,
      "▁आराम": 4461,
      "▁विधे": 4462,
      "▁आदित्य": 4463,
      "▁मैचों": 4464,
      "▁बचाव": 4465,
      "▁अरविंद": 4466,
      "▁आतंकी": 4467,
      "▁संपत्ति": 4468,
      "▁th": 4469,
      "्रमण": 4470,
      "▁नियमित": 4471,
      "धिकारियों": 4472,
      "▁जताई": 4473,
      "▁समीक्षा": 4474,
      "▁तकनीक": 4475,
      "▁तकनीकी": 4476,
      "कार्यक्रम": 4477,
      "▁हादसे": 4478,
      "▁कठिन": 4479,
      "▁संभाल": 4480,
      "▁गतिविधियों": 4481,
      "▁मजदूर": 4482,
      "▁सुनिश्चित": 4483,
      "▁मंजूरी": 4484,
      "▁ट्वीट": 4485,
      "ace": 4486,
      "lo": 4487,
      "ंटा": 4488,
      "थ्वी": 4489,
      "द्या": 4490,
      "न्यू": 4491,
      "फॉ": 4492,
      "फिया": 4493,
      "लान": 4494,
      "संग": 4495,
      "हत्या": 4496,
      "▁मंज": 4497,
      "▁बला": 4498,
      "▁बजा": 4499,
      "▁लगे।\n": 4500,
      "▁अदा": 4501,
      "▁सेवन": 4502,
      "▁आधुनिक": 4503,
      "▁भौ": 4504,
      "▁उल": 4505,
      "▁प्रबंध": 4506,
      "न्यास": 4507,
      "वाने": 4508,
      "वास्तव": 4509,
      "तीन": 4510,
      "▁बाढ़": 4511,
      "1\tम": 4512,
      "2\tम": 4513,
      "7\tआ": 4514,
      "विजय": 4515,
      "ल्टी": 4516,
      "▁रहेगा।\n": 4517,
      "▁अध्या": 4518,
      "▁पूंजी": 4519,
      "▁लाया": 4520,
      "▁बीमार": 4521,
      "कोर": 4522,
      "▁बेहतरीन": 4523,
      "▁जानने": 4524,
      "▁बढ़कर": 4525,
      "▁हुआ,": 4526,
      "▁रूपये": 4527,
      "्यूट": 4528,
      "▁मुखर्जी": 4529,
      "▁क्षेत्रीय": 4530,
      "▁झा": 4531,
      "हमने": 4532,
      "▁सदन": 4533,
      "▁संग्र": 4534,
      "▁ट्रांस": 4535,
      "▁चेता": 4536,
      "▁लिखी": 4537,
      "▁अमर": 4538,
      "▁चीजें": 4539,
      "▁सेवाओं": 4540,
      "▁स्कूलों": 4541,
      "▁गयी।\n": 4542,
      "ेंगे.\n": 4543,
      "▁पंजी": 4544,
      "हालांकि,": 4545,
      "▁बदलने": 4546,
      "▁अतिथि": 4547,
      "▁मनाया": 4548,
      "▁सहायक": 4549,
      "▁नियमों": 4550,
      "▁हाईकोर्ट": 4551,
      "▁क्लब": 4552,
      "▁खूबस": 4553,
      "▁त्रि": 4554,
      "▁पटेल": 4555,
      "▁सांस्कृतिक": 4556,
      "▁प्रारंभ": 4557,
      "▁प्लान": 4558,
      "▁मॉडल": 4559,
      "▁बराबर": 4560,
      "▁इंग्लैंड": 4561,
      "▁आलोचना": 4562,
      "▁संबोधित": 4563,
      "▁कल्पना": 4564,
      "9\tइसके": 4565,
      "wit": 4566,
      "चय": 4567,
      "चिव": 4568,
      "ध्": 4569,
      "धियों": 4570,
      "पन्न": 4571,
      "फान": 4572,
      "बन": 4573,
      "बन्ध": 4574,
      "हूर": 4575,
      "ैट": 4576,
      "▁मनी": 4577,
      "▁मिस": 4578,
      "▁माय": 4579,
      "▁है!\n": 4580,
      "▁दान": 4581,
      "▁दायर": 4582,
      "▁वकील": 4583,
      "▁लुक": 4584,
      "▁रस": 4585,
      "▁अजय": 4586,
      "▁गर्म": 4587,
      "▁आउट": 4588,
      "▁पर,": 4589,
      "▁प्रसिद्ध": 4590,
      "▁होटल": 4591,
      "▁एफ": 4592,
      "हाबाद": 4593,
      "▁खतर": 4594,
      "▁फर्जी": 4595,
      "▁बांग्ला": 4596,
      "▁स्त्री": 4597,
      "▁देरी": 4598,
      "0\tम": 4599,
      "6\tब": 4600,
      "7\tम": 4601,
      "8\tम": 4602,
      "▁रहेंगे।\n": 4603,
      "▁अधि": 4604,
      "ंडे": 4605,
      "बादी": 4606,
      "प्ले": 4607,
      "▁भागी": 4608,
      "▁दीप": 4609,
      "म्‍": 4610,
      "परि": 4611,
      "▁लिंक": 4612,
      "▁उत्तरा": 4613,
      "एसटी": 4614,
      "एसआई": 4615,
      "▁पार्क": 4616,
      "▁महिलाएं": 4617,
      "लोनी": 4618,
      "क्ट्र": 4619,
      "िताभ": 4620,
      "▁दिखाने": 4621,
      "▁देंगे": 4622,
      "संघ": 4623,
      "▁शाखा": 4624,
      "▁पदार्थ": 4625,
      "▁विशेषज्ञ": 4626,
      "▁पढ़ने": 4627,
      "▁ज़ि": 4628,
      "▁मजबूर": 4629,
      "▁मुद्दों": 4630,
      "▁करवाया": 4631,
      "▁तस्वीरें": 4632,
      "तिहासिक": 4633,
      "कृतिक": 4634,
      "ट्रो": 4635,
      "▁दुर्घटना": 4636,
      "प्रेस": 4637,
      "कामना": 4638,
      "▁समझौता": 4639,
      "▁तहसील": 4640,
      "▁संरक्षण": 4641,
      "▁वैज्ञानिक": 4642,
      "▁किनारे": 4643,
      "▁ट्विटर": 4644,
      "▁हफ्ते": 4645,
      "-न": 4646,
      "-वि": 4647,
      "-बार": 4648,
      "av": 4649,
      "टिया": 4650,
      "णे": 4651,
      "पों": 4652,
      "लक": 4653,
      "हिर": 4654,
      "िड": 4655,
      "ैक": 4656,
      "▁क्ला": 4657,
      "▁सृ": 4658,
      "▁सॉ": 4659,
      "▁सपा": 4660,
      "▁हंग": 4661,
      "▁हंस": 4662,
      "▁मू": 4663,
      "▁मचा": 4664,
      "▁पशु": 4665,
      "▁पेंशन": 4666,
      "▁दह": 4667,
      "▁दाय": 4668,
      "▁अल्प": 4669,
      "▁अर्ज": 4670,
      "▁अक्टूबर": 4671,
      "▁तथ": 4672,
      "▁उक्त": 4673,
      "स्तर": 4674,
      "▁प्रौ": 4675,
      "▁चंद": 4676,
      "▁शपथ": 4677,
      "ड़की": 4678,
      "▁फुट": 4679,
      "▁स्पे": 4680,
      "सीय": 4681,
      "▁राजीव": 4682,
      "0\tलेकिन": 4683,
      "4\tलेकिन": 4684,
      "1\tलेकिन": 4685,
      "2\tब": 4686,
      "2\tलेकिन": 4687,
      "6\tलेकिन": 4688,
      "9\tलेकिन": 4689,
      "5\tलेकिन": 4690,
      "3\tलेकिन": 4691,
      "▁मुह": 4692,
      "▁मुद्रा": 4693,
      "ंदाज": 4694,
      "माज": 4695,
      "माचल": 4696,
      "▁2000": 4697,
      "रेज": 4698,
      "▁घरेलू": 4699,
      "दीक": 4700,
      "गीय": 4701,
      "ढ़ा": 4702,
      "▁सिने": 4703,
      "▁सिस्टम": 4704,
      "जीलैंड": 4705,
      "श्चा": 4706,
      "▁पावर": 4707,
      "स्टे": 4708,
      "▁मेहन": 4709,
      "▁बीमा": 4710,
      "मीर": 4711,
      "▁लगा।\n": 4712,
      "▁जाएंगे": 4713,
      "ंध्र": 4714,
      "िव्य": 4715,
      "▁बताए": 4716,
      "▁प्रतिबंध": 4717,
      "ब्द": 4718,
      "मानत": 4719,
      "▁पहुँच": 4720,
      "्यूटी": 4721,
      "▁प्रावधान": 4722,
      "▁सूर्य": 4723,
      "▁समाधान": 4724,
      "हमारी": 4725,
      "▁राज्यपाल": 4726,
      "फ़ी": 4727,
      "▁शुद्ध": 4728,
      "▁इंजी": 4729,
      "▁दिए।\n": 4730,
      "शिष्ट": 4731,
      "▁सुनने": 4732,
      "▁ढंग": 4733,
      "▁सौंप": 4734,
      "▁न्यूज़": 4735,
      "▁युवकों": 4736,
      "पुरी": 4737,
      "बिनेट": 4738,
      "▁जाएगा.\n": 4739,
      "▁लेखक": 4740,
      "▁दौड़": 4741,
      "▁वनडे": 4742,
      "▁अर्था": 4743,
      "▁समीप": 4744,
      "▁खुलासा": 4745,
      "▁मिश्रा": 4746,
      "▁डायरेक्टर": 4747,
      "ook": 4748,
      "▁ग्राहकों": 4749,
      "▁कम्प": 4750,
      "▁निर्वाचन": 4751,
      "-आ": 4752,
      "-श": 4753,
      "ag": 4754,
      "उल्": 4755,
      "उधर": 4756,
      "ऐसी": 4757,
      "कू": 4758,
      "टिल": 4759,
      "ल,": 4760,
      "लै": 4761,
      "संध": 4762,
      "ुक्ति": 4763,
      "’’": 4764,
      "▁सश": 4765,
      "▁ममता": 4766,
      "▁है।’\n": 4767,
      "▁हैदराबाद": 4768,
      "▁जगत": 4769,
      "▁ग्ल": 4770,
      "▁गठन": 4771,
      "▁प्रिय": 4772,
      "▁प्रोजे": 4773,
      "▁चोट": 4774,
      "▁चार्ज": 4775,
      "▁खून": 4776,
      "▁खतरे": 4777,
      "▁नहीं.\n": 4778,
      "▁लिए।\n": 4779,
      "▁साज": 4780,
      "▁राह": 4781,
      "▁संपा": 4782,
      "▁संविधान": 4783,
      "1\tब": 4784,
      "9\tम": 4785,
      "5\tप": 4786,
      "5\tब": 4787,
      "8\tलेकिन": 4788,
      "क्षेत्र": 4789,
      "ांसी": 4790,
      "▁2007": 4791,
      "सात": 4792,
      "जीवन": 4793,
      "ंडित": 4794,
      "बाई": 4795,
      "▁माने": 4796,
      "▁लगाई": 4797,
      "▁चाहिये": 4798,
      "▁जानता": 4799,
      "▁प्रतिभा": 4800,
      "▁लिया.\n": 4801,
      "▁खुले": 4802,
      "▁फिल्में": 4803,
      "▁बुरी": 4804,
      "▁निकले": 4805,
      "▁नींद": 4806,
      "ैनिक": 4807,
      "दर्भ": 4808,
      "▁कॉन्": 4809,
      "▁दाखिल": 4810,
      "▁लिखे": 4811,
      "ेंट्स": 4812,
      "▁परीक्षण": 4813,
      "▁हूँ.\n": 4814,
      "सोमवार": 4815,
      "▁तरीका": 4816,
      "▁न्यायाधीश": 4817,
      "▁ज्ञा": 4818,
      "▁फरार": 4819,
      "▁of": 4820,
      "▁फेसबुक": 4821,
      "▁नोटिस": 4822,
      "▁मशहूर": 4823,
      "▁नागरिकों": 4824,
      "▁कर्नाटक": 4825,
      "दरअसल,": 4826,
      "▁उदाहरण": 4827,
      "▁नारायण": 4828,
      "▁निरीक्षण": 4829,
      "▁विधेयक": 4830,
      "▁चेतावनी": 4831,
      "6\tइसके": 4832,
      "ost": 4833,
      "ख्य": 4834,
      "दिक": 4835,
      "फो": 4836,
      "रज": 4837,
      "वृ": 4838,
      "व्या": 4839,
      "्वा": 4840,
      "▁O": 4841,
      "▁कथा": 4842,
      "▁सन": 4843,
      "▁सपना": 4844,
      "▁मजा": 4845,
      "▁मंडल": 4846,
      "नेशनल": 4847,
      "्रिया": 4848,
      "▁बच्चा": 4849,
      "यानी": 4850,
      "▁जंगल": 4851,
      "▁वॉ": 4852,
      "▁रोल": 4853,
      "▁रेट": 4854,
      "▁अट": 4855,
      "▁अना": 4856,
      "▁नक": 4857,
      "▁गी": 4858,
      "▁गू": 4859,
      "▁आवास": 4860,
      "▁कितने": 4861,
      "▁तिवार": 4862,
      "▁भरी": 4863,
      "िको": 4864,
      "▁परमाणु": 4865,
      "▁प्रदर्श": 4866,
      "▁शरण": 4867,
      "▁शांत": 4868,
      "िया,": 4869,
      "▁ख्या": 4870,
      "▁विजे": 4871,
      "कारियों": 4872,
      "▁संसार": 4873,
      "0\tप": 4874,
      "0\tब": 4875,
      "4\tब": 4876,
      "3\tप": 4877,
      "7\tब": 4878,
      "7\tलेकिन": 4879,
      "8\tप": 4880,
      "▁डाला": 4881,
      "रेन्द्र": 4882,
      "ैंप": 4883,
      "भाष": 4884,
      "ल्‍": 4885,
      "▁छवि": 4886,
      "▁सिम": 4887,
      "दाताओं": 4888,
      "▁पाई": 4889,
      "▁बीते": 4890,
      "▁जाए,": 4891,
      "▁कहे": 4892,
      "▁बढ़ते": 4893,
      "म्न": 4894,
      "▁देखी": 4895,
      "▁शुरु": 4896,
      "▁मुख्यालय": 4897,
      "म्मत": 4898,
      "▁सूत्र": 4899,
      "▁अभिय": 4900,
      "▁मनमोहन": 4901,
      "▁कैद": 4902,
      "िटिश": 4903,
      "िमंडल": 4904,
      "▁शिक्षकों": 4905,
      "स्कूल": 4906,
      "मेरिका": 4907,
      "▁खेती": 4908,
      "ग्राम": 4909,
      "▁उठाने": 4910,
      "जिससे": 4911,
      "and": 4912,
      "▁आरक्षण": 4913,
      "▁ख़ु": 4914,
      "ence": 4915,
      "▁AM": 4916,
      "▁रोकने": 4917,
      "▁करवाने": 4918,
      "▁असली": 4919,
      "▁विश्ले": 4920,
      "▁गर्मी": 4921,
      "▁पहुंचे।\n": 4922,
      "▁भेजने": 4923,
      "▁चालू": 4924,
      "▁वाहनों": 4925,
      "बताया": 4926,
      "दूसरी": 4927,
      "▁अखिल": 4928,
      "▁जितना": 4929,
      "▁सेंटर": 4930,
      "▁विद्यार्थियों": 4931,
      "▁श्रेणी": 4932,
      "▁संसाधन": 4933,
      "▁महाराष्ट्र": 4934,
      "▁अनिवार्य": 4935,
      "▁इंजीनियर": 4936,
      "▁तिवारी": 4937,
      "-द": 4938,
      "0\tइसके": 4939,
      "8\tइस": 4940,
      "book": 4941,
      "per": 4942,
      "ंश": 4943,
      "उत्": 4944,
      "खिर": 4945,
      "ग़": 4946,
      "तियां": 4947,
      "नल": 4948,
      "पान": 4949,
      "रानी": 4950,
      "वर्क": 4951,
      "ेन्द्र": 4952,
      "ैस": 4953,
      "्सा": 4954,
      "्तर": 4955,
      "▁»": 4956,
      "▁जमानत": 4957,
      "▁लड": 4958,
      "▁लें।\n": 4959,
      "▁रानी": 4960,
      "▁रकम": 4961,
      "▁अस्थ": 4962,
      "▁असम": 4963,
      "▁कोय": 4964,
      "▁गेट": 4965,
      "▁सेक्टर": 4966,
      "▁आशा": 4967,
      "▁किरा": 4968,
      "▁उदय": 4969,
      "ना,": 4970,
      "▁इक": 4971,
      "▁इमर": 4972,
      "▁शूट": 4973,
      "▁शुल्क": 4974,
      "क्ताओं": 4975,
      "▁जाम": 4976,
      "न्हा": 4977,
      "▁खंड": 4978,
      "▁विवे": 4979,
      "रीबी": 4980,
      "काता": 4981,
      "▁संस्": 4982,
      "▁संशोध": 4983,
      "ुरू": 4984,
      "1\tएक": 4985,
      "2\tएक": 4986,
      "9\tएक": 4987,
      "3\tब": 4988,
      "3\tएक": 4989,
      "7\tप": 4990,
      "8\tएक": 4991,
      "िसर्च": 4992,
      "▁लेती": 4993,
      "▁निधन": 4994,
      "मात्र": 4995,
      "ल्ला": 4996,
      "ंत्रिक": 4997,
      "▁अधी": 4998,
      "▁यात्री": 4999,
      "▁मेगा": 5000,
      "▁भाषण": 5001,
      "▁बनाये": 5002,
      "▁वर्ण": 5003,
      "▁प्रतिमा": 5004,
      "ब्दी": 5005,
      "▁अंजाम": 5006,
      "▁इनका": 5007,
      "▁गुस्": 5008,
      "▁शुरूआत": 5009,
      "▁सूत्रों": 5010,
      "▁फैला": 5011,
      "श्विक": 5012,
      "▁नीतीश": 5013,
      "लोड": 5014,
      "▁कराए": 5015,
      "▁मांगी": 5016,
      "स्पे": 5017,
      "▁गोद": 5018,
      "▁गिरफ्त": 5019,
      "▁शुक्": 5020,
      "▁प्रेरित": 5021,
      "▁पदों": 5022,
      "▁यूज": 5023,
      "सुबह": 5024,
      "▁टेक्": 5025,
      "▁सचिन": 5026,
      "▁कर्मियों": 5027,
      "▁ब्रि": 5028,
      "▁गये।\n": 5029,
      "▁हूँ।\n": 5030,
      "-कश्मीर": 5031,
      "▁दौरा": 5032,
      "▁दौरे": 5033,
      "▁विपक्ष": 5034,
      "▁जिम्मेदार": 5035,
      "▁संस्थानों": 5036,
      "▁गायब": 5037,
      "▁सैन्य": 5038,
      "घाटन": 5039,
      "▁In": 5040,
      "▁बल्लेबाज": 5041,
      "▁श्रद्धाल": 5042,
      "▁प्रतीक": 5043,
      "▁लंबी": 5044,
      "▁स्वतंत्रता": 5045,
      "ोत्सव": 5046,
      "▁प्रतिक्रिया": 5047,
      "▁मुकदमा": 5048,
      "▁कामयाब": 5049,
      "▁हड़ताल": 5050,
      "▁वायरल": 5051,
      "▁शहीद": 5052,
      "▁महासचिव": 5053,
      "▁प्रौद्योग": 5054,
      "संधान": 5055,
      ".2": 5056,
      "7\tइसके": 5057,
      "8\tइसके": 5058,
      "ber": 5059,
      "em": 5060,
      "us": 5061,
      "ईओ": 5062,
      "टिक": 5063,
      "डो": 5064,
      "णि": 5065,
      "ऩे": 5066,
      "पट": 5067,
      "शाली": 5068,
      "स्य": 5069,
      "हु": 5070,
      "िद": 5071,
      "ैया": 5072,
      "▁w": 5073,
      "▁हज": 5074,
      "▁म्यू": 5075,
      "▁मूर्": 5076,
      "▁है.": 5077,
      "▁गत": 5078,
      "▁आफ": 5079,
      "▁आदर्श": 5080,
      "ानु": 5081,
      "▁भरा": 5082,
      "▁भरे": 5083,
      "▁भक्त": 5084,
      "▁उतार": 5085,
      "▁नेहर": 5086,
      "स्फ": 5087,
      "स्टी": 5088,
      "▁प्रि": 5089,
      "▁चाय": 5090,
      "क्के": 5091,
      "िएशन": 5092,
      "न्त": 5093,
      "▁खड़ी": 5094,
      "▁खनन": 5095,
      "ंगाई": 5096,
      "▁विनो": 5097,
      "रीत": 5098,
      "\tइतना": 5099,
      "कां": 5100,
      "▁संस": 5101,
      "0\tएक": 5102,
      "4\tएक": 5103,
      "6\tप": 5104,
      "6\tएक": 5105,
      "9\tब": 5106,
      "5\tएक": 5107,
      "7\tएक": 5108,
      "8\tब": 5109,
      "कीन": 5110,
      "▁डो": 5111,
      "▁300": 5112,
      "▁61": 5113,
      "जाने": 5114,
      "▁मेल": 5115,
      "ंधी": 5116,
      "▁अधिकांश": 5117,
      "▁कार्यवाही": 5118,
      "क्रो": 5119,
      "प्रदायिक": 5120,
      "▁अनुवाद": 5121,
      "▁मोटर": 5122,
      "िल्‍": 5123,
      "डीए": 5124,
      "▁लिस्ट": 5125,
      "▁बनकर": 5126,
      "▁चलती": 5127,
      "▁बोला": 5128,
      "▁समझने": 5129,
      "▁संबंधों": 5130,
      "ंबित": 5131,
      "न्द्रीय": 5132,
      "▁चेन्नई": 5133,
      "कर्ताओं": 5134,
      "▁इंडियन": 5135,
      "▁छोटा": 5136,
      "▁जीतने": 5137,
      "▁मिली।\n": 5138,
      "वर्ती": 5139,
      "▁नियुक्ति": 5140,
      "▁शिविर": 5141,
      "▁प्रोत्": 5142,
      "ेंडर": 5143,
      "▁गंभीरता": 5144,
      "▁am": 5145,
      "▁विपरीत": 5146,
      "▁क्लिक": 5147,
      "दुनिया": 5148,
      "ड्डा": 5149,
      "▁मोहम्मद": 5150,
      "▁आत्महत्या": 5151,
      "▁शुभकामना": 5152,
      "▁जवानों": 5153,
      "▁अभिनेत्री": 5154,
      "▁वार्ता": 5155,
      "▁तारीख": 5156,
      "▁बौद्ध": 5157,
      "▁निशाना": 5158,
      "▁अकाउंट": 5159,
      "▁बदमाशों": 5160,
      "▁हिन्दू": 5161,
      "▁नजदीक": 5162,
      "▁धमकी": 5163,
      "▁संगठनों": 5164,
      "acebook": 5165,
      "▁मेहनत": 5166,
      ")।\n": 5167,
      "-2": 5168,
      "5\tइस": 5169,
      "et": 5170,
      "ha": 5171,
      "han": 5172,
      "ri": 5173,
      "ंथ": 5174,
      "कॉ": 5175,
      "जिक": 5176,
      "फार": 5177,
      "मरी": 5178,
      "मूल": 5179,
      "्न": 5180,
      "▁३": 5181,
      "▁सारा": 5182,
      "▁हौ": 5183,
      "▁हवाले": 5184,
      "▁पोष": 5185,
      "▁पश्चा": 5186,
      "ारों": 5187,
      "नेश": 5188,
      "▁है..\n": 5189,
      "▁दास": 5190,
      "▁व्रत": 5191,
      "▁रक्त": 5192,
      "▁अज": 5193,
      "▁गि": 5194,
      "▁आकार": 5195,
      "▁तल": 5196,
      "▁तृ": 5197,
      "▁चक्कर": 5198,
      "हीन": 5199,
      "क्की": 5200,
      "▁यूरो": 5201,
      "सेस": 5202,
      "लाइ": 5203,
      "▁विज्ञा": 5204,
      "राहुल": 5205,
      "▁एका": 5206,
      "▁हीरो": 5207,
      "काने": 5208,
      "▁संवेदन": 5209,
      "9\tप": 5210,
      "▁लेता": 5211,
      "ांज": 5212,
      "ारीरिक": 5213,
      "साहित": 5214,
      "▁कहा-": 5215,
      "रेल": 5216,
      "▁टक": 5217,
      "ल्थ": 5218,
      "▁राजस्व": 5219,
      "▁मेह": 5220,
      "▁लापर": 5221,
      "वेल": 5222,
      "▁कहान": 5223,
      "रोध": 5224,
      "▁उपकरण": 5225,
      "▁ऐतिहासिक": 5226,
      "▁वेस्ट": 5227,
      "▁पीठ": 5228,
      "मेरा": 5229,
      "स्थिति": 5230,
      "▁रखकर": 5231,
      "▁बताया,": 5232,
      "▁नाटक": 5233,
      "▁मान्यता": 5234,
      "▁निकट": 5235,
      "▁निकाली": 5236,
      "▁फैल": 5237,
      "▁लोकतंत्र": 5238,
      "आपके": 5239,
      "▁आरोपों": 5240,
      "▁आए।\n": 5241,
      "▁लाखों": 5242,
      "▁दिखाया": 5243,
      "▁लड़के": 5244,
      "संख्य": 5245,
      "▁एसोस": 5246,
      "▁बढ़ावा": 5247,
      "▁मंत्रियों": 5248,
      "▁छोड़कर": 5249,
      "▁कौशल": 5250,
      "▁जायेगा।\n": 5251,
      "ूर्ना": 5252,
      "पहली": 5253,
      "▁उत्पाद": 5254,
      "▁सम्मानित": 5255,
      "▁कलाकार": 5256,
      "ंगी।\n": 5257,
      "▁ग्रामीणों": 5258,
      "▁तिथि": 5259,
      "▁हटाने": 5260,
      "▁संचालित": 5261,
      "▁पर्याप्त": 5262,
      "▁हिंदु": 5263,
      "▁मिश्र": 5264,
      "▁अभिनेता": 5265,
      "▁पृथ्वी": 5266,
      "▁स्टेट": 5267,
      "िट्टी": 5268,
      "▁मुझसे": 5269,
      "▁ग्रहण": 5270,
      "▁घोटाले": 5271,
      "▁तापमान": 5272,
      "▁जबरद": 5273,
      "▁पांडे": 5274,
      "▁बलात्कार": 5275,
      "witter": 5276,
      "▁अधीक्षक": 5277,
      "-ए": 5278,
      "-सी": 5279,
      "ir": 5280,
      "ol": 5281,
      "गर्": 5282,
      "गानि": 5283,
      "चंद": 5284,
      "डिंग": 5285,
      "तें": 5286,
      "फिलहाल": 5287,
      "यल": 5288,
      "सुर": 5289,
      "ुण": 5290,
      "▁r": 5291,
      "▁सार": 5292,
      "▁हस्ता": 5293,
      "▁मच": 5294,
      "▁पर्स": 5295,
      "▁दब": 5296,
      "▁रजि": 5297,
      "▁नष्ट": 5298,
      "▁नारे": 5299,
      "▁कोहली": 5300,
      "▁गरीबी": 5301,
      "▁आइ": 5302,
      "▁किस्म": 5303,
      "▁तर्क": 5304,
      "▁तमिल": 5305,
      "▁प्रदू": 5306,
      "▁चोर": 5307,
      "हाज": 5308,
      "ंगन": 5309,
      "ंगों": 5310,
      "▁फ्री": 5311,
      "▁स्कोर": 5312,
      "▁साढ़े": 5313,
      "▁समर्": 5314,
      "▁संदर्भ": 5315,
      "ोग्राम": 5316,
      "▁हुये": 5317,
      "1\tज": 5318,
      "1\tप": 5319,
      "2\tप": 5320,
      "क्षे": 5321,
      "ार्ग": 5322,
      "▁टन": 5323,
      "▁टो": 5324,
      "▁टूर्ना": 5325,
      "▁रहे.\n": 5326,
      "▁राजेश": 5327,
      "प्पा": 5328,
      "▁मायावती": 5329,
      "▁सीसी": 5330,
      "▁लगाकर": 5331,
      "▁सोचा": 5332,
      "▁पीढ़ी": 5333,
      "▁लगाना": 5334,
      "ज़ी": 5335,
      "मुंबई": 5336,
      "▁नाग": 5337,
      "▁जुड़ा": 5338,
      "धारण": 5339,
      "▁तालाब": 5340,
      "▁दर्शा": 5341,
      "▁चाहिए,": 5342,
      "▁स्वर्ण": 5343,
      "▁बदले": 5344,
      "▁ज्यादातर": 5345,
      "उसकी": 5346,
      "▁श्रीलंका": 5347,
      "तुम": 5348,
      "धिकरण": 5349,
      "▁करोड़ों": 5350,
      "▁गाने": 5351,
      "\tइनके": 5352,
      "▁हूं,": 5353,
      "▁देंगे।\n": 5354,
      "▁करे।\n": 5355,
      "▁प्रेमी": 5356,
      "ated": 5357,
      "▁खेले": 5358,
      "▁डेढ़": 5359,
      "पेक्ष": 5360,
      "▁हिस्सों": 5361,
      "▁कानूनी": 5362,
      "▁मिलेगा।\n": 5363,
      "▁श्रम": 5364,
      "▁पारित": 5365,
      "▁डाक": 5366,
      "▁डा.\n": 5367,
      "▁सुविधाएं": 5368,
      "स्वामी": 5369,
      "ष्णु": 5370,
      "▁पहुंचाने": 5371,
      "▁खरीदने": 5372,
      "▁मुलायम": 5373,
      "न्‍ह": 5374,
      "▁गठित": 5375,
      "▁संवाददाता": 5376,
      "▁कमाई": 5377,
      "▁पूर्वी": 5378,
      "▁फेंक": 5379,
      "▁प्रताप": 5380,
      "▁विराट": 5381,
      "▁प्रत्याशी": 5382,
      "▁खतरनाक": 5383,
      "▁विजेता": 5384,
      "-म": 5385,
      "ience": 5386,
      "खण्ड": 5387,
      "गले": 5388,
      "गैर": 5389,
      "पूर": 5390,
      "भूम": 5391,
      "भूत": 5392,
      "व्यू": 5393,
      "वर्ड": 5394,
      "षिक": 5395,
      "हद": 5396,
      "हारी": 5397,
      "▁g": 5398,
      "▁कस": 5399,
      "▁हक": 5400,
      "▁मक": 5401,
      "▁मरा": 5402,
      "▁के.\n": 5403,
      "▁दिक्": 5404,
      "▁लम्": 5405,
      "▁रफ्तार": 5406,
      "▁अंदाज": 5407,
      "▁1,": 5408,
      "▁नु": 5409,
      "▁सेल": 5410,
      "▁आंध्र": 5411,
      "▁तट": 5412,
      "▁त्व": 5413,
      "▁काले": 5414,
      "▁कायम": 5415,
      "िके": 5416,
      "▁प्रजा": 5417,
      "▁चू": 5418,
      "▁चर्": 5419,
      "▁चां": 5420,
      "▁शारीरिक": 5421,
      "▁एप्": 5422,
      "▁हैंड": 5423,
      "हाई": 5424,
      "▁यहीं": 5425,
      "▁खिल": 5426,
      "▁विधि": 5427,
      "▁विवरण": 5428,
      "▁विशिष्ट": 5429,
      "नी,": 5430,
      "करों": 5431,
      "त्न": 5432,
      "▁संकल्प": 5433,
      "0\tज": 5434,
      "3\tज": 5435,
      "लील": 5436,
      "▁निम्न": 5437,
      "▁टॉप": 5438,
      "▁टक्कर": 5439,
      "▁400": 5440,
      "ंचित": 5441,
      "▁धूम": 5442,
      "जाइन": 5443,
      "गरानी": 5444,
      "ष्ट्रीय": 5445,
      "वेदी": 5446,
      "वेयर": 5447,
      "शनिवार": 5448,
      "▁बताने": 5449,
      "हरण": 5450,
      "▁सब्": 5451,
      "▁कमल": 5452,
      "▁कार्यकाल": 5453,
      "▁जानकार": 5454,
      "▁निर्यात": 5455,
      "▁बढ़ता": 5456,
      "टाने": 5457,
      "म्भ": 5458,
      "▁प्राचीन": 5459,
      "▁प्राकृतिक": 5460,
      "▁आजकल": 5461,
      "▁सहमति": 5462,
      "▁दर्जा": 5463,
      "धीरे": 5464,
      "▁अभिव्य": 5465,
      "▁झटका": 5466,
      "▁झारखंड": 5467,
      "▁बच्चन": 5468,
      "ंकन": 5469,
      "▁कैम": 5470,
      "क्रमण": 5471,
      "▁किए।\n": 5472,
      "▁खाता": 5473,
      "▁डिप्": 5474,
      "▁डिजाइन": 5475,
      "▁स्क्रीन": 5476,
      "▁लड़ने": 5477,
      "▁व्यवसाय": 5478,
      "▁चेक": 5479,
      "▁पदक": 5480,
      "▁समाजवादी": 5481,
      "▁अमिताभ": 5482,
      "▁टेली": 5483,
      "▁मारने": 5484,
      "कालीन": 5485,
      "यूपी": 5486,
      "▁मालूम": 5487,
      "▁आगामी": 5488,
      "our": 5489,
      "▁मुद्दा": 5490,
      "▁प्रशासनिक": 5491,
      "-कभी": 5492,
      "▁परिवहन": 5493,
      "▁अर्थव्यवस्था": 5494,
      "▁१९": 5495,
      "▁आखिरी": 5496,
      "▁तुम्हें": 5497,
      "लोकसभा": 5498,
      "कर्मियों": 5499,
      "▁हिंदू": 5500,
      "▁चैनल": 5501,
      "▁अग्रवाल": 5502,
      "▁आकर्षित": 5503,
      "बॉलीवुड": 5504,
      "▁अनुरोध": 5505,
      "▁सियासी": 5506,
      "▁भोपाल": 5507,
      "▁अन्तर्गत": 5508,
      "▁दुष्कर्म": 5509,
      "▁सिनेमा": 5510,
      "उल्लेखनीय": 5511,
      "▁विनोद": 5512,
      "▁संसदीय": 5513,
      "▁टूर्नामेंट": 5514,
      "ut": 5515,
      "xper": 5516,
      "ँचा": 5517,
      "क्य": 5518,
      "छली": 5519,
      "ज,": 5520,
      "ड्": 5521,
      "तभी": 5522,
      "दक्षिण": 5523,
      "बामा": 5524,
      "शायद": 5525,
      "षेक": 5526,
      "ृदय": 5527,
      "▁U": 5528,
      "▁n": 5529,
      "▁सकी": 5530,
      "▁सच्चा": 5531,
      "▁हट": 5532,
      "▁हस्त": 5533,
      "▁मारा": 5534,
      "▁है।'\n": 5535,
      "▁बम": 5536,
      "▁बंदर": 5537,
      "यात्रा": 5538,
      "▁जना": 5539,
      "▁द्र": 5540,
      "▁लोन": 5541,
      "▁लांच": 5542,
      "▁रनों": 5543,
      "▁अक्ष": 5544,
      "▁अजी": 5545,
      "▁असल": 5546,
      "▁अज्ञात": 5547,
      "▁नयी": 5548,
      "▁गर": 5549,
      "▁गोर": 5550,
      "▁गहरी": 5551,
      "▁किमी": 5552,
      "▁तंत्र": 5553,
      "▁इश": 5554,
      "▁इमार": 5555,
      "▁चक्र": 5556,
      "▁शर्म": 5557,
      "▁एशिया": 5558,
      "▁जाहिर": 5559,
      "न्ट": 5560,
      "न्ड": 5561,
      "▁फंस": 5562,
      "रासत": 5563,
      "▁स्की": 5564,
      "▁स्नान": 5565,
      "4\tज": 5566,
      "4\tप": 5567,
      "6\tज": 5568,
      "5\tज": 5569,
      "7\tज": 5570,
      "▁लेन": 5571,
      "▁निगरानी": 5572,
      "▁कहा।\n": 5573,
      "▁आपूर्ति": 5574,
      "▁उसको": 5575,
      "▁सिख": 5576,
      "▁पूजन": 5577,
      "▁62": 5578,
      "▁72": 5579,
      "▁दोस्ती": 5580,
      "▁धा": 5581,
      "ंडर": 5582,
      "▁चुप": 5583,
      "▁90": 5584,
      "पाक": 5585,
      "▁महाराज": 5586,
      "▁सबको": 5587,
      "▁वर्मा": 5588,
      "वंत": 5589,
      "▁बढ़त": 5590,
      "▁बढ़ी": 5591,
      "▁रुख": 5592,
      "डीपी": 5593,
      "▁बनर्जी": 5594,
      "▁जुर्म": 5595,
      "▁बुनिया": 5596,
      "▁निकाला": 5597,
      "्राष्ट्रीय": 5598,
      "▁आयुक्त": 5599,
      "▁कैबिनेट": 5600,
      "उसका": 5601,
      "आपकी": 5602,
      "▁ईरान": 5603,
      "▁हूं.\n": 5604,
      "inter": 5605,
      "▁जिनकी": 5606,
      "▁कार्यक्रमों": 5607,
      "▁वैश्विक": 5608,
      "▁कपिल": 5609,
      "▁आया।\n": 5610,
      "▁पोर्ट": 5611,
      "▁मिशन": 5612,
      "▁मूल्या": 5613,
      "ण्डल": 5614,
      "▁दिवसीय": 5615,
      "▁धन्यवाद": 5616,
      "सबसे": 5617,
      "शुक्रवार": 5618,
      "▁सर्वो": 5619,
      "▁सैक": 5620,
      "▁सैनिकों": 5621,
      "▁छुट्टी": 5622,
      "सीसीआई": 5623,
      "डि़": 5624,
      "▁चढ़ा": 5625,
      "▁रिजर्व": 5626,
      "▁दरवाजे": 5627,
      "▁कलेक्टर": 5628,
      "▁सुनील": 5629,
      "ive": 5630,
      "▁अभिनय": 5631,
      "राष्ट्रपति": 5632,
      "▁कंट्रोल": 5633,
      "▁ड्राइवर": 5634,
      "▁प्रोजेक्ट": 5635,
      "▁साजिश": 5636,
      "▁शूटिंग": 5637,
      "▁त्वचा": 5638,
      "xperience": 5639,
      "interest": 5640,
      "5\tइसके": 5641,
      "hi": 5642,
      "mar": 5643,
      "pp": 5644,
      "अर": 5645,
      "अल": 5646,
      "इप": 5647,
      "गृह": 5648,
      "डकर": 5649,
      "दृ": 5650,
      "धर्म": 5651,
      "बानी": 5652,
      "वों": 5653,
      "श्रे": 5654,
      "हल": 5655,
      "िप": 5656,
      "▁e": 5657,
      "▁सिक": 5658,
      "▁सक्ष": 5659,
      "▁सकारात्मक": 5660,
      "▁ब्याज": 5661,
      "▁दत्त": 5662,
      "▁दैनिक": 5663,
      "▁वस": 5664,
      "▁लेंगे।\n": 5665,
      "▁रूस": 5666,
      "▁रिसर्च": 5667,
      "▁कोर": 5668,
      "▁कोरिया": 5669,
      "▁सेट": 5670,
      "▁सेमी": 5671,
      "▁आधा": 5672,
      "▁आबादी": 5673,
      "▁काट": 5674,
      "▁उड़ा": 5675,
      "▁उर्फ": 5676,
      "िकता": 5677,
      "स्वी": 5678,
      "▁प्रस": 5679,
      "▁प्रकट": 5680,
      "▁होली": 5681,
      "ड़िया": 5682,
      "हाद": 5683,
      "▁जाया": 5684,
      "ामान": 5685,
      "न्नी": 5686,
      "▁यो": 5687,
      "▁यौन": 5688,
      "▁खिता": 5689,
      "रीय": 5690,
      "कार्": 5691,
      "6\tन": 5692,
      "ांतर": 5693,
      "▁निवास": 5694,
      "माही": 5695,
      "▁2006": 5696,
      "▁आपस": 5697,
      "▁आपसे": 5698,
      "▁कुर्": 5699,
      "दात": 5700,
      "▁जोख": 5701,
      "वीय": 5702,
      "▁150": 5703,
      "प्‍": 5704,
      "▁महज": 5705,
      "▁माफी": 5706,
      "▁जीता": 5707,
      "▁जीते": 5708,
      "ूरज": 5709,
      "▁बार-बार": 5710,
      "▁बेटा": 5711,
      "▁सब्स": 5712,
      "▁कमि": 5713,
      "▁कमांड": 5714,
      "▁अनुसंधान": 5715,
      "बीसी": 5716,
      "बीएस": 5717,
      "▁निर्भर": 5718,
      "▁हिरासत": 5719,
      "ब्लिक": 5720,
      "▁मामूली": 5721,
      "▁रखता": 5722,
      "▁इनकार": 5723,
      "▁उत्पन्न": 5724,
      "▁वादा": 5725,
      "पुर,": 5726,
      "पुरुष": 5727,
      "▁जुड़": 5728,
      "▁हरि": 5729,
      "▁आयी": 5730,
      "एमसी": 5731,
      "▁युग": 5732,
      "रणा": 5733,
      "▁खाद्य": 5734,
      "आपने": 5735,
      "▁गोवा": 5736,
      "▁ईमान": 5737,
      "▁ईमेल": 5738,
      "▁लीग": 5739,
      "▁डिज": 5740,
      "▁इंजन": 5741,
      "▁भरने": 5742,
      "कर्मी": 5743,
      "▁यूनि": 5744,
      "सुन": 5745,
      "▁एसपी": 5746,
      "▁लिखने": 5747,
      "▁परिवारों": 5748,
      "▁खेलने": 5749,
      "▁डेटा": 5750,
      "▁जगहों": 5751,
      "▁चिंत": 5752,
      "-पास": 5753,
      "-पिता": 5754,
      "▁सौं": 5755,
      "▁श्रृ": 5756,
      "▁न्यूनतम": 5757,
      "▁युवती": 5758,
      "▁सदस्यता": 5759,
      "▁औसत": 5760,
      "▁टाटा": 5761,
      "वितीय": 5762,
      "▁अहमद": 5763,
      "ंडीगढ़": 5764,
      "ंखला": 5765,
      "▁मुकाबला": 5766,
      "▁दिलाने": 5767,
      "▁आवाज़": 5768,
      "▁सुनाई": 5769,
      "▁चिकित्सा": 5770,
      "▁संस्थाओं": 5771,
      "▁उल्लेख": 5772,
      "नुमान": 5773,
      "हैया": 5774,
      "▁बेचने": 5775,
      "▁छिपा": 5776,
      "▁बहादुर": 5777,
      "▁साइकिल": 5778,
      "▁प्रतिनिधि": 5779,
      "▁तत्कालीन": 5780,
      "▁पर्यटन": 5781,
      "▁एक-दूसरे": 5782,
      "▁उन्हीं": 5783,
      "▁ठेके": 5784,
      "▁मुसलमानों": 5785,
      "▁सिलसिला": 5786,
      "▁किरदार": 5787,
      "▁स्पीड": 5788,
      "▁इस्तीफा": 5789,
      "▁खूबसूरत": 5790,
      "▁संवेदनशील": 5791,
      "▁एसोसिएशन": 5792,
      "भूमि": 5793,
      "-ग": 5794,
      "-भ": 5795,
      "-बा": 5796,
      "500": 5797,
      "ob": 5798,
      "pd": 5799,
      "इंट": 5800,
      "कै": 5801,
      "गित": 5802,
      "जिया": 5803,
      "डू": 5804,
      "तवाली": 5805,
      "धारी": 5806,
      "शर": 5807,
      "ह्म": 5808,
      "िमी": 5809,
      "ौली": 5810,
      "‘‘": 5811,
      "▁कने": 5812,
      "▁कुर": 5813,
      "▁सपने": 5814,
      "▁हनुमान": 5815,
      "▁केन्द्रीय": 5816,
      "▁बारी": 5817,
      "▁जर्म": 5818,
      "▁जयं": 5819,
      "▁लक": 5820,
      "▁रसो": 5821,
      "▁रवाना": 5822,
      "▁रमेश": 5823,
      "▁2.": 5824,
      "▁निल": 5825,
      "▁को,": 5826,
      "▁कोर्स": 5827,
      "▁तिर": 5828,
      "▁काली": 5829,
      "▁काबू": 5830,
      "▁भट्ट": 5831,
      "▁उतना": 5832,
      "▁उतरे": 5833,
      "नाडु": 5834,
      "▁नेपाल": 5835,
      "▁प्रोग्राम": 5836,
      "▁चैंप": 5837,
      "▁होम": 5838,
      "▁शहरी": 5839,
      "▁एक्": 5840,
      "▁जाओ": 5841,
      "▁यश": 5842,
      "▁विरु": 5843,
      "▁देगा।\n": 5844,
      "नीतिक": 5845,
      "▁एकदम": 5846,
      "\tइधर": 5847,
      "0\tऔर": 5848,
      "1\tन": 5849,
      "1\tऔर": 5850,
      "2\tज": 5851,
      "2\tऔर": 5852,
      "9\tज": 5853,
      "9\tऔर": 5854,
      "5\tन": 5855,
      "7\tऔर": 5856,
      "8\tज": 5857,
      "8\tऔर": 5858,
      "टीम": 5859,
      "▁मुकेश": 5860,
      "▁मुहैया": 5861,
      "साई": 5862,
      "सास": 5863,
      "▁कहाँ": 5864,
      "िरो": 5865,
      "▁सकेंगे।\n": 5866,
      "▁सुझा": 5867,
      "ल्ल": 5868,
      "▁रहेगी।\n": 5869,
      "▁यात्रियों": 5870,
      "ोजक": 5871,
      "प्रकाश": 5872,
      "बीजेपी": 5873,
      "ोलॉ": 5874,
      "▁पीने": 5875,
      "च्चे": 5876,
      "▁बिंद": 5877,
      "▁परिचय": 5878,
      "िकाओं": 5879,
      "▁सहारा": 5880,
      "▁जरिये": 5881,
      "▁फैक्ट": 5882,
      "▁आईटी": 5883,
      "▁अवस्था": 5884,
      "▁कैमरा": 5885,
      "राजस्थान": 5886,
      "▁चौहान": 5887,
      "▁अगली": 5888,
      "त्यादि": 5889,
      "▁विभागों": 5890,
      "▁व्यक्तिगत": 5891,
      "▁प्रेस": 5892,
      "ation": 5893,
      "▁मतदाता": 5894,
      "▁इलाहाबाद": 5895,
      "▁लिखते": 5896,
      "▁खेत": 5897,
      "▁सुनकर": 5898,
      "▁उठाए": 5899,
      "▁चीज़": 5900,
      "▁मंत्रिमंडल": 5901,
      "▁बसपा": 5902,
      "▁विचारधारा": 5903,
      "▁बॉस": 5904,
      "▁न्यूजीलैंड": 5905,
      "▁बालों": 5906,
      "▁ख़बर": 5907,
      "▁संपन्न": 5908,
      "▁औद्योग": 5909,
      "▁मनाने": 5910,
      "▁पड़ेगा।\n": 5911,
      "▁निकलने": 5912,
      "▁उद्घाटन": 5913,
      "▁प्रस्तावित": 5914,
      "▁विपक्षी": 5915,
      "▁तीर्थ": 5916,
      "▁थोड़ी": 5917,
      "▁थोड़े": 5918,
      "▁एक्सप्रेस": 5919,
      "▁आश्रम": 5920,
      "▁फायदे": 5921,
      "▁उल्ल": 5922,
      "▁IST": 5923,
      "▁भावनाओं": 5924,
      "▁संतोष": 5925,
      "पंजाब": 5926,
      "▁प्लेट": 5927,
      "▁निरंतर": 5928,
      "▁रेडियो": 5929,
      "▁गौतम": 5930,
      "भूति": 5931,
      "▁दस्तावेज": 5932,
      "▁इकाई": 5933,
      "▁इस्लाम": 5934,
      "▁खींच": 5935,
      "▁बांग्लादेश": 5936,
      "▁भागीदारी": 5937,
      "▁क्लास": 5938,
      "▁विश्लेषण": 5939,
      "▁संस्करण": 5940,
      "▁प्रौद्योगिकी": 5941,
      "स्फोट": 5942,
      "▁लापरवाही": 5943,
      "▁जबरदस्त": 5944,
      "गानिस्तान": 5945,
      "▁मकसद": 5946,
      "▁जयंती": 5947,
      "',": 5948,
      "-3": 5949,
      "-सा": 5950,
      "Upd": 5951,
      "os": 5952,
      "डेट": 5953,
      "डवाणी": 5954,
      "थो": 5955,
      "दनी": 5956,
      "दियों": 5957,
      "पंच": 5958,
      "बंद": 5959,
      "मतों": 5960,
      "रिय": 5961,
      "रूप": 5962,
      "रक्षा": 5963,
      "शय": 5964,
      "सरे": 5965,
      "िस्ट": 5966,
      "▁...\n": 5967,
      "▁हां": 5968,
      "▁हार्": 5969,
      "▁मल": 5970,
      "▁मधु": 5971,
      "▁पत": 5972,
      "▁पवन": 5973,
      "▁बुल": 5974,
      "याल": 5975,
      "▁जाल": 5976,
      "▁जिक्र": 5977,
      "▁लायक": 5978,
      "▁रूम": 5979,
      "▁अस्त": 5980,
      "▁अभाव": 5981,
      "▁कीमतों": 5982,
      "▁नै": 5983,
      "▁नित": 5984,
      "▁नये": 5985,
      "र्फ़": 5986,
      "▁आशी": 5987,
      "▁किन्तु": 5988,
      "▁कालेज": 5989,
      "▁भला": 5990,
      "▁उभर": 5991,
      "स्वा": 5992,
      "▁इरा": 5993,
      "▁इत्यादि": 5994,
      "▁प्रखंड": 5995,
      "▁प्रकृति": 5996,
      "▁शख": 5997,
      "▁शंकर": 5998,
      "▁एटीएम": 5999,
      "ंगाना": 6000,
      "▁फ्ला": 6001,
      "▁बाहरी": 6002,
      "▁विस्फोट": 6003,
      "रात्रि": 6004,
      "▁समस्त": 6005,
      "4\tन": 6006,
      "4\tऔर": 6007,
      "6\tऔर": 6008,
      "9\tन": 6009,
      "9\tप्र": 6010,
      "5\tऔर": 6011,
      "5\tअब": 6012,
      "3\tऔर": 6013,
      "7\tन": 6014,
      "8\tन": 6015,
      "वारा": 6016,
      "ुलकर": 6017,
      "▁टॉ": 6018,
      "ष्णा": 6019,
      "▁घे": 6020,
      "▁सुन्दर": 6021,
      "▁अनिल": 6022,
      "▁धमा": 6023,
      "▁ध्व": 6024,
      "ंडली": 6025,
      "पीड़": 6026,
      "स्टा": 6027,
      "▁(I": 6028,
      "खाने": 6029,
      "▁महत्": 6030,
      "▁लाइस": 6031,
      "▁भारती": 6032,
      "मीडिया": 6033,
      "▁ऐलान": 6034,
      "▁बेट": 6035,
      "▁गए,": 6036,
      "▁स्थगित": 6037,
      "▁सोना": 6038,
      "▁बढ़े": 6039,
      "▁देखता": 6040,
      "▁दुश्म": 6041,
      "▁जनरल": 6042,
      "▁नाबाल": 6043,
      "▁उत्साह": 6044,
      "▁ऑटो": 6045,
      "ून्य": 6046,
      "वादियों": 6047,
      "▁स्वस्थ": 6048,
      "▁मनोज": 6049,
      "भाग्य": 6050,
      "यरमैन": 6051,
      "▁पैमाने": 6052,
      "▁चौरा": 6053,
      "▁चौकी": 6054,
      "▁कॉल": 6055,
      "▁अगु": 6056,
      "मोह": 6057,
      "▁ट्रंप": 6058,
      "संभव": 6059,
      "लिख": 6060,
      "▁वैसा": 6061,
      "▁महात्मा": 6062,
      "▁ढूं": 6063,
      "ार्थना": 6064,
      "▁चीजों": 6065,
      "फाइनल": 6066,
      "▁गैंग": 6067,
      "हराया": 6068,
      "▁अंतर्राष्ट्रीय": 6069,
      "▁सीटें": 6070,
      "▁सोचने": 6071,
      "▁बोलने": 6072,
      "▁सुविधाओं": 6073,
      "▁जन्मदिन": 6074,
      "▁सम्बन्ध": 6075,
      "▁सहयोगी": 6076,
      "▁मृतक": 6077,
      "▁इंटरनेट": 6078,
      "▁अखबार": 6079,
      "▁घाटी": 6080,
      "प्रेम": 6081,
      "ile": 6082,
      "▁सैनिक": 6083,
      "▁विद्युत": 6084,
      "▁पुनर्": 6085,
      "ग्रहण": 6086,
      "▁छात्राओं": 6087,
      "ष्‍ट": 6088,
      "▁तूफान": 6089,
      "▁कब्जा": 6090,
      "▁नेटवर्क": 6091,
      "▁निर्मित": 6092,
      "▁पार्टियों": 6093,
      "▁अकेले": 6094,
      "▁कोलकाता": 6095,
      "▁दर्शकों": 6096,
      "▁मस्जिद": 6097,
      "▁वायु": 6098,
      "▁उड़ान": 6099,
      "▁बेंगल": 6100,
      "▁राजनैतिक": 6101,
      "▁नक्सल": 6102,
      "▁आदित्यनाथ": 6103,
      "▁नेहरू": 6104,
      "फारिश": 6105,
      "▁मूल्यांकन": 6106,
      "▁जोखिम": 6107,
      "▁विरुद्ध": 6108,
      "Updated": 6109,
      "s:": 6110,
      "ग्रा": 6111,
      "चर्स": 6112,
      "जपे": 6113,
      "टाम": 6114,
      "मस": 6115,
      "र,": 6116,
      "श्र": 6117,
      "षित": 6118,
      "सला": 6119,
      "ूनों": 6120,
      "ॉब": 6121,
      "ो,": 6122,
      "ोतरी": 6123,
      "▁j": 6124,
      "▁कव": 6125,
      "▁क्‍या": 6126,
      "▁सदा": 6127,
      "▁सेंट": 6128,
      "▁सराह": 6129,
      "▁मिट्टी": 6130,
      "▁पाय": 6131,
      "▁पायल": 6132,
      "▁बट": 6133,
      "▁बड़": 6134,
      "▁जवा": 6135,
      "▁में.\n": 6136,
      "▁वास": 6137,
      "▁वस्त": 6138,
      "▁वंचित": 6139,
      "▁लक्षण": 6140,
      "▁लोह": 6141,
      "▁रिल": 6142,
      "▁नॉ": 6143,
      "▁नारा": 6144,
      "▁नैतिक": 6145,
      "▁गह": 6146,
      "▁गढ़": 6147,
      "▁आकाश": 6148,
      "▁आग्रह": 6149,
      "▁त्या": 6150,
      "▁करण": 6151,
      "▁का,": 6152,
      "▁काग": 6153,
      "्यौ": 6154,
      "▁इज": 6155,
      "▁प्रकरण": 6156,
      "▁प्रस्तु": 6157,
      "▁चम": 6158,
      "▁शक": 6159,
      "▁एज": 6160,
      "न्ने": 6161,
      "वाय": 6162,
      "वाड़ा": 6163,
      "सेज": 6164,
      "सेक्स": 6165,
      "▁फंड": 6166,
      "▁फैंस": 6167,
      "▁बांट": 6168,
      "▁एकमात्र": 6169,
      "\tइंड": 6170,
      "▁अपहरण": 6171,
      "▁ही,": 6172,
      "0\tन": 6173,
      "4\tअब": 6174,
      "1\tअब": 6175,
      "2\tअब": 6176,
      "6\tअब": 6177,
      "9\tअब": 6178,
      "3\tन": 6179,
      "3\tअब": 6180,
      "8\tअब": 6181,
      "टीन": 6182,
      "कीकत": 6183,
      "वारी": 6184,
      "ायतों": 6185,
      "▁डेट": 6186,
      "▁डांस": 6187,
      "ाह्मण": 6188,
      "▁आपसी": 6189,
      "▁सकें।\n": 6190,
      "▁छुट": 6191,
      "▁छेड़": 6192,
      "▁सिंध": 6193,
      "▁सिंचाई": 6194,
      "▁सिन्हा": 6195,
      "▁सिफारिश": 6196,
      "▁63": 6197,
      "द्व": 6198,
      "पीठ": 6199,
      "▁महि": 6200,
      "▁जीएसटी": 6201,
      "▁सरकारों": 6202,
      "▁सीजन": 6203,
      "▁बीज": 6204,
      "कोट": 6205,
      "ंधा": 6206,
      "▁सबके": 6207,
      "▁द्वि": 6208,
      "वरों": 6209,
      "▁व्यस्त": 6210,
      "टाई": 6211,
      "▁क्षति": 6212,
      "▁भारत-": 6213,
      "▁रखें।\n": 6214,
      "▁जनसं": 6215,
      "▁बनती": 6216,
      "▁गुना": 6217,
      "▁नाक": 6218,
      "दिग्ध": 6219,
      "▁बैक": 6220,
      "▁मानने": 6221,
      "▁सहज": 6222,
      "▁मैन": 6223,
      "आईटी": 6224,
      "ंटों": 6225,
      "▁छाया": 6226,
      "▁समझते": 6227,
      "▁मांगने": 6228,
      "▁ईश्वर": 6229,
      "▁कुमार,": 6230,
      "▁दादा": 6231,
      "▁चलाया": 6232,
      "▁प्रेरणा": 6233,
      "▁लिखित": 6234,
      "▁खेला": 6235,
      "ग्रामीण": 6236,
      "▁सेवाएं": 6237,
      "छाड़": 6238,
      "▁ब्रिटिश": 6239,
      "▁दिलच": 6240,
      "▁आस-पास": 6241,
      "▁डालने": 6242,
      "▁डाउन": 6243,
      "▁समर्थकों": 6244,
      "▁पकड़े": 6245,
      "▁चावल": 6246,
      "▁लालू": 6247,
      "▁शरीफ": 6248,
      "▁स्वीकृति": 6249,
      "ala": 6250,
      "▁जमाने": 6251,
      "▁तस्वीरें।\n": 6252,
      "वित्त": 6253,
      "▁व्यापारी": 6254,
      "▁सर्वश्रे": 6255,
      "▁गेंदबाज": 6256,
      "मामला": 6257,
      "▁कलाकारों": 6258,
      "धिकारिक": 6259,
      "▁लक्ष्मी": 6260,
      "▁पाठ्य": 6261,
      "▁तिमाही": 6262,
      "▁रिकार्ड": 6263,
      "▁माता-पिता": 6264,
      "▁एजेंस": 6265,
      "▁विस्तृत": 6266,
      "▁धोनी": 6267,
      "▁बुलाया": 6268,
      "▁नाराजगी": 6269,
      "निर्माण": 6270,
      "्रेडिट": 6271,
      "▁मैनेज": 6272,
      "ंघन": 6273,
      "▁कब्जे": 6274,
      "▁मासूम": 6275,
      "▁सर्वेक्षण": 6276,
      "▁इंदौर": 6277,
      "▁0.": 6278,
      "▁पदाधिकारी": 6279,
      "▁प्रभावी": 6280,
      "देखिए": 6281,
      "▁गलती": 6282,
      "▁आवंटन": 6283,
      "▁इलेक्ट्र": 6284,
      "▁निर्माता": 6285,
      "▁संग्रह": 6286,
      "▁अल्पसंख्य": 6287,
      "▁अर्जुन": 6288,
      "▁तथ्य": 6289,
      "ब्दुल": 6290,
      "▁ख्याल": 6291,
      "▁संशोधन": 6292,
      "▁उल्लंघन": 6293,
      "▁शख्स": 6294,
      "-धीरे": 6295,
      "ov": 6296,
      "कतों": 6297,
      "चेंज": 6298,
      "जुट": 6299,
      "ड्र": 6300,
      "णमूल": 6301,
      "तू": 6302,
      "तिया": 6303,
      "धीन": 6304,
      "मार्ट": 6305,
      "मर्श": 6306,
      "मार्ग": 6307,
      "रवि": 6308,
      "िडी": 6309,
      "ैक्ट": 6310,
      "।”\n": 6311,
      "▁W": 6312,
      "▁कू": 6313,
      "▁कस्": 6314,
      "▁क्राइ": 6315,
      "▁स्रो": 6316,
      "▁सख्त": 6317,
      "▁ससुर": 6318,
      "▁हृदय": 6319,
      "▁पथ": 6320,
      "▁पन": 6321,
      "▁पैन": 6322,
      "▁पंडित": 6323,
      "▁केरल": 6324,
      "▁ब्रा": 6325,
      "▁लगी।\n": 6326,
      "▁लंदन": 6327,
      "▁नशे": 6328,
      "▁नरेन्द्र": 6329,
      "र्घ": 6330,
      "▁गिन": 6331,
      "▁आधी": 6332,
      "▁आह्": 6333,
      "▁आंगन": 6334,
      "▁किस्": 6335,
      "▁तिल": 6336,
      "▁तड़": 6337,
      "नांक": 6338,
      "▁परंतु": 6339,
      "स्कर": 6340,
      "▁इंट": 6341,
      "▁प्रमो": 6342,
      "▁प्रार्थना": 6343,
      "▁चमक": 6344,
      "▁चंडीगढ़": 6345,
      "▁श्": 6346,
      "▁शीत": 6347,
      "▁शतक": 6348,
      "▁शून्य": 6349,
      "क्चर": 6350,
      "▁एव": 6351,
      "▁एंट": 6352,
      "▁फिट": 6353,
      "▁फांसी": 6354,
      "▁विन": 6355,
      "▁विष्णु": 6356,
      "▁स्ना": 6357,
      "▁स्तरी": 6358,
      "▁देगी।\n": 6359,
      "▁एकत्र": 6360,
      "▁एकजुट": 6361,
      "सी)": 6362,
      "कर,": 6363,
      "▁साक्षा": 6364,
      "▁साइट": 6365,
      "काज": 6366,
      "काय": 6367,
      "▁संतु": 6368,
      "▁संदिग्ध": 6369,
      "0\tअब": 6370,
      "4\tप्र": 6371,
      "1\tप्र": 6372,
      "2\tन": 6373,
      "2\tप्र": 6374,
      "6\tप्र": 6375,
      "5\tप्र": 6376,
      "3\tप्र": 6377,
      "7\tअब": 6378,
      "▁मुक्ति": 6379,
      "▁ड्यूटी": 6380,
      "ार्टी": 6381,
      "▁टुक": 6382,
      "▁छत": 6383,
      "▁अनि": 6384,
      "▁जोड़ी": 6385,
      "▁जोड़ने": 6386,
      "ंचल": 6387,
      "▁1999": 6388,
      "पीय": 6389,
      "प्शन": 6390,
      "▁पाती": 6391,
      "▁पात्र": 6392,
      "▁लाई": 6393,
      "▁दी,": 6394,
      "वेस्ट": 6395,
      "▁कहकर": 6396,
      "बीते": 6397,
      "▁मोर्चा": 6398,
      "▁जब्त": 6399,
      "▁हुआ.\n": 6400,
      "ंपिक": 6401,
      "सरकारी": 6402,
      "▁बनना": 6403,
      "▁पुष्": 6404,
      "▁जरुर": 6405,
      "▁निकली": 6406,
      "▁अभ्यास": 6407,
      "आईए": 6408,
      "▁कारणों": 6409,
      "▁बच्ची": 6410,
      "एमएस": 6411,
      "▁आईपीएल": 6412,
      "▁अवश्य": 6413,
      "श्वत": 6414,
      "▁कैसा": 6415,
      "▁रोचक": 6416,
      "▁श्रीवास्तव": 6417,
      "▁गोप": 6418,
      "▁कॉलोनी": 6419,
      "फ़ा": 6420,
      "शास्त्र": 6421,
      "▁मार्केट": 6422,
      "▁पत्रकारों": 6423,
      "792\t": 6424,
      "935\t": 6425,
      "ate": 6426,
      "लिटी": 6427,
      "▁पढ़ा": 6428,
      "▁आरंभ": 6429,
      "▁नौकर": 6430,
      "▁विचारों": 6431,
      "▁शर्त": 6432,
      "▁महीनों": 6433,
      "▁बोलते": 6434,
      "▁शाहरु": 6435,
      "▁भेद": 6436,
      "ूंकि": 6437,
      "▁अपराधी": 6438,
      "▁जयपुर": 6439,
      "▁तीसरी": 6440,
      "▁अर्पित": 6441,
      "▁कंपनियां": 6442,
      "जुर्ग": 6443,
      "▁रणनीति": 6444,
      "▁मरने": 6445,
      "▁कारोबारी": 6446,
      "▁बल्लेबाजी": 6447,
      "▁गणेश": 6448,
      "▁by": 6449,
      "▁खोलने": 6450,
      "▁गरीबों": 6451,
      "▁लाइफ": 6452,
      "▁आंकड़े": 6453,
      "▁इंदिरा": 6454,
      "▁उपभोक्ताओं": 6455,
      "▁स्टूडेंट्स": 6456,
      "▁हंगामा": 6457,
      "▁अर्थात": 6458,
      "▁अखिलेश": 6459,
      "▁गिरफ्तारी": 6460,
      "▁सीसीटीवी": 6461,
      "▁दिक्कत": 6462,
      "िकेटर": 6463,
      "▁सक्षम": 6464,
      "▁रसोई": 6465,
      "▁चैंपियन": 6466,
      "▁औद्योगिक": 6467,
      "जपेयी": 6468,
      "▁जनसंख्या": 6469,
      "▁सर्वश्रेष्ठ": 6470,
      "▁स्तरीय": 6471,
      "-1": 6472,
      "-ह": 6473,
      ".)": 6474,
      "her": 6475,
      "आव": 6476,
      "उसी": 6477,
      "खल": 6478,
      "खार": 6479,
      "गिर": 6480,
      "घ्र": 6481,
      "झी": 6482,
      "ड्य": 6483,
      "दोष": 6484,
      "मंत्र": 6485,
      "यें": 6486,
      "यहाँ": 6487,
      "शिक": 6488,
      "शनी": 6489,
      "ेय": 6490,
      "ोसी": 6491,
      "▁k": 6492,
      "▁कौर": 6493,
      "▁क्यू": 6494,
      "▁कन्या": 6495,
      "▁हरी": 6496,
      "▁हकीकत": 6497,
      "▁पच": 6498,
      "▁पद्ध": 6499,
      "▁पाये": 6500,
      "नेता": 6501,
      "▁बंट": 6502,
      "▁जज": 6503,
      "▁जॉन": 6504,
      "▁वें": 6505,
      "▁वाम": 6506,
      "▁अवि": 6507,
      "▁अंदा": 6508,
      "▁नहर": 6509,
      "र्ख": 6510,
      "▁सेटिंग": 6511,
      "▁आर्": 6512,
      "▁कि,": 6513,
      "▁तार": 6514,
      "▁का.\n": 6515,
      "▁भय": 6516,
      "▁उन्न": 6517,
      "▁उन्‍ह": 6518,
      "▁परम": 6519,
      "▁परा": 6520,
      "▁प्रॉ": 6521,
      "▁प्राय": 6522,
      "▁चतु": 6523,
      "▁शोक": 6524,
      "▁एप": 6525,
      "ियाना": 6526,
      "▁भी,": 6527,
      "वाया": 6528,
      "▁खर": 6529,
      "ंगना": 6530,
      "▁फायर": 6531,
      "▁बाध": 6532,
      "▁बाबू": 6533,
      "राई": 6534,
      "▁स्टी": 6535,
      "सीए": 6536,
      "▁इसको": 6537,
      "▁सास": 6538,
      "▁सागर": 6539,
      "▁राव": 6540,
      "▁रांची": 6541,
      "ेश्वर": 6542,
      "0\tप्र": 6543,
      "8\tप्र": 6544,
      "▁मुफ्त": 6545,
      "▁मुआव": 6546,
      "▁डु": 6547,
      "▁ट्रा": 6548,
      "▁आपदा": 6549,
      "▁कुश": 6550,
      "▁अनशन": 6551,
      "▁जोशी": 6552,
      "▁1000": 6553,
      "▁65": 6554,
      "▁1998": 6555,
      "द्दा": 6556,
      "बाजों": 6557,
      "पीएस": 6558,
      "▁हुए,": 6559,
      "▁250": 6560,
      "पात": 6561,
      "▁गईं।\n": 6562,
      "▁(अ": 6563,
      "▁(एन": 6564,
      "▁मेले": 6565,
      "▁मेट्रो": 6566,
      "▁दीपक": 6567,
      "बीन": 6568,
      "▁हिट": 6569,
      "▁हिमाचल": 6570,
      "▁ओबामा": 6571,
      "स्थानीय": 6572,
      "▁रखती": 6573,
      "▁परिस्थित": 6574,
      "▁करें,": 6575,
      "▁प्राप्ति": 6576,
      "▁प्राधिकरण": 6577,
      "▁वाकई": 6578,
      "▁निकला": 6579,
      "▁निकाय": 6580,
      "्राज": 6581,
      "▁वर्षा": 6582,
      "▁झेल": 6583,
      "▁दूसरों": 6584,
      "▁स्वच्छ": 6585,
      "▁कराया।\n": 6586,
      "▁चौथे": 6587,
      "▁कंप्यूटर": 6588,
      "▁गिरने": 6589,
      "▁अधिकारों": 6590,
      "340\t": 6591,
      "▁डिस्": 6592,
      "780\t": 6593,
      "794\t": 6594,
      "796\t": 6595,
      "795\t": 6596,
      "793\t": 6597,
      "▁प्रशंसा": 6598,
      "930\t": 6599,
      "931\t": 6600,
      "932\t": 6601,
      "933\t": 6602,
      "▁शास्त्री": 6603,
      "▁चेहरा": 6604,
      "▁चेयरमैन": 6605,
      "929\t": 6606,
      "928\t": 6607,
      "940\t": 6608,
      "736\t": 6609,
      "739\t": 6610,
      "742\t": 6611,
      "▁इंडस्ट्री": 6612,
      "ख्यात": 6613,
      "▁ढेर": 6614,
      "ग्रस्त": 6615,
      "▁शेष": 6616,
      "ट्टा": 6617,
      "▁पेपर": 6618,
      "▁ब्रह्म": 6619,
      "िज्य": 6620,
      "▁अंतरिक्ष": 6621,
      "▁होगी,": 6622,
      "▁आगरा": 6623,
      "▁रायपुर": 6624,
      "▁ब्लॉक": 6625,
      "▁स्मृति": 6626,
      "वैज्ञान": 6627,
      "▁दुर्गा": 6628,
      "▁दृश्य": 6629,
      "▁इंटरव्यू": 6630,
      "▁तेलंगाना": 6631,
      "▁निवेशकों": 6632,
      "▁तुम्हारी": 6633,
      "▁थीं,": 6634,
      "▁व्यक्तियों": 6635,
      "▁pm": 6636,
      "▁गुणव": 6637,
      "▁एक्ट्रेस": 6638,
      "▁पृष्ठ": 6639,
      "▁वारदात": 6640,
      "▁चिकित्सालय": 6641,
      "▁सतर्क": 6642,
      "▁स्वरूप": 6643,
      "ult": 6644,
      "▁अमरीका": 6645,
      "छोटे": 6646,
      "▁काउंस": 6647,
      "▁प्रियंका": 6648,
      "osted": 6649,
      "▁गूगल": 6650,
      "▁इमरान": 6651,
      "स्पेक्टर": 6652,
      "▁यूजर्स": 6653,
      "▁टेक्न": 6654,
      "िल्‍ली": 6655,
      "▁विज्ञापन": 6656,
      "▁सच्चाई": 6657,
      "▁अजीब": 6658,
      "▁स्कीम": 6659,
      "▁बुनियादी": 6660,
      "▁सर्वोच्च": 6661,
      "▁प्रसन्न": 6662,
      "▁खिताब": 6663,
      "▁सब्सिडी": 6664,
      "▁निलंबित": 6665,
      "▁नाबालिग": 6666,
      "ist": 6667,
      "od": 6668,
      "rs": 6669,
      "th": 6670,
      "एड": 6671,
      "कन": 6672,
      "कता": 6673,
      "कूल": 6674,
      "चरण": 6675,
      "णु": 6676,
      "णिज्य": 6677,
      "दित": 6678,
      "नै": 6679,
      "परी": 6680,
      "पोर": 6681,
      "बिया": 6682,
      "भुत": 6683,
      "लिये": 6684,
      "शो": 6685,
      "ैली": 6686,
      "ोबल": 6687,
      "ोदय": 6688,
      "ोत्तर": 6689,
      "▁l": 6690,
      "▁कक्ष": 6691,
      "▁सप्": 6692,
      "▁मण्डल": 6693,
      "▁पेज": 6694,
      "ारायण": 6695,
      "▁बतौर": 6696,
      "▁जस्ट": 6697,
      "▁दां": 6698,
      "▁दुरु": 6699,
      "▁वजन": 6700,
      "▁वस्तु": 6701,
      "▁अय": 6702,
      "▁नाय": 6703,
      "तांत्रिक": 6704,
      "▁कोड": 6705,
      "र्धा": 6706,
      "▁गले": 6707,
      "▁आत्मा": 6708,
      "▁आश्वास": 6709,
      "▁काफ़ी": 6710,
      "▁भंड": 6711,
      "▁भूप": 6712,
      "▁उर्": 6713,
      "नामा": 6714,
      "नाडा": 6715,
      "▁परन्तु": 6716,
      "ालों": 6717,
      "▁इंच": 6718,
      "▁शर": 6719,
      "▁शोष": 6720,
      "▁एंटी": 6721,
      "िय़": 6722,
      "▁फार्म": 6723,
      "▁बाइ": 6724,
      "▁बाग": 6725,
      "▁विविध": 6726,
      "सी,": 6727,
      "सीआर": 6728,
      "▁लिए,": 6729,
      "त्ते": 6730,
      "▁रावण": 6731,
      "कांत": 6732,
      "1\tमैं": 6733,
      "2\tये": 6734,
      "6\tये": 6735,
      "6\tवह": 6736,
      "5\tये": 6737,
      "3\tये": 6738,
      "7\tये": 6739,
      "7\tप्र": 6740,
      "7\tवह": 6741,
      "8\tये": 6742,
      "क्ष्य": 6743,
      "लीन": 6744,
      "▁मुज": 6745,
      "▁निधि": 6746,
      "▁डूब": 6747,
      "▁2005": 6748,
      "▁2002": 6749,
      "ुलर": 6750,
      "रेन": 6751,
      "रेली": 6752,
      "▁सिविल": 6753,
      "ंत्रित": 6754,
      "▁64": 6755,
      "▁600": 6756,
      "च्‍": 6757,
      "जात": 6758,
      "▁84": 6759,
      "▁800": 6760,
      "▁120": 6761,
      "पीएफ": 6762,
      "▁सरल": 6763,
      "पाई": 6764,
      "▁पाक": 6765,
      "▁मिलना": 6766,
      "▁महेंद्र": 6767,
      "▁महंगाई": 6768,
      "▁मेक": 6769,
      "▁लाश": 6770,
      "▁लापता": 6771,
      "▁मास्टर": 6772,
      "▁जी,": 6773,
      "▁जीने": 6774,
      "कोल": 6775,
      "▁उपन्यास": 6776,
      "▁कमान": 6777,
      "▁मोड": 6778,
      "▁मोड़": 6779,
      "▁सोसाय": 6780,
      "▁प्रतिबद्ध": 6781,
      "▁हिम": 6782,
      "▁बढ़ोतरी": 6783,
      "▁पी.\n": 6784,
      "▁देखे": 6785,
      "धानिक": 6786,
      "▁ओल": 6787,
      "परंतु": 6788,
      "▁रुचि": 6789,
      "▁बिता": 6790,
      "मुना": 6791,
      "▁बनते": 6792,
      "▁दिनांक": 6793,
      "▁बताया।\n": 6794,
      "देह": 6795,
      "देवी": 6796,
      "एसएस": 6797,
      "▁रिम": 6798,
      "▁मानें": 6799,
      "▁सहमत": 6800,
      "▁बुद्ध": 6801,
      "▁बुजुर्ग": 6802,
      "▁समापन": 6803,
      "▁स्वराज": 6804,
      "▁होती।\n": 6805,
      "▁आई।\n": 6806,
      "▁नीतियों": 6807,
      "▁-\n": 6808,
      "▁स्टोर": 6809,
      "▁रोशनी": 6810,
      "▁छापे": 6811,
      "▁दिल्ली:": 6812,
      "139\t": 6813,
      "770\t": 6814,
      "774\t": 6815,
      "772\t": 6816,
      "776\t": 6817,
      "779\t": 6818,
      "773\t": 6819,
      "778\t": 6820,
      "450\t": 6821,
      "454\t": 6822,
      "950\t": 6823,
      "▁शिक्षण": 6824,
      "759\t": 6825,
      "769\t": 6826,
      "▁लीटर": 6827,
      "341\t": 6828,
      "784\t": 6829,
      "782\t": 6830,
      "789\t": 6831,
      "785\t": 6832,
      "783\t": 6833,
      "787\t": 6834,
      "788\t": 6835,
      "449\t": 6836,
      "334\t": 6837,
      "339\t": 6838,
      "434\t": 6839,
      "431\t": 6840,
      "432\t": 6841,
      "436\t": 6842,
      "435\t": 6843,
      "433\t": 6844,
      "437\t": 6845,
      "790\t": 6846,
      "799\t": 6847,
      "797\t": 6848,
      "798\t": 6849,
      "▁करेगी": 6850,
      "▁प्रशंस": 6851,
      "934\t": 6852,
      "936\t": 6853,
      "937\t": 6854,
      "938\t": 6855,
      "859\t": 6856,
      "329\t": 6857,
      "419\t": 6858,
      "atest": 6859,
      "800\t": 6860,
      "919\t": 6861,
      "420\t": 6862,
      "424\t": 6863,
      "421\t": 6864,
      "429\t": 6865,
      "920\t": 6866,
      "922\t": 6867,
      "926\t": 6868,
      "925\t": 6869,
      "927\t": 6870,
      "▁जिनका": 6871,
      "825\t": 6872,
      "944\t": 6873,
      "941\t": 6874,
      "942\t": 6875,
      "943\t": 6876,
      "947\t": 6877,
      "948\t": 6878,
      "727\t": 6879,
      "643\t": 6880,
      "734\t": 6881,
      "737\t": 6882,
      "738\t": 6883,
      "814\t": 6884,
      "▁एस.\n": 6885,
      "740\t": 6886,
      "744\t": 6887,
      "741\t": 6888,
      "743\t": 6889,
      "▁हेड": 6890,
      "▁चीफ": 6891,
      "▁डीएम": 6892,
      "▁सर्वा": 6893,
      "वर्तमान": 6894,
      "▁छोड़ने": 6895,
      "▁प्रदर्शनकारियों": 6896,
      "▁अफगानिस्तान": 6897,
      "स्‍त": 6898,
      "श्चर्य": 6899,
      "▁जेब": 6900,
      "▁जायेगी।\n": 6901,
      "मिशन": 6902,
      "▁फाइ": 6903,
      "▁उत्पादों": 6904,
      "ूहिक": 6905,
      "▁सर्विस": 6906,
      "▁तलाक": 6907,
      "▁शेयरों": 6908,
      "▁जताते": 6909,
      "▁दृष्ट": 6910,
      "▁तीसरा": 6911,
      "▁तुम्हारे": 6912,
      "▁थीं.\n": 6913,
      "▁जितनी": 6914,
      "ड्डे": 6915,
      "▁फ्रंट": 6916,
      "▁एयरपोर्ट": 6917,
      "ध्याय": 6918,
      "▁पुन:": 6919,
      "▁डॉक्टरों": 6920,
      "▁प्रारूप": 6921,
      "▁पहुंची।\n": 6922,
      "▁लंबा": 6923,
      "▁हादसा": 6924,
      "▁तारीफ": 6925,
      "▁न्यायिक": 6926,
      "▁रिजल्ट": 6927,
      "▁hrs": 6928,
      "▁ग्राहक": 6929,
      "▁बूथ": 6930,
      "▁शौच": 6931,
      "▁प्राथमिकता": 6932,
      "ction": 6933,
      "▁छूने": 6934,
      "देनजर": 6935,
      "▁नतीजे": 6936,
      "▁उन्हे": 6937,
      "▁धीरे-धीरे": 6938,
      "▁जम्मू-कश्मीर": 6939,
      "बच्चों": 6940,
      "▁आँख": 6941,
      "न्वयन": 6942,
      "जागरण": 6943,
      "▁दिग्विजय": 6944,
      "शिक्षा": 6945,
      "▁सृजन": 6946,
      "▁सशक्त": 6947,
      "▁ज्ञापन": 6948,
      "िकोण": 6949,
      "▁ब्रिटेन": 6950,
      "▁कैमरे": 6951,
      "▁जुर्माना": 6952,
      "▁डिजिटल": 6953,
      "▁यूनिट": 6954,
      "obile": 6955,
      "ोलॉजी": 6956,
      "▁लाइसेंस": 6957,
      "टामिन": 6958,
      "▁वस्तुओं": 6959,
      "▁प्रस्तुति": 6960,
      "▁छुटकारा": 6961,
      "▁पाठ्यक्रम": 6962,
      "▁आह्वान": 6963,
      "-त": 6964,
      "-अपने": 6965,
      ".3": 6966,
      ".'\n": 6967,
      ".\"\n": 6968,
      "ak": 6969,
      "ck": 6970,
      "op": 6971,
      "ँस": 6972,
      "ँह": 6973,
      "इसे": 6974,
      "उथ": 6975,
      "टेल": 6976,
      "टकों": 6977,
      "थियों": 6978,
      "दून": 6979,
      "नू": 6980,
      "निस": 6981,
      "फै": 6982,
      "मंद": 6983,
      "मानी": 6984,
      "रन": 6985,
      "रह": 6986,
      "रियर": 6987,
      "वसाय": 6988,
      "हिता": 6989,
      "िफ": 6990,
      "िशन": 6991,
      "▁कड़": 6992,
      "▁मद्": 6993,
      "▁मानी": 6994,
      "्रल": 6995,
      "▁बसे": 6996,
      "▁बर्फ": 6997,
      "▁जड़": 6998,
      "▁व्": 6999,
      "▁व्हा": 7000,
      "▁रच": 7001,
      "▁रिया": 7002,
      "▁रवै": 7003,
      "▁अश्": 7004,
      "▁अक्षर": 7005,
      "▁नसी": 7006,
      "तालों": 7007,
      "▁कोतवाली": 7008,
      "र्वाद": 7009,
      "र्चे": 7010,
      "▁गिल": 7011,
      "▁गली": 7012,
      "▁गाना": 7013,
      "▁गार्ड": 7014,
      "▁से.\n": 7015,
      "▁आभार": 7016,
      "▁किंग": 7017,
      "▁तेंद": 7018,
      "▁तब्दी": 7019,
      "▁का।\n": 7020,
      "▁उछ": 7021,
      "▁उद्य": 7022,
      "नाई": 7023,
      "▁प्रका": 7024,
      "▁चोप": 7025,
      "▁शिश": 7026,
      "▁शोर": 7027,
      "वाहा": 7028,
      "▁यूर": 7029,
      "▁खाम": 7030,
      "केशन": 7031,
      "▁विद्या": 7032,
      "करार": 7033,
      "▁साई": 7034,
      "▁साहि": 7035,
      "किसान": 7036,
      "▁संचार": 7037,
      "▁संस्कृत": 7038,
      "्याम": 7039,
      "0\tआज": 7040,
      "4\tवह": 7041,
      "4\tआज": 7042,
      "1\tवह": 7043,
      "1\tआज": 7044,
      "2\tवह": 7045,
      "2\tआज": 7046,
      "9\tआज": 7047,
      "5\tवह": 7048,
      "5\tआज": 7049,
      "3\tवह": 7050,
      "3\tआज": 7051,
      "8\tवह": 7052,
      "िसू": 7053,
      "टीसी": 7054,
      "▁नि.\n": 7055,
      "▁2020": 7056,
      "▁घट": 7057,
      "ैंट": 7058,
      "▁10:": 7059,
      "▁67": 7060,
      "ंचा": 7061,
      "▁700": 7062,
      "▁धूप": 7063,
      "बाड़ी": 7064,
      "▁95": 7065,
      "▁99": 7066,
      "पीएम": 7067,
      "प्टर": 7068,
      "▁पापा": 7069,
      "▁(स": 7070,
      "▁मेर": 7071,
      "▁जीवित": 7072,
      "▁बनाते": 7073,
      "▁बीत": 7074,
      "▁जाएं": 7075,
      "▁जाए.\n": 7076,
      "▁बेरोज": 7077,
      "▁कमर": 7078,
      "▁कार्यरत": 7079,
      "▁मोहन": 7080,
      "वरूप": 7081,
      "परिक": 7082,
      "स्थल": 7083,
      "▁परिचाल": 7084,
      "▁करें.\n": 7085,
      "वालों": 7086,
      "▁जनपद": 7087,
      "▁होता।\n": 7088,
      "▁खुफिया": 7089,
      "▁हरकत": 7090,
      "एं.\n": 7091,
      "▁सूचित": 7092,
      "▁सकते।\n": 7093,
      "▁राज्यसभा": 7094,
      "लगभग": 7095,
      "▁रोशन": 7096,
      "▁क्रिकेटर": 7097,
      "▁बैठकर": 7098,
      "▁बोझ": 7099,
      "▁टीमों": 7100,
      "▁श्रीमती": 7101,
      "300\t": 7102,
      "304\t": 7103,
      "301\t": 7104,
      "309\t": 7105,
      "▁लोकपाल": 7106,
      "150\t": 7107,
      "120\t": 7108,
      "149\t": 7109,
      "▁गोपाल": 7110,
      "▁गोल्ड": 7111,
      "▁ई-": 7112,
      "▁गिरोह": 7113,
      "ियमित": 7114,
      "260\t": 7115,
      "771\t": 7116,
      "775\t": 7117,
      "777\t": 7118,
      "451\t": 7119,
      "452\t": 7120,
      "455\t": 7121,
      "453\t": 7122,
      "650\t": 7123,
      "370\t": 7124,
      "374\t": 7125,
      "371\t": 7126,
      "379\t": 7127,
      "369\t": 7128,
      "पालन": 7129,
      "पालिका": 7130,
      "754\t": 7131,
      "751\t": 7132,
      "752\t": 7133,
      "755\t": 7134,
      "753\t": 7135,
      "758\t": 7136,
      "969\t": 7137,
      "968\t": 7138,
      "760\t": 7139,
      "762\t": 7140,
      "766\t": 7141,
      "765\t": 7142,
      "767\t": 7143,
      "768\t": 7144,
      "342\t": 7145,
      "299\t": 7146,
      "298\t": 7147,
      "781\t": 7148,
      "786\t": 7149,
      "440\t": 7150,
      "444\t": 7151,
      "442\t": 7152,
      "446\t": 7153,
      "445\t": 7154,
      "443\t": 7155,
      "447\t": 7156,
      "448\t": 7157,
      "584\t": 7158,
      "583\t": 7159,
      "409\t": 7160,
      "▁रामदेव": 7161,
      "330\t": 7162,
      "331\t": 7163,
      "332\t": 7164,
      "336\t": 7165,
      "335\t": 7166,
      "333\t": 7167,
      "338\t": 7168,
      "491\t": 7169,
      "▁ट्रॉ": 7170,
      "430\t": 7171,
      "438\t": 7172,
      "791\t": 7173,
      "860\t": 7174,
      "864\t": 7175,
      "861\t": 7176,
      "862\t": 7177,
      "865\t": 7178,
      "863\t": 7179,
      "867\t": 7180,
      "868\t": 7181,
      "939\t": 7182,
      "609\t": 7183,
      "607\t": 7184,
      "608\t": 7185,
      "856\t": 7186,
      "855\t": 7187,
      "858\t": 7188,
      "891\t": 7189,
      "892\t": 7190,
      "320\t": 7191,
      "324\t": 7192,
      "321\t": 7193,
      "326\t": 7194,
      "327\t": 7195,
      "328\t": 7196,
      "418\t": 7197,
      "310\t": 7198,
      "311\t": 7199,
      "316\t": 7200,
      "319\t": 7201,
      "315\t": 7202,
      "804\t": 7203,
      "801\t": 7204,
      "809\t": 7205,
      "918\t": 7206,
      "422\t": 7207,
      "425\t": 7208,
      "423\t": 7209,
      "837\t": 7210,
      "924\t": 7211,
      "921\t": 7212,
      "904\t": 7213,
      "909\t": 7214,
      "905\t": 7215,
      "903\t": 7216,
      "820\t": 7217,
      "824\t": 7218,
      "822\t": 7219,
      "826\t": 7220,
      "946\t": 7221,
      "949\t": 7222,
      "945\t": 7223,
      "724\t": 7224,
      "725\t": 7225,
      "723\t": 7226,
      "633\t": 7227,
      "644\t": 7228,
      "646\t": 7229,
      "645\t": 7230,
      "647\t": 7231,
      "648\t": 7232,
      "735\t": 7233,
      "810\t": 7234,
      "811\t": 7235,
      "812\t": 7236,
      "819\t": 7237,
      "815\t": 7238,
      "813\t": 7239,
      "817\t": 7240,
      "520\t": 7241,
      "610\t": 7242,
      "614\t": 7243,
      "613\t": 7244,
      "745\t": 7245,
      "598\t": 7246,
      "▁आमिर": 7247,
      "▁सुनते": 7248,
      "रिपोर्ट": 7249,
      "▁खेलना": 7250,
      "▁योग्य": 7251,
      "जिसका": 7252,
      "ess": 7253,
      "टनर": 7254,
      "ेंगे,": 7255,
      "▁खबरों": 7256,
      "▁सवालों": 7257,
      "▁शिवराज": 7258,
      "▁अस्पतालों": 7259,
      "▁निर्देशन": 7260,
      "▁लौटे": 7261,
      "क्षिणी": 7262,
      "स्‍ता": 7263,
      "▁बिजनेस": 7264,
      "हिन्द": 7265,
      "▁सांसदों": 7266,
      "बूझ": 7267,
      "▁अभिषेक": 7268,
      "▁गेंदबाजी": 7269,
      "▁बिलकुल": 7270,
      "▁प्रवृ": 7271,
      "▁अपराधियों": 7272,
      "बुधवार": 7273,
      "▁संतुल": 7274,
      "क्‍स": 7275,
      "▁टाइम्स": 7276,
      "▁परियोजनाओं": 7277,
      "▁प्रतीक्षा": 7278,
      "▁पौधे": 7279,
      "▁वार्षिक": 7280,
      "▁Facebook": 7281,
      "▁चिकित्सक": 7282,
      "▁उतरने": 7283,
      "▁प्रतिनिध": 7284,
      "▁तत्वों": 7285,
      "▁समझौते": 7286,
      "▁मैनेजर": 7287,
      "▁ज़रूर": 7288,
      "▁आंखें": 7289,
      "▁धरती": 7290,
      "गुरुवार": 7291,
      "▁प्रसारण": 7292,
      "▁निपटने": 7293,
      "फ्रेंस": 7294,
      "▁ब्रेक": 7295,
      "▁अनुरूप": 7296,
      "▁स्टाफ": 7297,
      "▁स्टाइल": 7298,
      "▁अत्यंत": 7299,
      "▁इजाजत": 7300,
      "▁अधिग्रहण": 7301,
      "▁सॉफ्ट": 7302,
      "▁नकदी": 7303,
      "▁पश्चात": 7304,
      "▁तमिलनाडु": 7305,
      "▁प्रदूषण": 7306,
      "▁चर्चित": 7307,
      "▁गोरख": 7308,
      "▁सुझाव": 7309,
      "▁अस्तित्व": 7310,
      "▁क्राइम": 7311,
      "▁साक्षात्कार": 7312,
      "▁गुणवत्ता": 7313,
      "पोरेशन": 7314,
      "▁आश्वासन": 7315,
      "▁मद्देनजर": 7316,
      "):": 7317,
      "1\tइन": 7318,
      "2\tइन": 7319,
      "if": 7320,
      "ub": 7321,
      "vi": 7322,
      "ंकार": 7323,
      "ंबा": 7324,
      "इयां": 7325,
      "ईस": 7326,
      "ऊँ": 7327,
      "एडा": 7328,
      "कने": 7329,
      "कला": 7330,
      "चार्ज": 7331,
      "डॉ": 7332,
      "तित": 7333,
      "धव": 7334,
      "धाम": 7335,
      "पार": 7336,
      "पत्ति": 7337,
      "फाई": 7338,
      "भाल": 7339,
      "भेद": 7340,
      "रस": 7341,
      "वहार": 7342,
      "शर्": 7343,
      "शंकर": 7344,
      "हू": 7345,
      "िपल": 7346,
      "ुसार": 7347,
      "े।\n": 7348,
      "ैव": 7349,
      "ौज": 7350,
      "▁ष": 7351,
      "▁’": 7352,
      "▁कष्ट": 7353,
      "▁क्रेडिट": 7354,
      "▁सभ": 7355,
      "▁मॉ": 7356,
      "▁मंग": 7357,
      "▁मज़": 7358,
      "▁मजे": 7359,
      "▁मरीज": 7360,
      "▁पाना": 7361,
      "ेंगी": 7362,
      "ाराम": 7363,
      "▁है.’\n": 7364,
      "▁बुर": 7365,
      "▁बिन": 7366,
      "▁बाला": 7367,
      "▁ज्": 7368,
      "▁जियो": 7369,
      "▁लू": 7370,
      "▁अद्": 7371,
      "▁अंधे": 7372,
      "▁अंडर": 7373,
      "▁नायक": 7374,
      "▁नमक": 7375,
      "▁कोष": 7376,
      "▁गार": 7377,
      "▁गड़": 7378,
      "▁सेन": 7379,
      "▁आर्ट": 7380,
      "▁आलम": 7381,
      "▁तप": 7382,
      "▁त्यो": 7383,
      "▁कांग्रे": 7384,
      "▁भगा": 7385,
      "▁भोज": 7386,
      "▁उजागर": 7387,
      "ालि": 7388,
      "▁इश्": 7389,
      "▁चक": 7390,
      "▁चिट्": 7391,
      "▁एक्शन": 7392,
      "▁भी।\n": 7393,
      "ियस": 7394,
      "वाड़": 7395,
      "वाधिकार": 7396,
      "वायु": 7397,
      "तीत": 7398,
      "ंगर": 7399,
      "▁फेल": 7400,
      "▁फूड": 7401,
      "▁बाप": 7402,
      "▁विद्र": 7403,
      "राधिक": 7404,
      "▁देह": 7405,
      "सीन": 7406,
      "सीपी": 7407,
      "सीआई": 7408,
      "▁लिए?\n": 7409,
      "▁साधारण": 7410,
      "गांधी": 7411,
      "▁राशन": 7412,
      "7\tआज": 7413,
      "8\tआज": 7414,
      "क्षिक": 7415,
      "लीय": 7416,
      "माचार": 7417,
      "मात्मा": 7418,
      "रेगा": 7419,
      "▁टाल": 7420,
      "विदेश": 7421,
      "विज्ञान": 7422,
      "गीत": 7423,
      "▁सिर्फ़": 7424,
      "▁रहे,": 7425,
      "▁रहेगा": 7426,
      "▁4.": 7427,
      "▁बाद,": 7428,
      "▁बादल": 7429,
      "▁69": 7430,
      "▁73": 7431,
      "▁धान": 7432,
      "▁82": 7433,
      "▁87": 7434,
      "बात": 7435,
      "बाजार": 7436,
      "▁रहा.\n": 7437,
      "▁हुए.\n": 7438,
      "▁144": 7439,
      "पाट": 7440,
      "पाठी": 7441,
      "स्टिक": 7442,
      "▁महोत्सव": 7443,
      "▁मेन": 7444,
      "▁बीएस": 7445,
      "▁जाएँ": 7446,
      "▁जाएगी": 7447,
      "▁बताई": 7448,
      "हरहाल": 7449,
      "टेज": 7450,
      "▁स्थायी": 7451,
      "▁कमाल": 7452,
      "▁कार्यकारी": 7453,
      "▁द्वितीय": 7454,
      "बीच": 7455,
      "▁कामना": 7456,
      "▁हिम्मत": 7457,
      "▁सामूहिक": 7458,
      "▁पीएच": 7459,
      "▁अंकों": 7460,
      "▁रखें": 7461,
      "▁हुई.\n": 7462,
      "▁करें!\n": 7463,
      "▁हाइ": 7464,
      "▁जनजा": 7465,
      "▁बनता": 7466,
      "▁दिनेश": 7467,
      "▁नाथ": 7468,
      "▁उत्सव": 7469,
      "▁वाजपेयी": 7470,
      "▁ऑपर": 7471,
      "▁बुक": 7472,
      "▁जिंदा": 7473,
      "▁सूच": 7474,
      "हमारा": 7475,
      "▁ग्रंथ": 7476,
      "▁वोटर": 7477,
      "▁स्टॉक": 7478,
      "शेखर": 7479,
      "िमला": 7480,
      "▁दिल्ली,": 7481,
      "▁बोतल": 7482,
      "250\t": 7483,
      "259\t": 7484,
      "302\t": 7485,
      "306\t": 7486,
      "305\t": 7487,
      "303\t": 7488,
      "307\t": 7489,
      "308\t": 7490,
      "052\t": 7491,
      "056\t": 7492,
      "058\t": 7493,
      "119\t": 7494,
      "117\t": 7495,
      "154\t": 7496,
      "151\t": 7497,
      "152\t": 7498,
      "156\t": 7499,
      "155\t": 7500,
      "153\t": 7501,
      "157\t": 7502,
      "126\t": 7503,
      "129\t": 7504,
      "140\t": 7505,
      "146\t": 7506,
      "147\t": 7507,
      "148\t": 7508,
      "046\t": 7509,
      "045\t": 7510,
      "160\t": 7511,
      "181\t": 7512,
      "220\t": 7513,
      "130\t": 7514,
      "134\t": 7515,
      "132\t": 7516,
      "133\t": 7517,
      "138\t": 7518,
      "289\t": 7519,
      "456\t": 7520,
      "459\t": 7521,
      "458\t": 7522,
      "470\t": 7523,
      "474\t": 7524,
      "475\t": 7525,
      "473\t": 7526,
      "ers": 7527,
      "489\t": 7528,
      "488\t": 7529,
      "954\t": 7530,
      "951\t": 7531,
      "956\t": 7532,
      "955\t": 7533,
      "953\t": 7534,
      "372\t": 7535,
      "376\t": 7536,
      "375\t": 7537,
      "373\t": 7538,
      "377\t": 7539,
      "364\t": 7540,
      "368\t": 7541,
      "380\t": 7542,
      "750\t": 7543,
      "756\t": 7544,
      "757\t": 7545,
      "960\t": 7546,
      "967\t": 7547,
      "764\t": 7548,
      "761\t": 7549,
      "763\t": 7550,
      "884\t": 7551,
      "881\t": 7552,
      "882\t": 7553,
      "886\t": 7554,
      "889\t": 7555,
      "885\t": 7556,
      "883\t": 7557,
      "249\t": 7558,
      "344\t": 7559,
      "346\t": 7560,
      "349\t": 7561,
      "343\t": 7562,
      "290\t": 7563,
      "294\t": 7564,
      "291\t": 7565,
      "292\t": 7566,
      "296\t": 7567,
      "295\t": 7568,
      "297\t": 7569,
      "504\t": 7570,
      "502\t": 7571,
      "503\t": 7572,
      "441\t": 7573,
      "▁हों,": 7574,
      "017\t": 7575,
      "970\t": 7576,
      "971\t": 7577,
      "972\t": 7578,
      "582\t": 7579,
      "586\t": 7580,
      "589\t": 7581,
      "585\t": 7582,
      "587\t": 7583,
      "588\t": 7584,
      "688\t": 7585,
      "337\t": 7586,
      "490\t": 7587,
      "▁\"मैं": 7588,
      "708\t": 7589,
      "210\t": 7590,
      "219\t": 7591,
      "439\t": 7592,
      "866\t": 7593,
      "570\t": 7594,
      "574\t": 7595,
      "571\t": 7596,
      "572\t": 7597,
      "573\t": 7598,
      "577\t": 7599,
      "600\t": 7600,
      "604\t": 7601,
      "602\t": 7602,
      "605\t": 7603,
      "603\t": 7604,
      "857\t": 7605,
      "896\t": 7606,
      "322\t": 7607,
      "325\t": 7608,
      "323\t": 7609,
      "410\t": 7610,
      "414\t": 7611,
      "411\t": 7612,
      "314\t": 7613,
      "312\t": 7614,
      "317\t": 7615,
      "318\t": 7616,
      "843\t": 7617,
      "802\t": 7618,
      "806\t": 7619,
      "805\t": 7620,
      "803\t": 7621,
      "807\t": 7622,
      "808\t": 7623,
      "▁करीना": 7624,
      "674\t": 7625,
      "676\t": 7626,
      "675\t": 7627,
      "673\t": 7628,
      "677\t": 7629,
      "911\t": 7630,
      "912\t": 7631,
      "915\t": 7632,
      "917\t": 7633,
      "426\t": 7634,
      "427\t": 7635,
      "834\t": 7636,
      "835\t": 7637,
      "833\t": 7638,
      "923\t": 7639,
      "▁दरबार": 7640,
      "901\t": 7641,
      "902\t": 7642,
      "906\t": 7643,
      "821\t": 7644,
      "823\t": 7645,
      "827\t": 7646,
      "721\t": 7647,
      "726\t": 7648,
      "729\t": 7649,
      "728\t": 7650,
      "629\t": 7651,
      "627\t": 7652,
      "634\t": 7653,
      "632\t": 7654,
      "636\t": 7655,
      "639\t": 7656,
      "635\t": 7657,
      "640\t": 7658,
      "642\t": 7659,
      "649\t": 7660,
      "731\t": 7661,
      "732\t": 7662,
      "733\t": 7663,
      "816\t": 7664,
      "818\t": 7665,
      "524\t": 7666,
      "521\t": 7667,
      "522\t": 7668,
      "523\t": 7669,
      "611\t": 7670,
      "612\t": 7671,
      "616\t": 7672,
      "615\t": 7673,
      "617\t": 7674,
      "746\t": 7675,
      "749\t": 7676,
      "747\t": 7677,
      "748\t": 7678,
      "▁लिखकर": 7679,
      "594\t": 7680,
      "592\t": 7681,
      "596\t": 7682,
      "599\t": 7683,
      "595\t": 7684,
      "597\t": 7685,
      "▁हेल्थ": 7686,
      "▁ढाई": 7687,
      "ंगलवार": 7688,
      "▁योग्यता": 7689,
      "▁हाथी": 7690,
      "▁डीजल": 7691,
      "छात्रा": 7692,
      "▁मिलेगी": 7693,
      "▁इसीलिए": 7694,
      "हरादून": 7695,
      "▁श्रमिक": 7696,
      "वर्धन": 7697,
      "▁मिड": 7698,
      "▁ब्लड": 7699,
      "▁पेशे": 7700,
      "▁सके.\n": 7701,
      "▁समस्याएं": 7702,
      "▁प्रयासों": 7703,
      "▁तरीकों": 7704,
      "▁पकड़ा": 7705,
      "▁रंगों": 7706,
      "हिंदी": 7707,
      "हिन्दी": 7708,
      "▁पोस्टमार्ट": 7709,
      "▁उठता": 7710,
      "▁भाषाओं": 7711,
      "▁यादव,": 7712,
      "स्वती": 7713,
      "▁भेजे": 7714,
      "▁समुद्र": 7715,
      "▁आतंकियों": 7716,
      "▁एक्सचेंज": 7717,
      "ंडीज": 7718,
      "▁शिखर": 7719,
      "▁पाठकों": 7720,
      "▁तुम्हारा": 7721,
      "-बड़े": 7722,
      "▁हॉलीवुड": 7723,
      "omment": 7724,
      "▁धोखा": 7725,
      "▁चरणों": 7726,
      "▁रिश्ता": 7727,
      "पूर्वक": 7728,
      "▁कही।\n": 7729,
      "▁टाइम": 7730,
      "▁Latest": 7731,
      "ॉयड": 7732,
      "पंथी": 7733,
      "▁पश्चिमी": 7734,
      "▁२०": 7735,
      "▁दोस्तों": 7736,
      "▁आतंकवादियों": 7737,
      "▁चैनलों": 7738,
      "▁पहलुओं": 7739,
      "मौके": 7740,
      "▁गुरू": 7741,
      "▁झूठ": 7742,
      "ूंगा।\n": 7743,
      "▁ब्रेकिंग": 7744,
      "▁वास्तविक": 7745,
      "▁पदाधिकारियों": 7746,
      "▁सका।\n": 7747,
      "▁सिलसिले": 7748,
      "महिलाओं": 7749,
      "▁नवीन": 7750,
      "▁अमरीकी": 7751,
      "▁किशोर": 7752,
      "▁अफसरों": 7753,
      "▁the": 7754,
      "फॉर्म": 7755,
      "▁संपादक": 7756,
      "▁प्रदर्शित": 7757,
      "▁शुक्ला": 7758,
      "▁श्रद्धालुओं": 7759,
      "▁हजारे": 7760,
      "ांजलि": 7761,
      "▁अभिव्यक्ति": 7762,
      "▁सेमीफाइनल": 7763,
      "ामान्य": 7764,
      "▁श्रृंखला": 7765,
      "लिखित": 7766,
      "▁सराहना": 7767,
      "▁डाउनलोड": 7768,
      "▁एजेंसियों": 7769,
      "▁मैनेजमेंट": 7770,
      "▁जस्टिस": 7771,
      "▁सोसायटी": 7772,
      "▁चोपड़ा": 7773,
      "▁साहिब": 7774,
      "▁त्योहार": 7775,
      "▁पोस्टमार्टम": 7776,
      "-ऑ": 7777,
      "-समय": 7778,
      "1\tइसमें": 7779,
      "ht": 7780,
      "ma": 7781,
      "um": 7782,
      "ंठ": 7783,
      "ंवर": 7784,
      "इंडीज": 7785,
      "ए)": 7786,
      "गोल": 7787,
      "जनी": 7788,
      "टि": 7789,
      "डोर": 7790,
      "ढा": 7791,
      "द,": 7792,
      "दिव": 7793,
      "न्य": 7794,
      "बरा": 7795,
      "बड़ी": 7796,
      "मय": 7797,
      "योजना": 7798,
      "वश": 7799,
      "षमा": 7800,
      "ष्म": 7801,
      "ात": 7802,
      "िणी": 7803,
      "ीरी": 7804,
      "ुति": 7805,
      "ेली": 7806,
      "▁सूरज": 7807,
      "▁हिल": 7808,
      "▁पड": 7809,
      "नेश्वर": 7810,
      "▁है।\"\n": 7811,
      "▁हैरान": 7812,
      "▁ब्य": 7813,
      "▁बटन": 7814,
      "▁जख": 7815,
      "▁जद": 7816,
      "▁जस": 7817,
      "▁जॉ": 7818,
      "▁जरा": 7819,
      "▁जटिल": 7820,
      "▁वसू": 7821,
      "▁लाना": 7822,
      "▁लघु": 7823,
      "▁रॉय": 7824,
      "▁अटल": 7825,
      "▁अब्दुल": 7826,
      "▁नारी": 7827,
      "▁आहार": 7828,
      "▁आडवाणी": 7829,
      "▁आश्चर्य": 7830,
      "ान्त": 7831,
      "▁उग्र": 7832,
      "नाश": 7833,
      "स्पी": 7834,
      "▁इधर": 7835,
      "▁प्रांत": 7836,
      "▁प्रदीप": 7837,
      "▁शिल्": 7838,
      "▁हैं-": 7839,
      "▁हैं!\n": 7840,
      "▁थमा": 7841,
      "न्त्र": 7842,
      "वाट": 7843,
      "▁फि": 7844,
      "▁फरी": 7845,
      "▁फोर": 7846,
      "लेश": 7847,
      "लेजों": 7848,
      "लाश": 7849,
      "लांग": 7850,
      "▁बाज": 7851,
      "▁विदा": 7852,
      "▁विद्": 7853,
      "▁विटामिन": 7854,
      "री,": 7855,
      "करे": 7856,
      "▁साउथ": 7857,
      "▁अपमान": 7858,
      "▁राधा": 7859,
      "▁रात्रि": 7860,
      "▁संस्कार": 7861,
      "▁संहिता": 7862,
      "टीक": 7863,
      "▁मुँह": 7864,
      "ायें": 7865,
      "ायंस": 7866,
      "▁निच": 7867,
      "▁डाली": 7868,
      "▁2003": 7869,
      "साइड": 7870,
      "▁घंटों": 7871,
      "▁3.": 7872,
      "ाहिर": 7873,
      "▁आपराधिक": 7874,
      "विड": 7875,
      "▁साथियों": 7876,
      "ल्ले": 7877,
      "दाश्त": 7878,
      "▁हमलों": 7879,
      "▁108": 7880,
      "▁राजद": 7881,
      "▁78": 7882,
      "वीडियो": 7883,
      "▁धु": 7884,
      "बाबा": 7885,
      "▁12:": 7886,
      "प्स": 7887,
      "प्पी": 7888,
      "▁(A": 7889,
      "▁(पी": 7890,
      "▁(आई": 7891,
      "▁महानि": 7892,
      "▁मेला": 7893,
      "▁भाभी": 7894,
      "▁दीर्घ": 7895,
      "रोप": 7896,
      "िवेश": 7897,
      "▁बताता": 7898,
      "▁उपचुनाव": 7899,
      "▁अधिकतर": 7900,
      "▁ऐप": 7901,
      "▁कार्यशाला": 7902,
      "चारिक": 7903,
      "▁वेद": 7904,
      "▁प्रतिदिन": 7905,
      "▁साम्राज": 7906,
      "ब्ब": 7907,
      "▁ओम": 7908,
      "ज़ल": 7909,
      "▁हुई,": 7910,
      "▁जनस": 7911,
      "▁जनहित": 7912,
      "▁‘अ": 7913,
      "▁उत्स": 7914,
      "▁वाई": 7915,
      "▁पार्षद": 7916,
      "▁मानस": 7917,
      "▁ऑल": 7918,
      "▁पुणे": 7919,
      "▁खुली": 7920,
      "▁ताल": 7921,
      "ोरंजन": 7922,
      "▁झग": 7923,
      "▁आयकर": 7924,
      "▁फैशन": 7925,
      "209\t": 7926,
      "▁आई.\n": 7927,
      "ंटन": 7928,
      "▁नील": 7929,
      "▁कैल": 7930,
      "▁कैश": 7931,
      "▁ठंड": 7932,
      "▁ठोस": 7933,
      "▁सुरेश": 7934,
      "▁बैठने": 7935,
      "वानों": 7936,
      "वानिव": 7937,
      "090\t": 7938,
      "091\t": 7939,
      "093\t": 7940,
      "▁बोल्ड": 7941,
      "▁सदैव": 7942,
      "080\t": 7943,
      "089\t": 7944,
      "085\t": 7945,
      "088\t": 7946,
      "251\t": 7947,
      "▁लोकतांत्रिक": 7948,
      "350\t": 7949,
      "351\t": 7950,
      "359\t": 7951,
      "तिक्रमण": 7952,
      "060\t": 7953,
      "064\t": 7954,
      "061\t": 7955,
      "062\t": 7956,
      "066\t": 7957,
      "063\t": 7958,
      "067\t": 7959,
      "068\t": 7960,
      "054\t": 7961,
      "051\t": 7962,
      "059\t": 7963,
      "055\t": 7964,
      "057\t": 7965,
      "110\t": 7966,
      "114\t": 7967,
      "116\t": 7968,
      "115\t": 7969,
      "113\t": 7970,
      "118\t": 7971,
      "990\t": 7972,
      "991\t": 7973,
      "992\t": 7974,
      "996\t": 7975,
      "993\t": 7976,
      "997\t": 7977,
      "998\t": 7978,
      "स्पद": 7979,
      "021\t": 7980,
      "159\t": 7981,
      "158\t": 7982,
      "121\t": 7983,
      "122\t": 7984,
      "125\t": 7985,
      "127\t": 7986,
      "128\t": 7987,
      "144\t": 7988,
      "141\t": 7989,
      "142\t": 7990,
      "145\t": 7991,
      "143\t": 7992,
      "044\t": 7993,
      "049\t": 7994,
      "047\t": 7995,
      "048\t": 7996,
      "164\t": 7997,
      "161\t": 7998,
      "162\t": 7999,
      "166\t": 8000,
      "169\t": 8001,
      "163\t": 8002,
      "179\t": 8003,
      "180\t": 8004,
      "182\t": 8005,
      "183\t": 8006,
      "229\t": 8007,
      "तुम्ह": 8008,
      "131\t": 8009,
      "136\t": 8010,
      "137\t": 8011,
      "264\t": 8012,
      "261\t": 8013,
      "269\t": 8014,
      "268\t": 8015,
      "984\t": 8016,
      "982\t": 8017,
      "983\t": 8018,
      "280\t": 8019,
      "287\t": 8020,
      "288\t": 8021,
      "457\t": 8022,
      "471\t": 8023,
      "472\t": 8024,
      "109\t": 8025,
      "482\t": 8026,
      "486\t": 8027,
      "487\t": 8028,
      "952\t": 8029,
      "270\t": 8030,
      "655\t": 8031,
      "378\t": 8032,
      "360\t": 8033,
      "361\t": 8034,
      "366\t": 8035,
      "367\t": 8036,
      "384\t": 8037,
      "385\t": 8038,
      "387\t": 8039,
      "388\t": 8040,
      "460\t": 8041,
      "461\t": 8042,
      "466\t": 8043,
      "469\t": 8044,
      "468\t": 8045,
      "964\t": 8046,
      "961\t": 8047,
      "962\t": 8048,
      "966\t": 8049,
      "965\t": 8050,
      "963\t": 8051,
      "880\t": 8052,
      "887\t": 8053,
      "888\t": 8054,
      "345\t": 8055,
      "347\t": 8056,
      "348\t": 8057,
      "399\t": 8058,
      "393\t": 8059,
      "397\t": 8060,
      "398\t": 8061,
      "293\t": 8062,
      "500\t": 8063,
      "501\t": 8064,
      "509\t": 8065,
      "505\t": 8066,
      "507\t": 8067,
      "508\t": 8068,
      "230\t": 8069,
      "019\t": 8070,
      "976\t": 8071,
      "975\t": 8072,
      "580\t": 8073,
      "400\t": 8074,
      "404\t": 8075,
      "406\t": 8076,
      "405\t": 8077,
      "680\t": 8078,
      "684\t": 8079,
      "681\t": 8080,
      "682\t": 8081,
      "686\t": 8082,
      "689\t": 8083,
      "685\t": 8084,
      "687\t": 8085,
      "494\t": 8086,
      "492\t": 8087,
      "496\t": 8088,
      "499\t": 8089,
      "495\t": 8090,
      "493\t": 8091,
      "497\t": 8092,
      "704\t": 8093,
      "702\t": 8094,
      "706\t": 8095,
      "709\t": 8096,
      "705\t": 8097,
      "703\t": 8098,
      "707\t": 8099,
      "569\t": 8100,
      "568\t": 8101,
      "216\t": 8102,
      "215\t": 8103,
      "217\t": 8104,
      "218\t": 8105,
      "869\t": 8106,
      "579\t": 8107,
      "578\t": 8108,
      "872\t": 8109,
      "876\t": 8110,
      "879\t": 8111,
      "875\t": 8112,
      "873\t": 8113,
      "877\t": 8114,
      "601\t": 8115,
      "606\t": 8116,
      "850\t": 8117,
      "854\t": 8118,
      "890\t": 8119,
      "894\t": 8120,
      "899\t": 8121,
      "897\t": 8122,
      "898\t": 8123,
      "▁भरपूर": 8124,
      "412\t": 8125,
      "416\t": 8126,
      "415\t": 8127,
      "413\t": 8128,
      "417\t": 8129,
      "313\t": 8130,
      "690\t": 8131,
      "694\t": 8132,
      "692\t": 8133,
      "696\t": 8134,
      "699\t": 8135,
      "695\t": 8136,
      "693\t": 8137,
      "697\t": 8138,
      "698\t": 8139,
      "840\t": 8140,
      "841\t": 8141,
      "849\t": 8142,
      "847\t": 8143,
      "848\t": 8144,
      "672\t": 8145,
      "679\t": 8146,
      "678\t": 8147,
      "910\t": 8148,
      "914\t": 8149,
      "916\t": 8150,
      "913\t": 8151,
      "428\t": 8152,
      "830\t": 8153,
      "831\t": 8154,
      "832\t": 8155,
      "836\t": 8156,
      "839\t": 8157,
      "838\t": 8158,
      "▁दरों": 8159,
      "900\t": 8160,
      "907\t": 8161,
      "908\t": 8162,
      "510\t": 8163,
      "514\t": 8164,
      "516\t": 8165,
      "519\t": 8166,
      "515\t": 8167,
      "517\t": 8168,
      "518\t": 8169,
      "श्यप": 8170,
      "541\t": 8171,
      "720\t": 8172,
      "722\t": 8173,
      "620\t": 8174,
      "628\t": 8175,
      "630\t": 8176,
      "637\t": 8177,
      "638\t": 8178,
      "641\t": 8179,
      "730\t": 8180,
      "536\t": 8181,
      "710\t": 8182,
      "711\t": 8183,
      "719\t": 8184,
      "715\t": 8185,
      "717\t": 8186,
      "718\t": 8187,
      "619\t": 8188,
      "618\t": 8189,
      "सुनी": 8190,
      "▁एसएसपी": 8191,
      "▁महाविद्यालय": 8192,
      "590\t": 8193,
      "591\t": 8194,
      "593\t": 8195,
      "▁भागों": 8196,
      "▁अमृत": 8197,
      "▁खेलते": 8198,
      "▁तैयारियों": 8199,
      "ार्थक": 8200,
      "▁पढ़ते": 8201,
      "▁ऑफर": 8202,
      "फाइल": 8203,
      "▁चिन्ह": 8204,
      "▁ब्राह्मण": 8205,
      "▁गयी.\n": 8206,
      "जिसे": 8207,
      "▁पुराना": 8208,
      "▁कृष्णा": 8209,
      "▁बॉल": 8210,
      "▁बॉक्स": 8211,
      "कलन": 8212,
      "▁अरुण": 8213,
      "▁डाक्टर": 8214,
      "▁लौटने": 8215,
      "श्चय": 8216,
      "▁जाये।\n": 8217,
      "▁संयोजक": 8218,
      "▁औष": 8219,
      "▁बचपन": 8220,
      "▁उठाना": 8221,
      "▁जाएगा,": 8222,
      "▁पक्षों": 8223,
      "▁नोटबंदी": 8224,
      "▁आतंकवादी": 8225,
      "▁पाठक": 8226,
      "▁Twitter": 8227,
      "▁सितम्बर": 8228,
      "▁टिप्पण": 8229,
      "▁प्रणब": 8230,
      "▁सांप्रदायिक": 8231,
      "▁पलट": 8232,
      "▁श्रेष्ठ": 8233,
      "▁कटौती": 8234,
      "▁बहुमत": 8235,
      "▁गाँधी": 8236,
      "▁फीट": 8237,
      "▁चिकित्सकों": 8238,
      "▁गेम": 8239,
      "▁ज़रूरत": 8240,
      "▁शौक": 8241,
      "ide": 8242,
      "▁पहाड़": 8243,
      "▁फॉर्म": 8244,
      "▁आंखों": 8245,
      "प्रतिनि": 8246,
      "▁उन्होने": 8247,
      "ख्ता": 8248,
      "▁पर्दे": 8249,
      "▁प्लांट": 8250,
      "▁जागरूकता": 8251,
      "▁भौतिक": 8252,
      "▁मनीष": 8253,
      "▁दीपिका": 8254,
      "▁दहशत": 8255,
      "▁मुहिम": 8256,
      "▁गीतों": 8257,
      "▁इकट्": 8258,
      "▁गुस्सा": 8259,
      "▁तृणमूल": 8260,
      "▁यूरोपीय": 8261,
      "▁हस्ताक्षर": 8262,
      "▁समर्पित": 8263,
      "▁इमारत": 8264,
      "▁वसूल": 8265,
      "▁कमिश्न": 8266,
      "जियाबाद": 8267,
      "▁कनेक्शन": 8268,
      "▁आशीर्वाद": 8269,
      "▁दुश्मन": 8270,
      "▁जवाहर": 8271,
      "▁त्याग": 8272,
      "▁स्रोत": 8273,
      "▁गिनती": 8274,
      "▁शाहरुख": 8275,
      "▁पचास": 8276,
      "▁सेटिंग्स": 8277,
      "▁ओलंपिक": 8278,
      "▁सर्वाधिक": 8279,
      "▁दृष्टिकोण": 8280,
      "▁तेंदुलकर": 8281,
      "▁प्रकाशन": 8282,
      "▁शिशु": 8283,
      "1\tइ": 8284,
      "3\tइन": 8285,
      "ec": 8286,
      "his": 8287,
      "ए.": 8288,
      "कप": 8289,
      "खबर": 8290,
      "गह": 8291,
      "गिल": 8292,
      "ग्रे": 8293,
      "घरों": 8294,
      "चंद्र": 8295,
      "टित": 8296,
      "ड्स": 8297,
      "ण्य": 8298,
      "दमी": 8299,
      "पस": 8300,
      "पमेंट": 8301,
      "बिल": 8302,
      "बाला": 8303,
      "भु": 8304,
      "भ्रष्ट": 8305,
      "म,": 8306,
      "रब": 8307,
      "लपुर": 8308,
      "शियों": 8309,
      "षक": 8310,
      "स,": 8311,
      "सैन": 8312,
      "ुद्दीन": 8313,
      "ूष": 8314,
      "ूती": 8315,
      "्टी": 8316,
      "्डी": 8317,
      "▁i": 8318,
      "▁di": 8319,
      "▁कच": 8320,
      "▁कंड": 8321,
      "▁कतार": 8322,
      "▁सर्क": 8323,
      "▁सूरत": 8324,
      "▁सतीश": 8325,
      "▁सार्थक": 8326,
      "▁हरे": 8327,
      "▁मध": 8328,
      "▁मंड": 8329,
      "▁मलिक": 8330,
      "▁मल्टी": 8331,
      "ारण": 8332,
      "▁है;": 8333,
      "▁बलों": 8334,
      "▁बचे": 8335,
      "याय": 8336,
      "▁जगा": 8337,
      "▁जमी": 8338,
      "▁जेट": 8339,
      "▁दंड": 8340,
      "▁वारा": 8341,
      "▁वंश": 8342,
      "▁लहर": 8343,
      "▁लीड": 8344,
      "▁रैं": 8345,
      "▁रिक्": 8346,
      "▁अतिक्रमण": 8347,
      "▁कीजिए": 8348,
      "तायात": 8349,
      "र्ति": 8350,
      "▁ग्रा": 8351,
      "▁गहरे": 8352,
      "▁गिरी": 8353,
      "▁सेहत": 8354,
      "▁आस्था": 8355,
      "▁आधे": 8356,
      "▁आधिकारिक": 8357,
      "▁तम": 8358,
      "▁भक्ति": 8359,
      "▁भगत": 8360,
      "▁भ्रम": 8361,
      "▁उत": 8362,
      "ाल्": 8363,
      "स्को": 8364,
      "▁इंद्र": 8365,
      "▁प्रय": 8366,
      "▁चो": 8367,
      "▁चित": 8368,
      "▁चपेट": 8369,
      "▁शक्त": 8370,
      "क्ल": 8371,
      "हाड़": 8372,
      "▁जादू": 8373,
      "▁जापान": 8374,
      "न्दा": 8375,
      "▁यकीन": 8376,
      "सेट": 8377,
      "ंगो": 8378,
      "▁फर्": 8379,
      "▁फर्म": 8380,
      "▁फोक": 8381,
      "▁बाई": 8382,
      "▁विवा": 8383,
      "त्नी": 8384,
      "▁समन्व": 8385,
      "▁अपडेट": 8386,
      "▁राकेश": 8387,
      "कांड": 8388,
      "ोग्रा": 8389,
      "0\tआप": 8390,
      "टीआई": 8391,
      "▁लेखा": 8392,
      "लीला": 8393,
      "▁मुना": 8394,
      "वार्ड": 8395,
      "▁निदेश": 8396,
      "साहन": 8397,
      "▁घो": 8398,
      "भाई": 8399,
      "विदा": 8400,
      "विजन": 8401,
      "▁सुर्ख": 8402,
      "वीण": 8403,
      "बाग": 8404,
      "पीओ": 8405,
      "▁1500": 8406,
      "▁सरदार": 8407,
      "▁सरपंच": 8408,
      "▁130": 8409,
      "▁पाया।\n": 8410,
      "▁पागल": 8411,
      "स्टल": 8412,
      "स्टार": 8413,
      "▁लाए": 8414,
      "▁लाइट": 8415,
      "▁जीव": 8416,
      "▁सीधा": 8417,
      "▁बनाया।\n": 8418,
      "▁जाएगी.\n": 8419,
      "▁कहला": 8420,
      "स्तक": 8421,
      "▁बताती": 8422,
      "▁उपहार": 8423,
      "▁अधिकतम": 8424,
      "क्राम": 8425,
      "▁सोल": 8426,
      "▁जानना": 8427,
      "म्बे": 8428,
      "ज़न": 8429,
      "च्ची": 8430,
      "परिवार": 8431,
      "▁बिहारी": 8432,
      "मेज": 8433,
      "मेट": 8434,
      "स्थी": 8435,
      "▁पहुँचा": 8436,
      "▁करेंइसे": 8437,
      "वालियर": 8438,
      "्यूशन": 8439,
      "▁लिया,": 8440,
      "▁प्राण": 8441,
      "▁बैग": 8442,
      "▁वादे": 8443,
      "▁वाणिज्य": 8444,
      "▁पार्टनर": 8445,
      "▁ऑफ़": 8446,
      "▁सहकारी": 8447,
      "▁पुत्री": 8448,
      "▁ताला": 8449,
      "▁दर्जन": 8450,
      "्राट": 8451,
      "▁झलक": 8452,
      "▁नीरज": 8453,
      "भाविक": 8454,
      "▁कैसी": 8455,
      "▁क्रांति": 8456,
      "094\t": 8457,
      "092\t": 8458,
      "099\t": 8459,
      "095\t": 8460,
      "084\t": 8461,
      "081\t": 8462,
      "082\t": 8463,
      "086\t": 8464,
      "083\t": 8465,
      "087\t": 8466,
      "070\t": 8467,
      "074\t": 8468,
      "076\t": 8469,
      "079\t": 8470,
      "075\t": 8471,
      "077\t": 8472,
      "078\t": 8473,
      "254\t": 8474,
      "256\t": 8475,
      "255\t": 8476,
      "257\t": 8477,
      "354\t": 8478,
      "352\t": 8479,
      "353\t": 8480,
      "358\t": 8481,
      "069\t": 8482,
      "065\t": 8483,
      "050\t": 8484,
      "053\t": 8485,
      "112\t": 8486,
      "994\t": 8487,
      "999\t": 8488,
      "995\t": 8489,
      "▁मांगा": 8490,
      "स्पति": 8491,
      "020\t": 8492,
      "029\t": 8493,
      "र्षि": 8494,
      "124\t": 8495,
      "123\t": 8496,
      "040\t": 8497,
      "041\t": 8498,
      "042\t": 8499,
      "043\t": 8500,
      "165\t": 8501,
      "167\t": 8502,
      "168\t": 8503,
      "170\t": 8504,
      "174\t": 8505,
      "172\t": 8506,
      "176\t": 8507,
      "173\t": 8508,
      "▁गोयल": 8509,
      "184\t": 8510,
      "185\t": 8511,
      "187\t": 8512,
      "▁पड़ने": 8513,
      "224\t": 8514,
      "221\t": 8515,
      "225\t": 8516,
      "135\t": 8517,
      "262\t": 8518,
      "266\t": 8519,
      "265\t": 8520,
      "263\t": 8521,
      "267\t": 8522,
      "981\t": 8523,
      "989\t": 8524,
      "031\t": 8525,
      "284\t": 8526,
      "286\t": 8527,
      "100\t": 8528,
      "शाही": 8529,
      "484\t": 8530,
      "959\t": 8531,
      "957\t": 8532,
      "958\t": 8533,
      "274\t": 8534,
      "271\t": 8535,
      "279\t": 8536,
      "654\t": 8537,
      "651\t": 8538,
      "652\t": 8539,
      "656\t": 8540,
      "653\t": 8541,
      "657\t": 8542,
      "362\t": 8543,
      "365\t": 8544,
      "363\t": 8545,
      "381\t": 8546,
      "386\t": 8547,
      "389\t": 8548,
      "464\t": 8549,
      "465\t": 8550,
      "463\t": 8551,
      "467\t": 8552,
      "240\t": 8553,
      "245\t": 8554,
      "247\t": 8555,
      "248\t": 8556,
      "552\t": 8557,
      "न्दगी": 8558,
      "390\t": 8559,
      "391\t": 8560,
      "392\t": 8561,
      "396\t": 8562,
      "506\t": 8563,
      "▁इंस्पेक्टर": 8564,
      "▁हों।\n": 8565,
      "662\t": 8566,
      "669\t": 8567,
      "231\t": 8568,
      "239\t": 8569,
      "014\t": 8570,
      "016\t": 8571,
      "015\t": 8572,
      "979\t": 8573,
      "977\t": 8574,
      "978\t": 8575,
      "581\t": 8576,
      "401\t": 8577,
      "402\t": 8578,
      "403\t": 8579,
      "407\t": 8580,
      "408\t": 8581,
      "683\t": 8582,
      "▁रेप": 8583,
      "▁बैंकिंग": 8584,
      "498\t": 8585,
      "700\t": 8586,
      "566\t": 8587,
      "567\t": 8588,
      "212\t": 8589,
      "576\t": 8590,
      "575\t": 8591,
      "870\t": 8592,
      "874\t": 8593,
      "871\t": 8594,
      "878\t": 8595,
      "852\t": 8596,
      "853\t": 8597,
      "895\t": 8598,
      "893\t": 8599,
      "▁चेतना": 8600,
      "691\t": 8601,
      "842\t": 8602,
      "670\t": 8603,
      "▁मतदाताओं": 8604,
      "511\t": 8605,
      "512\t": 8606,
      "513\t": 8607,
      "540\t": 8608,
      "829\t": 8609,
      "828\t": 8610,
      "624\t": 8611,
      "622\t": 8612,
      "626\t": 8613,
      "623\t": 8614,
      "631\t": 8615,
      "526\t": 8616,
      "525\t": 8617,
      "▁विशेषता": 8618,
      "534\t": 8619,
      "531\t": 8620,
      "539\t": 8621,
      "537\t": 8622,
      "714\t": 8623,
      "712\t": 8624,
      "716\t": 8625,
      "713\t": 8626,
      "▁वैध": 8627,
      "▁ढा": 8628,
      "▁अमल": 8629,
      "▁खेलों": 8630,
      "▁डेवल": 8631,
      "▁आयात": 8632,
      "▁बसों": 8633,
      "▁पेय": 8634,
      "▁आदिवासी": 8635,
      "▁मारकर": 8636,
      "▁उपलब्धि": 8637,
      "फ्टी": 8638,
      "फ्तर": 8639,
      "फ्फर": 8640,
      "▁मिले।\n": 8641,
      "-पत्र": 8642,
      "▁ब्रांड": 8643,
      "भगवान": 8644,
      "▁Pinterest": 8645,
      "▁केंद्रों": 8646,
      "▁बॉडी": 8647,
      "सूचना": 8648,
      "▁मिठा": 8649,
      "▁ख़त्म": 8650,
      "▁निर्देशक": 8651,
      "oun": 8652,
      "श्चिम": 8653,
      "▁जायेगा": 8654,
      "▁मजबूरी": 8655,
      "▁मजबूती": 8656,
      "मिथ": 8657,
      "▁रोजाना": 8658,
      "▁पड़ेगा": 8659,
      "▁गेंदों": 8660,
      "▁चुनें।\n": 8661,
      "▁पाए।\n": 8662,
      "▁तलाशी": 8663,
      "▁वीजा": 8664,
      "▁जताया": 8665,
      "▁शुरुआती": 8666,
      "▁इंटरनेशनल": 8667,
      "▁मंशा": 8668,
      "▁करेंगे.\n": 8669,
      "▁घाट": 8670,
      "▁साहस": 8671,
      "▁व्यक्तित्व": 8672,
      "▁जितने": 8673,
      "▁दिसम्बर": 8674,
      "▁रणवीर": 8675,
      "▁विद्यार्थी": 8676,
      "▁जोरदार": 8677,
      "▁नियंत्रित": 8678,
      "▁सलाहकार": 8679,
      "▁श्रद्धा": 8680,
      "▁श्रद्धांजलि": 8681,
      "▁रेड्डी": 8682,
      "▁गैर-": 8683,
      "▁बहाने": 8684,
      "▁करो।\n": 8685,
      "▁धारणा": 8686,
      "रेटिव": 8687,
      "▁पहाड़ी": 8688,
      "▁ब्लाग": 8689,
      "▁वैज्ञानिकों": 8690,
      "ST)": 8691,
      "▁बढा": 8692,
      "▁एक-एक": 8693,
      "▁दरवाजा": 8694,
      "ांकन": 8695,
      "बच्चे": 8696,
      "▁रिटर्न": 8697,
      "▁जूझ": 8698,
      "ब्ल्यू": 8699,
      "▁मनोहर": 8700,
      "▁उपभोक्ता": 8701,
      "▁अत्यधिक": 8702,
      "▁उत्तराखंड": 8703,
      "▁विशेषज्ञों": 8704,
      "▁कम्पनी": 8705,
      "▁ग्लोबल": 8706,
      "उत्तरा": 8707,
      "▁»\n": 8708,
      "▁किराए": 8709,
      "▁म्यूजिक": 8710,
      "क्रोश": 8711,
      "▁टकरा": 8712,
      "▁मेहता": 8713,
      "क्षेप": 8714,
      "▁सैकड़ों": 8715,
      "▁ईमानदारी": 8716,
      "▁(IST)": 8717,
      "▁अल्पसंख्यक": 8718,
      "रविवार": 8719,
      "▁स्नातक": 8720,
      "▁पद्धति": 8721,
      "▁बाधित": 8722,
      "▁FacebookShare": 8723,
      "▁कांग्रेसी": 8724,
      "▁TwitterShare": 8725,
      "--": 8726,
      "-र": 8727,
      "200": 8728,
      "3.": 8729,
      "3\tइसमें": 8730,
      "4\tइन": 8731,
      "aj": 8732,
      "ow": 8733,
      "se": 8734,
      "èा": 8735,
      "ई)": 8736,
      "ई.": 8737,
      "गें": 8738,
      "टके": 8739,
      "टली": 8740,
      "डल": 8741,
      "डकरी": 8742,
      "णसी": 8743,
      "नॉ": 8744,
      "निर": 8745,
      "पया": 8746,
      "परा": 8747,
      "पनों": 8748,
      "भक्त": 8749,
      "यॉ": 8750,
      "रक": 8751,
      "लखनऊ": 8752,
      "वस": 8753,
      "व्र": 8754,
      "शक्ति": 8755,
      "हूं": 8756,
      "ीकरण": 8757,
      "ू,": 8758,
      "ूंगी": 8759,
      "ोड": 8760,
      "▁X": 8761,
      "▁Y": 8762,
      "▁५": 8763,
      "▁कड़ा": 8764,
      "▁कवर": 8765,
      "▁क्‍": 8766,
      "▁कमेंट": 8767,
      "▁सिक्": 8768,
      "▁हर्ष": 8769,
      "▁हज़ार": 8770,
      "▁मुर": 8771,
      "▁पिला": 8772,
      "▁पब्लिक": 8773,
      "्रय": 8774,
      "या,": 8775,
      "याग": 8776,
      "▁दफ्तर": 8777,
      "▁वां": 8778,
      "▁वसु": 8779,
      "▁व्‍य": 8780,
      "▁रथ": 8781,
      "▁रम": 8782,
      "▁रियल": 8783,
      "▁रैंक": 8784,
      "▁रघु": 8785,
      "▁अल्": 8786,
      "▁अंध": 8787,
      "▁अश्व": 8788,
      "▁अत्या": 8789,
      "▁नर्म": 8790,
      "▁नम्बर": 8791,
      "▁नगरी": 8792,
      "▁कोने": 8793,
      "र्टी": 8794,
      "▁आब": 8795,
      "▁आॅ": 8796,
      "▁आर्य": 8797,
      "▁आध्या": 8798,
      "▁आज़ा": 8799,
      "▁किरण": 8800,
      "▁करवाई": 8801,
      "▁काटने": 8802,
      "▁भेंट": 8803,
      "नाग": 8804,
      "नाल्ड": 8805,
      "▁परे": 8806,
      "स्सी": 8807,
      "स्वरूप": 8808,
      "▁चिल्": 8809,
      "▁चूक": 8810,
      "▁ए.": 8811,
      "▁एरिया": 8812,
      "हाजा": 8813,
      "▁जाट": 8814,
      "▁जातियों": 8815,
      "▁भी.\n": 8816,
      "ामे": 8817,
      "केज": 8818,
      "सेन": 8819,
      "▁फं": 8820,
      "▁फस": 8821,
      "त्रु": 8822,
      "▁बाय": 8823,
      "राजा": 8824,
      "▁स्ने": 8825,
      "▁साव": 8826,
      "▁राणा": 8827,
      "कांक": 8828,
      "▁संपूर्ण": 8829,
      "ेशर": 8830,
      "ेशनों": 8831,
      "0\tअगर": 8832,
      "1\tअगर": 8833,
      "2\tआप": 8834,
      "6\tआज": 8835,
      "9\tअगर": 8836,
      "3\tआप": 8837,
      "3\tअगर": 8838,
      "8\tआप": 8839,
      "ांतिक": 8840,
      "ांतों": 8841,
      "ायरी": 8842,
      "ायलों": 8843,
      "▁निशा": 8844,
      "▁निंदा": 8845,
      "▁डू": 8846,
      "माइ": 8847,
      "साब": 8848,
      "ष्क": 8849,
      "ष्टी": 8850,
      "दीश": 8851,
      "▁370": 8852,
      "विटी": 8853,
      "विधि": 8854,
      "्रीट": 8855,
      "▁छान": 8856,
      "दाद": 8857,
      "▁अनदे": 8858,
      "▁अनियमित": 8859,
      "▁अधीन": 8860,
      "▁अधिसू": 8861,
      "▁जोड़ा": 8862,
      "▁10.": 8863,
      "▁66": 8864,
      "▁68": 8865,
      "▁7:": 8866,
      "▁दो-": 8867,
      "▁98": 8868,
      "▁अपने-अपने": 8869,
      "प्प": 8870,
      "प्टन": 8871,
      "▁140": 8872,
      "▁160": 8873,
      "▁पाकर": 8874,
      "▁पाइप": 8875,
      "▁गईं": 8876,
      "▁(S": 8877,
      "▁महेश": 8878,
      "▁दीक्षित": 8879,
      "▁दीजिए": 8880,
      "▁बनाता": 8881,
      "▁बेकार": 8882,
      "▁बेस्ट": 8883,
      "▁सबकी": 8884,
      "क्रांति": 8885,
      "▁अनुदान": 8886,
      "▁अनुसू": 8887,
      "▁अनुराग": 8888,
      "▁मोर्चे": 8889,
      "▁जानें": 8890,
      "▁प्रतिष्ठ": 8891,
      "▁पीड़": 8892,
      "▁पीछा": 8893,
      "▁क्षण": 8894,
      "▁ओड": 8895,
      "▁ओपन": 8896,
      "ज़े": 8897,
      "▁समय-समय": 8898,
      "▁इनमें": 8899,
      "▁हाज": 8900,
      "▁हावी": 8901,
      "▁नाइट": 8902,
      "▁उत्‍": 8903,
      "बंधित": 8904,
      "▁जुट": 8905,
      "▁जुटा": 8906,
      "▁करना।\n": 8907,
      "ंसल": 8908,
      "▁रिश्वत": 8909,
      "▁सहारे": 8910,
      "▁ताज": 8911,
      "▁बुद्धि": 8912,
      "आईआर": 8913,
      "▁ग्रो": 8914,
      "▁स्वभाव": 8915,
      "▁आईसीसी": 8916,
      "ंटल": 8917,
      "पूरे": 8918,
      "▁कैच": 8919,
      "पोषण": 8920,
      "▁स्टैंड": 8921,
      "▁स्टोरी": 8922,
      "राजधानी": 8923,
      "राजनीतिक": 8924,
      "भारंभ": 8925,
      "096\t": 8926,
      "097\t": 8927,
      "098\t": 8928,
      "190\t": 8929,
      "198\t": 8930,
      "071\t": 8931,
      "072\t": 8932,
      "073\t": 8933,
      "252\t": 8934,
      "253\t": 8935,
      "258\t": 8936,
      "▁खातों": 8937,
      "356\t": 8938,
      "357\t": 8939,
      "111\t": 8940,
      "024\t": 8941,
      "022\t": 8942,
      "026\t": 8943,
      "025\t": 8944,
      "027\t": 8945,
      "028\t": 8946,
      "171\t": 8947,
      "175\t": 8948,
      "178\t": 8949,
      "▁भारतीयों": 8950,
      "186\t": 8951,
      "189\t": 8952,
      "▁पड़ोसी": 8953,
      "222\t": 8954,
      "226\t": 8955,
      "223\t": 8956,
      "227\t": 8957,
      "228\t": 8958,
      "980\t": 8959,
      "986\t": 8960,
      "985\t": 8961,
      "987\t": 8962,
      "988\t": 8963,
      "030\t": 8964,
      "036\t": 8965,
      "039\t": 8966,
      "035\t": 8967,
      "037\t": 8968,
      "038\t": 8969,
      "281\t": 8970,
      "285\t": 8971,
      "476\t": 8972,
      "479\t": 8973,
      "477\t": 8974,
      "478\t": 8975,
      "104\t": 8976,
      "101\t": 8977,
      "102\t": 8978,
      "103\t": 8979,
      "107\t": 8980,
      "108\t": 8981,
      "481\t": 8982,
      "485\t": 8983,
      "272\t": 8984,
      "273\t": 8985,
      "277\t": 8986,
      "278\t": 8987,
      "659\t": 8988,
      "658\t": 8989,
      "▁आएंगे": 8990,
      "383\t": 8991,
      "▁शुक्र": 8992,
      "462\t": 8993,
      "241\t": 8994,
      "246\t": 8995,
      "550\t": 8996,
      "▁डिवा": 8997,
      "394\t": 8998,
      "395\t": 8999,
      "▁इंकार": 9000,
      "▁स्कूली": 9001,
      "▁दिखाए": 9002,
      "660\t": 9003,
      "664\t": 9004,
      "661\t": 9005,
      "666\t": 9006,
      "665\t": 9007,
      "663\t": 9008,
      "667\t": 9009,
      "668\t": 9010,
      "234\t": 9011,
      "232\t": 9012,
      "010\t": 9013,
      "011\t": 9014,
      "012\t": 9015,
      "013\t": 9016,
      "018\t": 9017,
      "974\t": 9018,
      "973\t": 9019,
      "▁ऊंची": 9020,
      "▁ऊपरी": 9021,
      "▁सफेद": 9022,
      "सिर्फ": 9023,
      "▁लड़का": 9024,
      "701\t": 9025,
      "564\t": 9026,
      "562\t": 9027,
      "565\t": 9028,
      "563\t": 9029,
      "▁ट्रस्ट": 9030,
      "214\t": 9031,
      "211\t": 9032,
      "213\t": 9033,
      "ary": 9034,
      "851\t": 9035,
      "844\t": 9036,
      "846\t": 9037,
      "845\t": 9038,
      "671\t": 9039,
      "542\t": 9040,
      "546\t": 9041,
      "549\t": 9042,
      "543\t": 9043,
      "621\t": 9044,
      "625\t": 9045,
      "529\t": 9046,
      "532\t": 9047,
      "533\t": 9048,
      "538\t": 9049,
      "▁घटनाएं": 9050,
      "▁खेतों": 9051,
      "▁बढ़ाकर": 9052,
      "▁टेबल": 9053,
      "ट्टे": 9054,
      "▁फ़ा": 9055,
      "छात्र": 9056,
      "▁व्याख्या": 9057,
      "▁ब्रांच": 9058,
      "श्मीरी": 9059,
      "▁ब्लैक": 9060,
      "▁मूल्यों": 9061,
      "\tइसीलिए": 9062,
      "▁सकेगा।\n": 9063,
      "▁बरसात": 9064,
      "जेंसी": 9065,
      "▁निर्देशित": 9066,
      "▁चाव": 9067,
      "▁आगमन": 9068,
      "▁दिखने": 9069,
      "ामाबाद": 9070,
      "▁असफल": 9071,
      "▁शर्मा,": 9072,
      "▁बचत": 9073,
      "▁वृक्ष": 9074,
      "▁लेखन": 9075,
      "▁मीरा": 9076,
      "▁विषयों": 9077,
      "▁शोभा": 9078,
      "गुजरात": 9079,
      "▁उच्चतम": 9080,
      "्यारह": 9081,
      "वैधानिक": 9082,
      "▁मध्यप्रदेश": 9083,
      "▁दिलाया": 9084,
      "▁भूख": 9085,
      "▁इंतजाम": 9086,
      "ुल्तान": 9087,
      "▁होंगे.\n": 9088,
      "▁दुकानों": 9089,
      "▁उम्मीदवारों": 9090,
      "▁प्रत्यक्ष": 9091,
      "▁टाइप": 9092,
      "▁सिद्धांत": 9093,
      "▁किताबों": 9094,
      "ood": 9095,
      "▁पड़ी।\n": 9096,
      "▁निर्धारण": 9097,
      "▁जागरण": 9098,
      "▁भरोसे": 9099,
      "▁उपायों": 9100,
      "▁शीर्षक": 9101,
      "▁धारण": 9102,
      "▁पत्रकारिता": 9103,
      "▁ट्रैफिक": 9104,
      "▁फॉर": 9105,
      "▁लोकप्रियता": 9106,
      "▁धरना": 9107,
      "▁शैक्षिक": 9108,
      "▁क्रमश": 9109,
      "▁दस्तावे": 9110,
      "▁नतीजा": 9111,
      "साइकिल": 9112,
      "▁विरासत": 9113,
      "▁दर्शक": 9114,
      "▁पिछली": 9115,
      "▁प्रीम": 9116,
      "▁दिग्ग": 9117,
      "▁गौरव": 9118,
      "▁मजदूरों": 9119,
      "▁उलझ": 9120,
      "▁पंजीकरण": 9121,
      "▁पंजीकृत": 9122,
      "ध्द": 9123,
      "▁मायने": 9124,
      "▁दायरे": 9125,
      "▁मजाक": 9126,
      "▁ख़ुद": 9127,
      "▁हिंदुस्तान": 9128,
      "▁रजिस्ट्र": 9129,
      "▁लकड़ी": 9130,
      "▁महत्त्व": 9131,
      "▁अगुवाई": 9132,
      "▁ढूंढ": 9133,
      "▁छेड़छाड़": 9134,
      "▁विनय": 9135,
      "▁जरुरत": 9136,
      "▁शरद": 9137,
      "▁सॉफ्टवेयर": 9138,
      "▁मजेदार": 9139,
      "▁ऑपरेशन": 9140,
      "▁ब्यूरो": 9141,
      "▁पेयजल": 9142,
      "▁निशाने": 9143,
      "-4": 9144,
      "-इ": 9145,
      "-ख": 9146,
      "-से": 9147,
      "-10": 9148,
      ".7": 9149,
      "2.": 9150,
      "2\tइ": 9151,
      "2\tइसमें": 9152,
      "4\tइसमें": 9153,
      "6\tइसमें": 9154,
      "8\tइसमें": 9155,
      "9\tइसमें": 9156,
      "?’\n": 9157,
      "ia": 9158,
      "jala": 9159,
      "इंग": 9160,
      "ई,": 9161,
      "ईद": 9162,
      "उद": 9163,
      "छत्तीसगढ़": 9164,
      "जिये": 9165,
      "टू": 9166,
      "डम": 9167,
      "तुल": 9168,
      "थन": 9169,
      "थान": 9170,
      "दालत": 9171,
      "धो": 9172,
      "धनों": 9173,
      "पार्ट": 9174,
      "परेटिव": 9175,
      "बॉल": 9176,
      "मंडल": 9177,
      "रियल": 9178,
      "लु": 9179,
      "लाना": 9180,
      "वली": 9181,
      "वामा": 9182,
      "व्हा": 9183,
      "शास": 9184,
      "शुल्क": 9185,
      "सारी": 9186,
      "ीप": 9187,
      "ूण": 9188,
      "ॉग": 9189,
      "ॉम": 9190,
      "ो।\n": 9191,
      "ौदा": 9192,
      "▁v": 9193,
      "▁st": 9194,
      "▁कूद": 9195,
      "▁कच्चे": 9196,
      "▁कनाडा": 9197,
      "▁कश्मीरी": 9198,
      "▁सनी": 9199,
      "▁सदी": 9200,
      "▁सैं": 9201,
      "▁सद्": 9202,
      "▁सत्या": 9203,
      "▁सस्ते": 9204,
      "▁हं": 9205,
      "▁मांस": 9206,
      "▁है:": 9207,
      "▁बस्ती": 9208,
      "▁जुल": 9209,
      "▁दाल": 9210,
      "▁दंप": 9211,
      "▁दक्षिणी": 9212,
      "▁वेल": 9213,
      "▁वचन": 9214,
      "▁लिंग": 9215,
      "ोंक": 9216,
      "▁रिव": 9217,
      "▁रूक": 9218,
      "▁रेंज": 9219,
      "▁अमीर": 9220,
      "▁नदियों": 9221,
      "र्जर": 9222,
      "र्वेद": 9223,
      "▁गों": 9224,
      "▁गर्व": 9225,
      "▁गवर्": 9226,
      "▁ग्रीन": 9227,
      "▁से।\n": 9228,
      "▁सेवानिव": 9229,
      "▁आला": 9230,
      "▁आसार": 9231,
      "▁आचार्य": 9232,
      "▁आक्रमण": 9233,
      "▁किंतु": 9234,
      "▁तहरी": 9235,
      "▁कराना": 9236,
      "▁काव्य": 9237,
      "▁भंग": 9238,
      "▁भटक": 9239,
      "▁भैंस": 9240,
      "▁उज": 9241,
      "▁इनाम": 9242,
      "▁चार्": 9243,
      "▁हो?\n": 9244,
      "▁शह": 9245,
      "▁शिमला": 9246,
      "क्व": 9247,
      "▁हैं।'\n": 9248,
      "तेज": 9249,
      "तीनों": 9250,
      "ंगत": 9251,
      "▁फू": 9252,
      "▁फिल": 9253,
      "▁फर्क": 9254,
      "लेन": 9255,
      "▁बाँ": 9256,
      "▁विमर्श": 9257,
      "▁स्त": 9258,
      "▁स्मार": 9259,
      "▁स्त्रियों": 9260,
      "तिर": 9261,
      "सीबी": 9262,
      "▁समृ": 9263,
      "गाव": 9264,
      "किट": 9265,
      "▁रावत": 9266,
      "कारिणी": 9267,
      "▁संभाव": 9268,
      "▁संतान": 9269,
      "ोगी": 9270,
      "4\tआप": 9271,
      "4\tअगर": 9272,
      "2\tअगर": 9273,
      "6\tआप": 9274,
      "6\tअगर": 9275,
      "9\tआप": 9276,
      "5\tआप": 9277,
      "7\tआप": 9278,
      "8\tअगर": 9279,
      "▁रहें": 9280,
      "▁रहें।\n": 9281,
      "लीफ": 9282,
      "ार्स": 9283,
      "▁कारों": 9284,
      "▁टूर": 9285,
      "ष्कार": 9286,
      "िलाफ़": 9287,
      "ाहि": 9288,
      "विशेष": 9289,
      "विभिन्न": 9290,
      "विश्वास": 9291,
      "्रीम": 9292,
      "▁कुशल": 9293,
      "▁सुशील": 9294,
      "ल्कि": 9295,
      "जीवी": 9296,
      "▁यानि": 9297,
      "▁यातायात": 9298,
      "▁राजे": 9299,
      "▁राजमार्ग": 9300,
      "वीप": 9301,
      "▁81": 9302,
      "▁129": 9303,
      "▁1200": 9304,
      "▁चुने": 9305,
      "▁115": 9306,
      "▁119": 9307,
      "▁सरस्वती": 9308,
      "▁2500": 9309,
      "▁149": 9310,
      "▁180": 9311,
      "▁(इ": 9312,
      "▁(एम": 9313,
      "▁मेघ": 9314,
      "▁मात": 9315,
      "▁जी.\n": 9316,
      "▁बारह": 9317,
      "▁सीडी": 9318,
      "▁सीधी": 9319,
      "▁लगा.\n": 9320,
      "स्तों": 9321,
      "हरियाणा": 9322,
      "▁उपज": 9323,
      "▁उपेक्षा": 9324,
      "▁उपस्थिति": 9325,
      "▁बेबी": 9326,
      "▁सबक": 9327,
      "▁स्थिर": 9328,
      "▁स्थलों": 9329,
      "▁कार्यो": 9330,
      "▁अनुकूल": 9331,
      "चाप": 9332,
      "▁कामकाज": 9333,
      "▁देशभर": 9334,
      "▁जानबूझ": 9335,
      "▁प्रतिद्व": 9336,
      "▁बढ़िया": 9337,
      "टाइ": 9338,
      "▁देखिए": 9339,
      "द्धा": 9340,
      "▁लिहाज": 9341,
      "दिष्ट": 9342,
      "▁आजम": 9343,
      "▁जुटी": 9344,
      "▁मानवाधिकार": 9345,
      "▁समाप्ति": 9346,
      "ृत्य": 9347,
      "200\t": 9348,
      "202\t": 9349,
      "206\t": 9350,
      "203\t": 9351,
      "207\t": 9352,
      "208\t": 9353,
      "▁राज्यमंत्री": 9354,
      "▁मनोरंजन": 9355,
      "▁कैप": 9356,
      "▁कैलाश": 9357,
      "▁अपनाने": 9358,
      "▁ठहर": 9359,
      "▁स्टो": 9360,
      "▁छाप": 9361,
      "ांचे": 9362,
      "196\t": 9363,
      "199\t": 9364,
      "195\t": 9365,
      "197\t": 9366,
      "▁खाद": 9367,
      "▁चौके": 9368,
      "355\t": 9369,
      "▁मांगों": 9370,
      "023\t": 9371,
      "177\t": 9372,
      "▁कॉलेजों": 9373,
      "188\t": 9374,
      "032\t": 9375,
      "282\t": 9376,
      "283\t": 9377,
      "106\t": 9378,
      "105\t": 9379,
      "483\t": 9380,
      "276\t": 9381,
      "275\t": 9382,
      "▁आएगी।\n": 9383,
      "382\t": 9384,
      "244\t": 9385,
      "242\t": 9386,
      "243\t": 9387,
      "▁होंगी।\n": 9388,
      "236\t": 9389,
      "235\t": 9390,
      "233\t": 9391,
      "237\t": 9392,
      "238\t": 9393,
      "▁दाख": 9394,
      "▁लड़कों": 9395,
      "560\t": 9396,
      "संजय": 9397,
      "▁जिनसे": 9398,
      "544\t": 9399,
      "545\t": 9400,
      "547\t": 9401,
      "548\t": 9402,
      "▁मिला,": 9403,
      "▁यूजर": 9404,
      "527\t": 9405,
      "528\t": 9406,
      "530\t": 9407,
      "535\t": 9408,
      "▁कभी-कभी": 9409,
      "▁एसडीएम": 9410,
      "▁महावीर": 9411,
      "▁महादेव": 9412,
      "▁हेली": 9413,
      "▁भागने": 9414,
      "▁भाग्य": 9415,
      "▁भागवत": 9416,
      "▁डेस्क": 9417,
      "▁छोड़ा": 9418,
      "▁पढ़ें": 9419,
      "▁उठाते": 9420,
      "▁कलर": 9421,
      "▁डील": 9422,
      "▁कानूनों": 9423,
      "जोरी": 9424,
      "▁केंद्रित": 9425,
      "▁हूँ,": 9426,
      "▁ख़िलाफ़": 9427,
      "▁खरीदा": 9428,
      "end": 9429,
      "▁Amar": 9430,
      "राबरी": 9431,
      "ाजित": 9432,
      "▁दिलीप": 9433,
      "▁प्रो.\n": 9434,
      "▁उपयोगी": 9435,
      "यंकर": 9436,
      "▁रोकना": 9437,
      "▁डाटा": 9438,
      "▁समर्थक": 9439,
      "▁कुलपति": 9440,
      "▁चाहा": 9441,
      "▁दिखाना": 9442,
      "▁सोचते": 9443,
      "ामाद": 9444,
      "▁पड़ा.\n": 9445,
      "▁पड़े।\n": 9446,
      "▁कविताओं": 9447,
      "▁Se": 9448,
      "▁गर्भ": 9449,
      "▁गर्ल": 9450,
      "▁मीटिंग": 9451,
      "▁app": 9452,
      "▁टैब": 9453,
      "▁शीघ्र": 9454,
      "▁Con": 9455,
      "▁Mar": 9456,
      "▁पूछने": 9457,
      "्युनि": 9458,
      "▁जायजा": 9459,
      "▁करेंगे,": 9460,
      "▁ऋषि": 9461,
      "ill": 9462,
      "स्तुतकर्ता": 9463,
      "▁अपराधों": 9464,
      "▁फ्रांस": 9465,
      "▁हमलावर": 9466,
      "नरेंद्र": 9467,
      "▁प्रभु": 9468,
      "▁छुट्ट": 9469,
      "▁हिंदुओं": 9470,
      "ज्जा": 9471,
      "▁क्वि": 9472,
      "▁तुलसी": 9473,
      "प्रियंका": 9474,
      "▁इन्हीं": 9475,
      "▁टाइगर": 9476,
      "िक्सल": 9477,
      "▁प्रतिनिधियों": 9478,
      "▁लड़कियां": 9479,
      "▁आजाद": 9480,
      "ash": 9481,
      "▁आकर्षण": 9482,
      "▁ट्रैक": 9483,
      "▁गतिविधियां": 9484,
      "रायल": 9485,
      "▁घूमने": 9486,
      "ह्न": 9487,
      "▁अकेला": 9488,
      "▁on:": 9489,
      "▁पॉलि": 9490,
      "▁चरित्र": 9491,
      "▁सीखने": 9492,
      "▁आपत्तिजनक": 9493,
      "▁आँखों": 9494,
      "▁झुका": 9495,
      "▁बेंच": 9496,
      "▁सेकेंड": 9497,
      "▁किशोरी": 9498,
      "वार्थ": 9499,
      "▁शासकीय": 9500,
      "▁मंजिल": 9501,
      "▁बजाए": 9502,
      "▁ट्रांसफर": 9503,
      "▁त्रिपाठी": 9504,
      "▁देंगे.\n": 9505,
      "स्टेबल": 9506,
      "उधर,": 9507,
      "▁चाहिये।\n": 9508,
      "▁अभियंता": 9509,
      "▁इंजीनियरिंग": 9510,
      "▁कोयले": 9511,
      "▁विवेक": 9512,
      "▁गुस्से": 9513,
      "▁प्रोत्साहित": 9514,
      "▁प्रोत्साहन": 9515,
      "▁शुभकामनाएं": 9516,
      "▁कहानियां": 9517,
      "▁उपकरणों": 9518,
      "▁पोर्टल": 9519,
      "▁सौंपी": 9520,
      "▁फैक्ट्री": 9521,
      "▁हार्दिक": 9522,
      "▁नक्सलियों": 9523,
      "▁कस्बे": 9524,
      "▁ससुराल": 9525,
      "▁आंगनबाड़ी": 9526,
      "▁मुआवजा": 9527,
      "▁परिस्थितियों": 9528,
      "▁सतर्कता": 9529,
      "▁सप्लाई": 9530,
      "▁शोषण": 9531,
      "▁तब्दील": 9532,
      "▁उद्यम": 9533,
      "▁प्रवृत्ति": 9534,
      "▁गारंटी": 9535,
      "▁सूचकांक": 9536,
      "भ्रष्टाचार": 9537,
      "▁रैंकिंग": 9538,
      "▁फोकस": 9539,
      "▁सुर्खियों": 9540,
      "उत्तराखंड": 9541,
      "▁आध्यात्म": 9542,
      "-पी": 9543,
      "3\tइ": 9544,
      "6\tइ": 9545,
      "7\tइसमें": 9546,
      "8\tइ": 9547,
      "9\tइन": 9548,
      "Experience": 9549,
      "ast": 9550,
      "ne": 9551,
      "ug": 9552,
      "ust": 9553,
      "ंपरिक": 9554,
      "आउट": 9555,
      "उम्मीद": 9556,
      "ऊदी": 9557,
      "एब": 9558,
      "कड़": 9559,
      "गान": 9560,
      "गंगा": 9561,
      "घोष": 9562,
      "चिन": 9563,
      "चाह": 9564,
      "झान": 9565,
      "ठभ": 9566,
      "ड्रा": 9567,
      "णिक": 9568,
      "थु": 9569,
      "थाना": 9570,
      "दब": 9571,
      "दूर": 9572,
      "धना": 9573,
      "नद": 9574,
      "नपुर": 9575,
      "पम": 9576,
      "फरी": 9577,
      "फिस": 9578,
      "फायर": 9579,
      "बली": 9580,
      "बूत": 9581,
      "बत्ती": 9582,
      "मां": 9583,
      "लल": 9584,
      "लड़की": 9585,
      "वहाँ": 9586,
      "शान": 9587,
      "शाम": 9588,
      "शरी": 9589,
      "सह": 9590,
      "ुली": 9591,
      "ुणा": 9592,
      "ैनी": 9593,
      "ॉफ": 9594,
      "ॉस": 9595,
      "ोब": 9596,
      "ौनी": 9597,
      "ौलत": 9598,
      "’,": 9599,
      "▁ऎ": 9600,
      "▁06": 9601,
      "▁re": 9602,
      "▁our": 9603,
      "▁सज": 9604,
[...]
