{
  "vocab": {
    "[UNK]": 0,
    "[PAD]": 1,
    "[BOS]": 2,
    "[EOS]": 3,
    "के": 4,
    "ें": 5,
    "है": 6,
    "ार": 7,
    "ने": 8,
    "्र": 9,
    "में": 10,
    "या": 11,
    "की": 12,
    "से": 13,
    "का": 14,
    "कि": 15,
    "कर": 16,
    "को": 17,
    "ों": 18,
    "ता": 19,
    "ना": 20,
    "ही": 21,
    "स्": 22,
    "र्": 23,
    "पर": 24,
    "क्": 25,
    "और": 26,
    "ान": 27,
    "ले": 28,
    "ला": 29,
    "प्र": 30,
    "लि": 31,
    "है।": 32,
    "हा": 33,
    "वा": 34,
    "्य": 35,
    "जा": 36,
    "हो": 37,
    "सा": 38,
    "भी": 39,
    "वि": 40,
    "रा": 41,
    "इस": 42,
    "हैं": 43,
    "कार": 44,
    "दे": 45,
    "दि": 46,
    "मा": 47,
    "बा": 48,
    "ते": 49,
    "ति": 50,
    "ती": 51,
    "नि": 52,
    "हु": 53,
    "हीं": 54,
    "गा": 55,
    "न्": 56,
    "त्र": 57,
    "था": 58,
    "एक": 59,
    "ड़": 60,
    "ली": 61,
    "लिए": 62,
    "नी": 63,
    "सं": 64,
    "नहीं": 65,
    "सी": 66,
    "पा": 67,
    "मि": 68,
    "क्ष": 69,
    "रह": 70,
    "जि": 71,
    "त्": 72,
    "री": 73,
    "अप": 74,
    "मु": 75,
    "दी": 76,
    "तो": 77,
    "ित": 78,
    "ंग": 79,
    "भा": 80,
    "ल्": 81,
    "यों": 82,
    "ोग": 83,
    "हैं।": 84,
    "किया": 85,
    "सम": 86,
    "वार": 87,
    "सि": 88,
    "चा": 89,
    "दा": 90,
    "यह": 91,
    "जी": 92,
    "गया": 93,
    "सर": 94,
    "ुर": 95,
    "ये": 96,
    "शा": 97,
    "द्": 98,
    "टी": 99,
    "हि": 100,
    "देश": 101,
    "मे": 102,
    "करने": 103,
    "न्ह": 104,
    "उन": 105,
    "कु": 106,
    "उस": 107,
    "कहा": 108,
    "आप": 109,
    "मी": 110,
    "पू": 111,
    "रि": 112,
    "साथ": 113,
    "वे": 114,
    "धि": 115,
    "है.": 116,
    "बाद": 117,
    "उन्ह": 118,
    "मं": 119,
    "रे": 120,
    "जो": 121,
    "खा": 122,
    "तक": 123,
    "मार": 124,
    "रो": 125,
    "दो": 126,
    "ैं": 127,
    "पी": 128,
    "राज": 129,
    "सु": 130,
    "भार": 131,
    "पह": 132,
    "ष्": 133,
    "थी": 134,
    "बी": 135,
    "रहे": 136,
    "फि": 137,
    "सक": 138,
    "गी": 139,
    "ट्र": 140,
    "्या": 141,
    "शि": 142,
    "श्": 143,
    "लोग": 144,
    "दिया": 145,
    "पु": 146,
    "मान": 147,
    "तर": 148,
    "ंद": 149,
    "रू": 150,
    "स्थ": 151,
    "अन": 152,
    "बार": 153,
    "अपने": 154,
    "वी": 155,
    "वह": 156,
    "रहा": 157,
    "क्र": 158,
    "है,": 159,
    "गे": 160,
    "चु": 161,
    "च्": 162,
    "ओं": 163,
    "हुए": 164,
    "बि": 165,
    "ंच": 166,
    "थे": 167,
    "जब": 168,
    "वर्": 169,
    "नों": 170,
    "किन": 171,
    "इन": 172,
    "रही": 173,
    "हर": 174,
    "ोंने": 175,
    "गई": 176,
    "डि": 177,
    "चार": 178,
    "प्": 179,
    "मंत्र": 180,
    "सरकार": 181,
    "स्ट": 182,
    "लेकिन": 183,
    "हम": 184,
    "उन्होंने": 185,
    "जन": 186,
    "कुछ": 187,
    "मिल": 188,
    "बना": 189,
    "दू": 190,
    "बात": 191,
    "ार्": 192,
    "20": 193,
    "हां": 194,
    "अधि": 195,
    "लगा": 196,
    "जिस": 197,
    "बता": 198,
    "बे": 199,
    "ंध": 200,
    "यो": 201,
    "ढ़": 202,
    "ौर": 203,
    "लग": 204,
    "मो": 205,
    "शन": 206,
    "ानी": 207,
    "म्": 208,
    "ारी": 209,
    "जाए": 210,
    "सब": 211,
    "पि": 212,
    "होने": 213,
    "गर": 214,
    "कोई": 215,
    "कह": 216,
    "था।": 217,
    "खि": 218,
    "मंत्री": 219,
    "परि": 220,
    "लो": 221,
    "क्षा": 222,
    "पहले": 223,
    "मैं": 224,
    "अब": 225,
    "गए": 226,
    "अपनी": 227,
    "व्य": 228,
    "तु": 229,
    "पुलि": 230,
    "कार्य": 231,
    "सो": 232,
    "वाले": 233,
    "प्रति": 234,
    "पुलिस": 235,
    "ंड": 236,
    "ग्र": 237,
    "जे": 238,
    "टे": 239,
    "टर": 240,
    "श्र": 241,
    "योग": 242,
    "कों": 243,
    "लोगों": 244,
    "मुख": 245,
    "किसी": 246,
    "इसके": 247,
    "ियों": 248,
    "भारत": 249,
    "बर": 250,
    "सू": 251,
    "दर्": 252,
    "टा": 253,
    "काम": 254,
    "यु": 255,
    "करते": 256,
    "निर्": 257,
    "जान": 258,
    "मौ": 259,
    "अनु": 260,
    "ैसे": 261,
    "छा": 262,
    "गा।": 263,
    "सिं": 264,
    "ब्": 265,
    "उप": 266,
    "आज": 267,
    "वं": 268,
    "लों": 269,
    "चि": 270,
    "टि": 271,
    "कारी": 272,
    "माम": 273,
    "द्वार": 274,
    "लिया": 275,
    "पूर्": 276,
    "तरह": 277,
    "सिंह": 278,
    "रूप": 279,
    "दु": 280,
    "हुआ": 281,
    "रु": 282,
    "क्त": 283,
    "द्वारा": 284,
    "आई": 285,
    "धान": 286,
    "ध्य": 287,
    "अं": 288,
    "उनके": 289,
    "समय": 290,
    "देख": 291,
    "इं": 292,
    "कई": 293,
    "पे": 294,
    "कम": 295,
    "ड़ी": 296,
    "दिन": 297,
    "बहु": 298,
    "हैं.": 299,
    "फी": 300,
    "कर्": 301,
    "साल": 302,
    "जाने": 303,
    "धा": 304,
    "लेकर": 305,
    "शुर": 306,
    "चे": 307,
    "जाता": 308,
    "जु": 309,
    "ची": 310,
    "स्ता": 311,
    "ीय": 312,
    "धार": 313,
    "रख": 314,
    "्रे": 315,
    "मह": 316,
    "प्रा": 317,
    "स्त": 318,
    "हुई": 319,
    "नाम": 320,
    "बताया": 321,
    "पहु": 322,
    "भि": 323,
    "बहुत": 324,
    "पो": 325,
    "चल": 326,
    "सकता": 327,
    "गु": 328,
    "वो": 329,
    "उत्": 330,
    "द्र": 331,
    "उन्हें": 332,
    "करें": 333,
    "हैं,": 334,
    "थे।": 335,
    "एवं": 336,
    "सार": 337,
    "लय": 338,
    "फिर": 339,
    "यर": 340,
    "ष्ट्र": 341,
    "क्या": 342,
    "सभी": 343,
    "बंध": 344,
    "भाग": 345,
    "ड़े": 346,
    "दौर": 347,
    "क्षे": 348,
    "जू": 349,
    "मन": 350,
    "बन": 351,
    "फिल्": 352,
    "पार्": 353,
    "खु": 354,
    "ड़ा": 355,
    "होता": 356,
    "सद": 357,
    "शे": 358,
    "वर": 359,
    "क्ति": 360,
    "गया।": 361,
    "शी": 362,
    "बै": 363,
    "थी।": 364,
    "राज्य": 365,
    "पुर": 366,
    "बो": 367,
    "क्षेत्र": 368,
    "डा": 369,
    "खे": 370,
    "वाली": 371,
    "घर": 372,
    "चुना": 373,
    "करना": 374,
    "डी": 375,
    "िक": 376,
    "बढ़": 377,
    "हू": 378,
    "ज्": 379,
    "तथा": 380,
    "ंग्रे": 381,
    "201": 382,
    "वन": 383,
    "पास": 384,
    "स्था": 385,
    "र्ट": 386,
    "गी।": 387,
    "कृ": 388,
    "ूल": 389,
    "जार": 390,
    "बु": 391,
    "खिला": 392,
    "वर्ष": 393,
    "एस": 394,
    "फिल्म": 395,
    "मुख्य": 396,
    "समा": 397,
    "राष्ट्र": 398,
    "फा": 399,
    "तीय": 400,
    "बच्": 401,
    "मै": 402,
    "उसे": 403,
    "शुरू": 404,
    "क्यों": 405,
    "गि": 406,
    "उनकी": 407,
    "मत": 408,
    "चाहि": 409,
    "रुप": 410,
    "दौरान": 411,
    "उसके": 412,
    "ंप": 413,
    "चुनाव": 414,
    "निक": 415,
    "महि": 416,
    "पता": 417,
    "यहां": 418,
    "प्रदेश": 419,
    "णा": 420,
    "यू": 421,
    "बीच": 422,
    "चाहिए": 423,
    "सकते": 424,
    "सबसे": 425,
    "कांग्रे": 426,
    "सह": 427,
    "दिल्": 428,
    "साम": 429,
    "00": 430,
    "्यादा": 431,
    "ज्ञ": 432,
    "करा": 433,
    "हमार": 434,
    "तार": 435,
    "फ्": 436,
    "महिला": 437,
    "दोनों": 438,
    "कारण": 439,
    "ऐसे": 440,
    "त्व": 441,
    "आरो": 442,
    "विश्": 443,
    "र्थ": 444,
    "पहुंच": 445,
    "कांग्रेस": 446,
    "एं": 447,
    "श्री": 448,
    "दिल्ली": 449,
    "दान": 450,
    "बैठ": 451,
    "होती": 452,
    "शु": 453,
    "सभा": 454,
    "जना": 455,
    "ंद्र": 456,
    "क्रम": 457,
    "देने": 458,
    "गो": 459,
    "किया।": 460,
    "अच्": 461,
    "ज्यादा": 462,
    "ज़": 463,
    "फै": 464,
    "बद": 465,
    "अपना": 466,
    "स्व": 467,
    "नीति": 468,
    "भाव": 469,
    "छो": 470,
    "दर": 471,
    "भारतीय": 472,
    "अगर": 473,
    "यी": 474,
    "स्थान": 475,
    "दार": 476,
    "मामले": 477,
    "्यू": 478,
    "पार्टी": 479,
    "हत": 480,
    "सुर": 481,
    "टना": 482,
    "अव": 483,
    "योजना": 484,
    "डिया": 485,
    "हार": 486,
    "जग": 487,
    "डे": 488,
    "चाह": 489,
    "सान": 490,
    "लोक": 491,
    "एम": 492,
    "मार्": 493,
    "करी": 494,
    "ठा": 495,
    "गे।": 496,
    "प्त": 497,
    "भू": 498,
    "ंव": 499,
    "वाद": 500,
    "तीन": 501,
    "कै": 502,
    "जर": 503,
    "मुझ": 504,
    "फो": 505,
    "नेता": 506,
    "पै": 507,
    "जैसे": 508,
    "भर": 509,
    "कॉ": 510,
    "अधिक": 511,
    "क्रि": 512,
    "न्न": 513,
    "अभि": 514,
    "अन्य": 515,
    "टीम": 516,
    "ट्": 517,
    "सर्": 518,
    "कंप": 519,
    "ऐसा": 520,
    "करो": 521,
    "राम": 522,
    "पूर्व": 523,
    "इसी": 524,
    "पिछ": 525,
    "निया": 526,
    "तना": 527,
    "19": 528,
    "शो": 529,
    "पर्": 530,
    "ओर": 531,
    "तै": 532,
    "यं": 533,
    "जानकारी": 534,
    "सन": 535,
    "बह": 536,
    "क्स": 537,
    "यत": 538,
    "खिलाफ": 539,
    "ध्यक्ष": 540,
    "ग्रा": 541,
    "जारी": 542,
    "धी": 543,
    "त्य": 544,
    "कास": 545,
    "इससे": 546,
    "हों": 547,
    "शामिल": 548,
    "सरे": 549,
    "बारे": 550,
    "किए": 551,
    "द्ध": 552,
    "करता": 553,
    "पत्र": 554,
    "संबंध": 555,
    "समझ": 556,
    "कान": 557,
    "जरू": 558,
    "कल": 559,
    "व्यक्ति": 560,
    "गांव": 561,
    "जाती": 562,
    "इसे": 563,
    "भग": 564,
    "विकास": 565,
    "चौ": 566,
    "मोदी": 567,
    "रात": 568,
    "लत": 569,
    "अलग": 570,
    "सकती": 571,
    "मुझे": 572,
    "पं": 573,
    "जय": 574,
    "प्रधान": 575,
    "कुमार": 576,
    "र्म": 577,
    "वान": 578,
    "घटना": 579,
    "पति": 580,
    "यार": 581,
    "था.": 582,
    "चना": 583,
    "डॉ": 584,
    "क्योंकि": 585,
    "आपको": 586,
    "केंद्र": 587,
    "पाकि": 588,
    "त्या": 589,
    "गई।": 590,
    "सम्": 591,
    "सल": 592,
    "स्तान": 593,
    "आने": 594,
    "पिछले": 595,
    "्रा": 596,
    "जपा": 597,
    "ंक": 598,
    "यन": 599,
    "गत": 600,
    "मांग": 601,
    "भाजपा": 602,
    "वाई": 603,
    "यान": 604,
    "यम": 605,
    "ंगा": 606,
    "ंत": 607,
    "त्रा": 608,
    "वाल": 609,
    "अधिकार": 610,
    "काफी": 611,
    "विधा": 612,
    "प्रे": 613,
    "अभी": 614,
    "विभाग": 615,
    "लन": 616,
    "क्षण": 617,
    "पत्": 618,
    "छे": 619,
    "अनुसार": 620,
    "आए": 621,
    "द्य": 622,
    "कभी": 623,
    "वज": 624,
    "इसमें": 625,
    "जूद": 626,
    "होगा": 627,
    "विश्व": 628,
    "लाख": 629,
    "दिया।": 630,
    "लू": 631,
    "दिखा": 632,
    "बैं": 633,
    "माण": 634,
    "वहीं": 635,
    "पूरी": 636,
    "10": 637,
    "ट्रे": 638,
    "ं।": 639,
    "याद": 640,
    "आगे": 641,
    "उसकी": 642,
    "स्वी": 643,
    "हे": 644,
    "स्क": 645,
    "चों": 646,
    "धन": 647,
    "पूर्ण": 648,
    "जहां": 649,
    "ारा": 650,
    "स्थि": 651,
    "चित": 652,
    "दें": 653,
    "ध्या": 654,
    "की।": 655,
    "रत": 656,
    "केट": 657,
    "वै": 658,
    "इसलिए": 659,
    "स्थित": 660,
    "जिन": 661,
    "राष्ट्रीय": 662,
    "सामने": 663,
    "होते": 664,
    "आत": 665,
    "र्फ": 666,
    "शेष": 667,
    "कार्यक्रम": 668,
    "न्या": 669,
    "दिए": 670,
    "स्वा": 671,
    "यक": 672,
    "चला": 673,
    "घा": 674,
    "पद": 675,
    "पोर्ट": 676,
    "हमें": 677,
    "क्टर": 678,
    "कहा,": 679,
    "मुख्यमंत्री": 680,
    "उनका": 681,
    "जिला": 682,
    "हन": 683,
    "्ड": 684,
    "मद": 685,
    "आधार": 686,
    "जै": 687,
    "आरोप": 688,
    "ंकि": 689,
    "गिर": 690,
    "करे": 691,
    "गठ": 692,
    "तब": 693,
    "यां": 694,
    "राजनीति": 695,
    "वल": 696,
    "परा": 697,
    "हाला": 698,
    "जांच": 699,
    "ठी": 700,
    "आदि": 701,
    "व्यव": 702,
    "स्थिति": 703,
    "मेरे": 704,
    "जबकि": 705,
    "अध्यक्ष": 706,
    "हाल": 707,
    "इसका": 708,
    "वाला": 709,
    "शहर": 710,
    "ंगे": 711,
    "सला": 712,
    "सफ": 713,
    "दूसरे": 714,
    "बनाने": 715,
    "नो": 716,
    "प्रधानमंत्री": 717,
    "हमारे": 718,
    "दूर": 719,
    "मिला": 720,
    "लं": 721,
    "जाते": 722,
    "पांच": 723,
    "लने": 724,
    "आर": 725,
    "अग": 726,
    "घो": 727,
    "सदस्": 728,
    "जिसमें": 729,
    "हजार": 730,
    "नौ": 731,
    "भे": 732,
    "परिवार": 733,
    "ताओं": 734,
    "रण": 735,
    "सुरक्षा": 736,
    "दूस": 737,
    "करोड़": 738,
    "विशेष": 739,
    "पाकिस्तान": 740,
    "कुल": 741,
    "ेश": 742,
    "जीत": 743,
    "समाज": 744,
    "अला": 745,
    "जीवन": 746,
    "ख्या": 747,
    "श्य": 748,
    "हित": 749,
    "हाँ": 750,
    "करण": 751,
    "करीब": 752,
    "दर्ज": 753,
    "था,": 754,
    "म्मी": 755,
    "यल": 756,
    "परी": 757,
    "बंद": 758,
    "आयो": 759,
    "होगा।": 760,
    "इला": 761,
    "त्म": 762,
    "बल्": 763,
    "पक": 764,
    "इस्": 765,
    "बाहर": 766,
    "वहां": 767,
    "उठा": 768,
    "सके": 769,
    "ज्ञान": 770,
    "जित": 771,
    "उत्तर": 772,
    "दर्शन": 773,
    "ंट": 774,
    "भाष": 775,
    "लॉ": 776,
    "अलावा": 777,
    "कंपनी": 778,
    "बच्चों": 779,
    "बस": 780,
    "लिये": 781,
    "जाएगा।": 782,
    "कहना": 783,
    "दिनों": 784,
    "पाल": 785,
    "तैयार": 786,
    "वास": 787,
    "रुपये": 788,
    "चर्": 789,
    "यालय": 790,
    "नर": 791,
    "ंधी": 792,
    "ेंद्र": 793,
    "सिर्फ": 794,
    "प्रकार": 795,
    "आया": 796,
    "पड़": 797,
    "माल": 798,
    "पहली": 799,
    "भव": 800,
    "उम्मी": 801,
    "आपके": 802,
    "युक्त": 803,
    "उसने": 804,
    "र्ड": 805,
    "सुन": 806,
    "पार": 807,
    "जनता": 808,
    "अधिकारी": 809,
    "पानी": 810,
    "दुनिया": 811,
    "त्रों": 812,
    "वजह": 813,
    "बेह": 814,
    "बड़": 815,
    "यही": 816,
    "व्या": 817,
    "चुके": 818,
    "चाहिए।": 819,
    "बैठक": 820,
    "इसकी": 821,
    "बड़ी": 822,
    "फे": 823,
    "गांधी": 824,
    "तहत": 825,
    "ऐसी": 826,
    "प्राप्त": 827,
    "उम्मीद": 828,
    "सै": 829,
    "प्ता": 830,
    "जिले": 831,
    "बॉ": 832,
    "जल": 833,
    "200": 834,
    "दन": 835,
    "जाना": 836,
    "रुपए": 837,
    "सां": 838,
    "यदि": 839,
    "मीडिया": 840,
    "नई": 841,
    "सेवा": 842,
    "शत": 843,
    "बिक": 844,
    "कल्": 845,
    "व्यवस्था": 846,
    "लेख": 847,
    "कोर्ट": 848,
    "विधान": 849,
    "पक्ष": 850,
    "बैंक": 851,
    "ुरु": 852,
    "लिख": 853,
    "नगर": 854,
    "शासन": 855,
    "हिस्": 856,
    "लें": 857,
    "बल": 858,
    "हाथ": 859,
    "मू": 860,
    "अस्": 861,
    "हालांकि": 862,
    "ष्ट": 863,
    "खो": 864,
    "है?": 865,
    "आम": 866,
    "निका": 867,
    "कट": 868,
    "न्द्र": 869,
    "महा": 870,
    "पड़": 871,
    "तरी": 872,
    "मर": 873,
    "तौर": 874,
    "फोन": 875,
    "वेश": 876,
    "विद्": 877,
    "मिली": 878,
    "गए।": 879,
    "तों": 880,
    "शर्": 881,
    "ुक": 882,
    "अमे": 883,
    "वरी": 884,
    "कर्म": 885,
    "बाव": 886,
    "बजे": 887,
    "सदी": 888,
    "स्टे": 889,
    "उपल": 890,
    "कृति": 891,
    "कोशि": 892,
    "देते": 893,
    "जगह": 894,
    "खुद": 895,
    "उसका": 896,
    "खबर": 897,
    "लड़": 898,
    "मैंने": 899,
    "विचार": 900,
    "शिक्षा": 901,
    "एन": 902,
    "रहने": 903,
    "यास": 904,
    "करती": 905,
    "ून": 906,
    "निर्माण": 907,
    "उपलब्": 908,
    "न्यू": 909,
    "ष्ठ": 910,
    "संघ": 911,
    "मिले": 912,
    "स्तर": 913,
    "मित": 914,
    "नजर": 915,
    "विरो": 916,
    "लब": 917,
    "ंगल": 918,
    "मौत": 919,
    "बाइ": 920,
    "रवि": 921,
    "हूं": 922,
    "गयी": 923,
    "तन": 924,
    "कैसे": 925,
    "रिया": 926,
    "मुता": 927,
    "प्रमुख": 928,
    "प्रो": 929,
    "भूमि": 930,
    "दम": 931,
    "कोशिश": 932,
    "साइ": 933,
    "अमेरि": 934,
    "क्रिया": 935,
    "हरा": 936,
    "मुताबिक": 937,
    "विष": 938,
    "लाई": 939,
    "णी": 940,
    "डियो": 941,
    "रिपोर्ट": 942,
    "युव": 943,
    "घोष": 944,
    "सिल": 945,
    "सौ": 946,
    "त्री": 947,
    "गये": 948,
    "प्रतिशत": 949,
    "होना": 950,
    "सुबह": 951,
    "सही": 952,
    "स्या": 953,
    "टो": 954,
    "लगे": 955,
    "किसान": 956,
    "ंस": 957,
    "स्कूल": 958,
    "आव": 959,
    "बड़े": 960,
    "बचा": 961,
    "दिर": 962,
    "मदद": 963,
    "निवार": 964,
    "थी.": 965,
    "11": 966,
    "आं": 967,
    "पूरा": 968,
    "अच्छा": 969,
    "बढ़ा": 970,
    "जल्": 971,
    "भिन्न": 972,
    "ंदर": 973,
    "सेना": 974,
    "ंदी": 975,
    "भारी": 976,
    "लेने": 977,
    "संख्या": 978,
    "मूल": 979,
    "भावना": 980,
    "मुं": 981,
    "कता": 982,
    "लगता": 983,
    "12": 984,
    "तनी": 985,
    "खान": 986,
    "जें": 987,
    "अधिकारियों": 988,
    "दी।": 989,
    "ध्यान": 990,
    "करके": 991,
    "केवल": 992,
    "फ़": 993,
    "टू": 994,
    "सचि": 995,
    "खेल": 996,
    "विदेश": 997,
    "चान": 998,
    "काश": 999,
    "मेरी": 1000,
    "दूसरी": 1001,
    "मृ": 1002,
    "झा": 1003,
    "सवाल": 1004,
    "नए": 1005,
    "सरकारी": 1006,
    "ग्": 1007,
    "मंदिर": 1008,
    "जिसके": 1009,
    "बई": 1010,
    "15": 1011,
    "मौजूद": 1012,
    "कहते": 1013,
    "गै": 1014,
    "देखा": 1015,
    "जिससे": 1016,
    "लाल": 1017,
    "जों": 1018,
    "वृ": 1019,
    "पिता": 1020,
    "्रि": 1021,
    "अस्पता": 1022,
    "दों": 1023,
    "मामला": 1024,
    "हूँ": 1025,
    "लर": 1026,
    "ंबर": 1027,
    "गुरु": 1028,
    "भो": 1029,
    "सित": 1030,
    "समस्या": 1031,
    "बू": 1032,
    "लिक": 1033,
    "खंड": 1034,
    "गं": 1035,
    "निर्देश": 1036,
    "दारी": 1037,
    "जवा": 1038,
    "अंत": 1039,
    "माह": 1040,
    "गर्": 1041,
    "देव": 1042,
    "बिज": 1043,
    "अति": 1044,
    "बच्चे": 1045,
    "सफल": 1046,
    "30": 1047,
    "उपयोग": 1048,
    "लगभग": 1049,
    "ंचा": 1050,
    "रन": 1051,
    "आपकी": 1052,
    "कौ": 1053,
    "मही": 1054,
    "स्तु": 1055,
    "वासी": 1056,
    "प्रदर्शन": 1057,
    "प्रयास": 1058,
    "बाजार": 1059,
    "महत्व": 1060,
    "विभिन्न": 1061,
    "भाषा": 1062,
    "गति": 1063,
    "रखा": 1064,
    "मीर": 1065,
    "र्ष": 1066,
    "सहित": 1067,
    "हत्या": 1068,
    "तम": 1069,
    "तरफ": 1070,
    "वित": 1071,
    "धर": 1072,
    "समर्थ": 1073,
    "पढ़": 1074,
    "गिरफ्": 1075,
    "फर": 1076,
    "यता": 1077,
    "लाभ": 1078,
    "टन": 1079,
    "चो": 1080,
    "खरी": 1081,
    "उपलब्ध": 1082,
    "ंत्र": 1083,
    "अदा": 1084,
    "पीछे": 1085,
    "मैच": 1086,
    "बनाया": 1087,
    "छी": 1088,
    "वाह": 1089,
    "लिया।": 1090,
    "सीट": 1091,
    "मान्य": 1092,
    "बल्कि": 1093,
    "जरूरत": 1094,
    "सोम": 1095,
    "माना": 1096,
    "राब": 1097,
    "धर्म": 1098,
    "लोकसभा": 1099,
    "र्स": 1100,
    "र्जी": 1101,
    "अफ": 1102,
    "होगी।": 1103,
    "रखने": 1104,
    "वालों": 1105,
    "रेल": 1106,
    "बने": 1107,
    "मेंट": 1108,
    "होगी": 1109,
    "शल": 1110,
    "ैंड": 1111,
    "मौके": 1112,
    "इंडिया": 1113,
    "अस्पताल": 1114,
    "तुम": 1115,
    "te": 1116,
    "समि": 1117,
    "बढ़": 1118,
    "बिना": 1119,
    "चीन": 1120,
    "यात्रा": 1121,
    "शरी": 1122,
    "क्षि": 1123,
    "गीत": 1124,
    "लौ": 1125,
    "त्ता": 1126,
    "सूचना": 1127,
    "सोमवार": 1128,
    "करें।": 1129,
    "समिति": 1130,
    "ठीक": 1131,
    "षण": 1132,
    "तेमाल": 1133,
    "कर्मचार": 1134,
    "ar": 1135,
    "चर्चा": 1136,
    "संगठ": 1137,
    "थि": 1138,
    "फीसदी": 1139,
    "मुद्": 1140,
    "रोक": 1141,
    "कत": 1142,
    "आवश्य": 1143,
    "महिलाओं": 1144,
    "ार्थ": 1145,
    "मजब": 1146,
    "मजबू": 1147,
    "चुकी": 1148,
    "पूरे": 1149,
    "इस्तेमाल": 1150,
    "चाहते": 1151,
    "ुष": 1152,
    "शब्": 1153,
    "इतना": 1154,
    "राव": 1155,
    "थे.": 1156,
    "गू": 1157,
    "पन": 1158,
    "शर्मा": 1159,
    "वाप": 1160,
    "सुविधा": 1161,
    "लाइन": 1162,
    "जेपी": 1163,
    "शिका": 1164,
    "ख्": 1165,
    "मिलने": 1166,
    "फैसला": 1167,
    "साब": 1168,
    "कश्": 1169,
    "14": 1170,
    "विक": 1171,
    "देर": 1172,
    "शुरु": 1173,
    "धे": 1174,
    "परीक्षा": 1175,
    "रों": 1176,
    "चुका": 1177,
    "ल्ड": 1178,
    "चलते": 1179,
    "पेश": 1180,
    "विधानसभा": 1181,
    "विरोध": 1182,
    "in": 1183,
    "विद्यालय": 1184,
    "त्त": 1185,
    "मरी": 1186,
    "हाई": 1187,
    "तस्वी": 1188,
    "लगाया": 1189,
    "उपा": 1190,
    "बिहार": 1191,
    "अंतर": 1192,
    "ंगे।": 1193,
    "जाय": 1194,
    "पल": 1195,
    "पत्नी": 1196,
    "प्रि": 1197,
    "ध्यम": 1198,
    "पोस्ट": 1199,
    "थाना": 1200,
    "किस": 1201,
    "लगातार": 1202,
    "डल": 1203,
    "सहा": 1204,
    "उसी": 1205,
    "काल": 1206,
    "यादव": 1207,
    "सोच": 1208,
    "जिसे": 1209,
    "भीर": 1210,
    "25": 1211,
    "होकर": 1212,
    "पना": 1213,
    "दाय": 1214,
    "शादी": 1215,
    "मंगल": 1216,
    "रंग": 1217,
    "बड़ा": 1218,
    "मुंबई": 1219,
    "गल": 1220,
    "च्च": 1221,
    "शिकायत": 1222,
    "ज्ञा": 1223,
    "प्रकाश": 1224,
    "कवि": 1225,
    "टक": 1226,
    "जाये": 1227,
    "गम": 1228,
    "ऑफ": 1229,
    "टिंग": 1230,
    "मिक": 1231,
    "जवाब": 1232,
    "कहीं": 1233,
    "जमा": 1234,
    "हमारी": 1235,
    "बीजेपी": 1236,
    "्यालय": 1237,
    "अर्": 1238,
    "अन्": 1239,
    "सत": 1240,
    "गें": 1241,
    "लिखा": 1242,
    "आदेश": 1243,
    "बिजली": 1244,
    "लेज": 1245,
    "आग": 1246,
    "मना": 1247,
    "वक्त": 1248,
    "तंत्र": 1249,
    "महीने": 1250,
    "लगी": 1251,
    "अच्छी": 1252,
    "शाय": 1253,
    "सड़": 1254,
    "आद": 1255,
    "तय": 1256,
    "जन्": 1257,
    "थे,": 1258,
    "मंत्रा": 1259,
    "परेश": 1260,
    "राजनीतिक": 1261,
    "पित": 1262,
    "द्योग": 1263,
    "उत्पा": 1264,
    "वीडियो": 1265,
    "बयान": 1266,
    "देखने": 1267,
    "देना": 1268,
    "कला": 1269,
    "जिक": 1270,
    "हासिल": 1271,
    "अभियान": 1272,
    "रहते": 1273,
    "उद्": 1274,
    "गंभीर": 1275,
    "करवा": 1276,
    "मां": 1277,
    "लक": 1278,
    "सले": 1279,
    "हो।": 1280,
    "संस्": 1281,
    "नारा": 1282,
    "क्रिकेट": 1283,
    "नियम": 1284,
    "भ्र": 1285,
    "ट्रो": 1286,
    "भाई": 1287,
    "युवा": 1288,
    "कीमत": 1289,
    "तिहा": 1290,
    "रहता": 1291,
    "हुल": 1292,
    "शनिवार": 1293,
    "ग्रह": 1294,
    "ंटे": 1295,
    "नाथ": 1296,
    "ंति": 1297,
    "शिव": 1298,
    "किंग": 1299,
    "सदस्य": 1300,
    "प्रभा": 1301,
    "सें": 1302,
    "डर": 1303,
    "गिरफ्तार": 1304,
    "मगर": 1305,
    "माध्यम": 1306,
    "प्रदान": 1307,
    "हरी": 1308,
    "ग्रामी": 1309,
    "ग्रामीण": 1310,
    "िश": 1311,
    "कार्र": 1312,
    "कार्रवाई": 1313,
    "दक्षि": 1314,
    "छोड़": 1315,
    "किल": 1316,
    "आस": 1317,
    "नेट": 1318,
    "प्रयोग": 1319,
    "मंत्रालय": 1320,
    "वरण": 1321,
    "थो": 1322,
    "आयोजित": 1323,
    "हमे": 1324,
    "गरी": 1325,
    "17": 1326,
    "मध्य": 1327,
    "राष्ट्रपति": 1328,
    "ष्टि": 1329,
    "सम्मान": 1330,
    "ग्राम": 1331,
    "मता": 1332,
    "जाएगा": 1333,
    "हिन्": 1334,
    "मोबाइ": 1335,
    "मोबाइल": 1336,
    "नही": 1337,
    "कश्मीर": 1338,
    "नेताओं": 1339,
    "अवसर": 1340,
    "देखते": 1341,
    "18": 1342,
    "चन": 1343,
    "शाम": 1344,
    "म्र": 1345,
    "बदल": 1346,
    "कहानी": 1347,
    "वैसे": 1348,
    "पहुंचे": 1349,
    "राहुल": 1350,
    "भगवान": 1351,
    "16": 1352,
    "ूब": 1353,
    "बावजूद": 1354,
    "समे": 1355,
    "स्थ्य": 1356,
    "निवासी": 1357,
    "सात": 1358,
    "तस्वीर": 1359,
    "50": 1360,
    "पहुंचा": 1361,
    "साहित": 1362,
    "ारे": 1363,
    "लाने": 1364,
    "सचिव": 1365,
    "शुक्र": 1366,
    "जोर": 1367,
    "भु": 1368,
    "पश्": 1369,
    "शरीर": 1370,
    "महत्वपूर्ण": 1371,
    "सीमा": 1372,
    "वादी": 1373,
    "शं": 1374,
    "लै": 1375,
    "गया.": 1376,
    "कमी": 1377,
    "शायद": 1378,
    "दिल": 1379,
    "तने": 1380,
    "चै": 1381,
    "जता": 1382,
    "कानून": 1383,
    "जन्म": 1384,
    "ऊपर": 1385,
    "ड़ी": 1386,
    "माता": 1387,
    "सामा": 1388,
    "प्री": 1389,
    "तला": 1390,
    "कप": 1391,
    "विजय": 1392,
    "आखि": 1393,
    "तेज": 1394,
    "यहाँ": 1395,
    "ें।": 1396,
    "प्रस्ता": 1397,
    "अमेरिका": 1398,
    "राय": 1399,
    "प्रशासन": 1400,
    "बेहतर": 1401,
    "एक्": 1402,
    "बुध": 1403,
    "न्हें": 1404,
    "स्वास्थ्य": 1405,
    "ताकि": 1406,
    "दर्श": 1407,
    "या।": 1408,
    "बनी": 1409,
    "उन्": 1410,
    "तृ": 1411,
    "नाग": 1412,
    "शाह": 1413,
    "िता": 1414,
    "बच": 1415,
    "क्षित": 1416,
    "धु": 1417,
    "अदालत": 1418,
    "जाएगी।": 1419,
    "दिव": 1420,
    "हुआ।": 1421,
    "ख़": 1422,
    "बुधवार": 1423,
    "स्थानी": 1424,
    "उससे": 1425,
    "मार्ग": 1426,
    "आदमी": 1427,
    "मंगलवार": 1428,
    "अपरा": 1429,
    "वु": 1430,
    "वुड": 1431,
    "छात्र": 1432,
    "सिक": 1433,
    "लैंड": 1434,
    "कदम": 1435,
    "पसं": 1436,
    "कारों": 1437,
    "असल": 1438,
    "दृ": 1439,
    "आर्थ": 1440,
    "आर्थिक": 1441,
    "स्ट्रे": 1442,
    "प्रक्रिया": 1443,
    "ou": 1444,
    "राशि": 1445,
    "हमेशा": 1446,
    "वेदन": 1447,
    "ग्री": 1448,
    "उल्": 1449,
    "हिस्सा": 1450,
    "हुई।": 1451,
    "धियों": 1452,
    "आयोग": 1453,
    "देशों": 1454,
    "द्धा": 1455,
    "वर्ग": 1456,
    "तुम्": 1457,
    "निर्ण": 1458,
    "मिन": 1459,
    "फाय": 1460,
    "नहीं,": 1461,
    "मीटर": 1462,
    "केंद्रीय": 1463,
    "दिखाई": 1464,
    "दल": 1465,
    "तरा": 1466,
    "हाद": 1467,
    "नंबर": 1468,
    "टै": 1469,
    "शुक्रवार": 1470,
    "जमी": 1471,
    "जाति": 1472,
    "मेरा": 1473,
    "थी,": 1474,
    "पड़ा": 1475,
    "लित": 1476,
    "सांसद": 1477,
    "समु": 1478,
    "आपने": 1479,
    "द्धि": 1480,
    "सहयोग": 1481,
    "स्‍": 1482,
    "आयोजन": 1483,
    "निश्": 1484,
    "सलमान": 1485,
    "लगाने": 1486,
    "किसानों": 1487,
    "लक्ष": 1488,
    "तीस": 1489,
    "नरेंद्र": 1490,
    "स्वयं": 1491,
    "ब्लॉ": 1492,
    "आता": 1493,
    "साफ": 1494,
    "13": 1495,
    "काब": 1496,
    "नया": 1497,
    "घंटे": 1498,
    "रै": 1499,
    "उच्च": 1500,
    "मार्च": 1501,
    "जैसी": 1502,
    "देता": 1503,
    "स्प": 1504,
    "देवी": 1505,
    "निर्णय": 1506,
    "सामाजिक": 1507,
    "ड्": 1508,
    "ानि": 1509,
    "ट्री": 1510,
    "वापस": 1511,
    "उम्र": 1512,
    "भेज": 1513,
    "टल": 1514,
    "आरोपी": 1515,
    "दौ": 1516,
    "लीवुड": 1517,
    "आती": 1518,
    "ड़ा": 1519,
    "बेहद": 1520,
    "केन्द्र": 1521,
    "दक्षिण": 1522,
    "मण": 1523,
    "अगले": 1524,
    "पंचा": 1525,
    "गेंद": 1526,
    "समी": 1527,
    "ष्ण": 1528,
    "ोह": 1529,
    "हो,": 1530,
    "यानी": 1531,
    "जरि": 1532,
    "संगठन": 1533,
    "निवेश": 1534,
    "समर्थन": 1535,
    "मक": 1536,
    "दिशा": 1537,
    "जिम्": 1538,
    "जाकर": 1539,
    "शक्ति": 1540,
    "ठे": 1541,
    "नीचे": 1542,
    "घोषणा": 1543,
    "तिम": 1544,
    "कौन": 1545,
    "अंदर": 1546,
    "बदला": 1547,
    "संबंधित": 1548,
    "इतनी": 1549,
    "धानी": 1550,
    "रिश्": 1551,
    "रक्षा": 1552,
    "चर": 1553,
    "षि": 1554,
    "बाजी": 1555,
    "बोर्ड": 1556,
    "्यार": 1557,
    "टने": 1558,
    "कार्यकर्": 1559,
    "पाए": 1560,
    "दुर्": 1561,
    "ंग्": 1562,
    "पहला": 1563,
    "लेते": 1564,
    "बंधन": 1565,
    "शेयर": 1566,
    "खास": 1567,
    "कार्यालय": 1568,
    "यंत्र": 1569,
    "आपका": 1570,
    "लु": 1571,
    "जल्द": 1572,
    "गढ़": 1573,
    "युवक": 1574,
    "मुकाब": 1575,
    "ताब": 1576,
    "जरूरी": 1577,
    "हिंदी": 1578,
    "हमने": 1579,
    "गलत": 1580,
    "अर्थ": 1581,
    "रोड": 1582,
    "घु": 1583,
    "पंचायत": 1584,
    "कृत": 1585,
    "रिक": 1586,
    "अंतिम": 1587,
    "विधायक": 1588,
    "नियों": 1589,
    "खन": 1590,
    "सुधार": 1591,
    "क्षक": 1592,
    "स्थानीय": 1593,
    "वही": 1594,
    "दिख": 1595,
    "साह": 1596,
    "शान": 1597,
    "बनाए": 1598,
    "बनने": 1599,
    "पैदा": 1600,
    "हरे": 1601,
    "सामान्य": 1602,
    "गुज": 1603,
    "इंटर": 1604,
    "बज": 1605,
    "ेंगे।": 1606,
    "सारे": 1607,
    "पहचान": 1608,
    "वरि": 1609,
    "छात्रों": 1610,
    "पूछ": 1611,
    "पंजा": 1612,
    "जेल": 1613,
    "छोटे": 1614,
    "हैं?": 1615,
    "on": 1616,
    "करेंगे।": 1617,
    "बाल": 1618,
    "ोर": 1619,
    "लागू": 1620,
    "कराने": 1621,
    "भूमिका": 1622,
    "घायल": 1623,
    "चले": 1624,
    "प्रत्य": 1625,
    "गौर": 1626,
    "विकेट": 1627,
    "खरीद": 1628,
    "खूब": 1629,
    "अहम": 1630,
    "पूर": 1631,
    "कार्ड": 1632,
    "निजी": 1633,
    "वीर": 1634,
    "किये": 1635,
    "जिसका": 1636,
    "रहे।": 1637,
    "डॉ.": 1638,
    "ृह": 1639,
    "जाए।": 1640,
    "टाचार": 1641,
    "तरीके": 1642,
    "मुला": 1643,
    "to": 1644,
    "रविवार": 1645,
    "छू": 1646,
    "विवाद": 1647,
    "निकल": 1648,
    "संस्थान": 1649,
    "जाम": 1650,
    "त्रि": 1651,
    "अनुभव": 1652,
    "बारिश": 1653,
    "राजस्थान": 1654,
    "छह": 1655,
    "ब्रि": 1656,
    "वोट": 1657,
    "ेंगे": 1658,
    "तेल": 1659,
    "परं": 1660,
    "में,": 1661,
    "पारी": 1662,
    "जुलाई": 1663,
    "प्रेम": 1664,
    "समू": 1665,
    "तान": 1666,
    "बीमार": 1667,
    "प्रस्तु": 1668,
    "कॉलेज": 1669,
    "स्ते": 1670,
    "समान": 1671,
    "रिक्त": 1672,
    "पण": 1673,
    "मियों": 1674,
    "एजें": 1675,
    "फैसले": 1676,
    "धारा": 1677,
    "्री": 1678,
    "एल": 1679,
    "जून": 1680,
    "प्रै": 1681,
    "जनवरी": 1682,
    "शनल": 1683,
    "इंत": 1684,
    "हमले": 1685,
    "खर्": 1686,
    "वरिष्ठ": 1687,
    "आतंक": 1688,
    "देकर": 1689,
    "हटा": 1690,
    "हूं।": 1691,
    "जिम्मे": 1692,
    "निय": 1693,
    "तिक": 1694,
    "राजधानी": 1695,
    "ारोह": 1696,
    "कमा": 1697,
    "विश्वास": 1698,
    "लाइ": 1699,
    "जमीन": 1700,
    "बोल": 1701,
    "श्रे": 1702,
    "मुश्": 1703,
    "जुड़े": 1704,
    "सत्ता": 1705,
    "बातची": 1706,
    "बातचीत": 1707,
    "मार्ट": 1708,
    "जनों": 1709,
    "निश्चित": 1710,
    "चिकि": 1711,
    "चिकित्": 1712,
    "संयुक्त": 1713,
    "नीय": 1714,
    "बाज": 1715,
    "सदस्यों": 1716,
    "दोलन": 1717,
    "साहित्य": 1718,
    "न्यायालय": 1719,
    "समारोह": 1720,
    "संचा": 1721,
    "आवा": 1722,
    "बीआई": 1723,
    "पाया": 1724,
    "उनसे": 1725,
    "अच्छे": 1726,
    "जवान": 1727,
    "000": 1728,
    "निगम": 1729,
    "संभावना": 1730,
    "रहती": 1731,
    "शब्द": 1732,
    "सूची": 1733,
    "त्मक": 1734,
    "प्रस्ताव": 1735,
    "रचना": 1736,
    "अर": 1737,
    "कां": 1738,
    "थीं।": 1739,
    "सच": 1740,
    "तेजी": 1741,
    "इतिहा": 1742,
    "इतिहास": 1743,
    "थीं": 1744,
    "सड़क": 1745,
    "देती": 1746,
    "बताते": 1747,
    "ट्स": 1748,
    "गण": 1749,
    "किलो": 1750,
    "भ्रष्": 1751,
    "दिया.": 1752,
    "ew": 1753,
    "संस्था": 1754,
    "सीसी": 1755,
    "अक्": 1756,
    "शुरुआत": 1757,
    "सों": 1758,
    "पश्चि": 1759,
    "छु": 1760,
    "चली": 1761,
    "रहा।": 1762,
    "स्ती": 1763,
    "कारो": 1764,
    "पूजा": 1765,
    "फिल्मों": 1766,
    "ट्रा": 1767,
    "दस": 1768,
    "यूनि": 1769,
    "बिल": 1770,
    "नै": 1771,
    "ड़े": 1772,
    "वार्": 1773,
    "खत्म": 1774,
    "सोशल": 1775,
    "क्शन": 1776,
    "लाया": 1777,
    "समेत": 1778,
    "प्यार": 1779,
    "अने": 1780,
    "सुना": 1781,
    "पुरा": 1782,
    "भीतर": 1783,
    "स्वीकार": 1784,
    "पंजाब": 1785,
    "वत": 1786,
    "दोष": 1787,
    "विषय": 1788,
    "उसमें": 1789,
    "पाठ": 1790,
    "शील": 1791,
    "आन": 1792,
    "गुजरात": 1793,
    "भ्रष्टाचार": 1794,
    "ंसा": 1795,
    "हमला": 1796,
    "तारी": 1797,
    "कल्प": 1798,
    "काली": 1799,
    "सिटी": 1800,
    "st": 1801,
    "बदलाव": 1802,
    "op": 1803,
    "टीवी": 1804,
    "प्रभावित": 1805,
    "चरण": 1806,
    "करेंगे": 1807,
    "आखिर": 1808,
    "चाहता": 1809,
    "क्रा": 1810,
    "सफलता": 1811,
    "बड़ी": 1812,
    "र्गत": 1813,
    "स्ट्रेलिया": 1814,
    "आते": 1815,
    "सप्ता": 1816,
    "विद्य": 1817,
    "अंक": 1818,
    "पुत्र": 1819,
    "राजा": 1820,
    "संभव": 1821,
    "अलग-": 1822,
    "णाम": 1823,
    "साबित": 1824,
    "गुरुवार": 1825,
    "त्ति": 1826,
    "हॉ": 1827,
    "प्ले": 1828,
    "ेक": 1829,
    "कारोबार": 1830,
    "दरअसल": 1831,
    "षद": 1832,
    "अप्रै": 1833,
    "अप्रैल": 1834,
    "गृह": 1835,
    "‍य": 1836,
    "किया.": 1837,
    "तकनी": 1838,
    "नोट": 1839,
    "तत्": 1840,
    "मेल": 1841,
    "हरिया": 1842,
    "अतिरिक्त": 1843,
    "क्री": 1844,
    "दीप": 1845,
    "मिनट": 1846,
    "स्टेशन": 1847,
    "छात्रा": 1848,
    "पर्या": 1849,
    "मामलों": 1850,
    "40": 1851,
    "199": 1852,
    "at": 1853,
    "जरूर": 1854,
    "डाल": 1855,
    "वर्त": 1856,
    "टेस्ट": 1857,
    "एफ": 1858,
    "कृषि": 1859,
    "समाप्त": 1860,
    "याचि": 1861,
    "याचिका": 1862,
    "खी": 1863,
    "सिद्ध": 1864,
    "अनेक": 1865,
    "प्रचार": 1866,
    "केस": 1867,
    "इनके": 1868,
    "नव": 1869,
    "िया": 1870,
    "रेलवे": 1871,
    "काउ": 1872,
    "सहायता": 1873,
    "सप्ताह": 1874,
    "हेतु": 1875,
    "उम्मीदवार": 1876,
    "माने": 1877,
    "मिलता": 1878,
    "अलग-अलग": 1879,
    "खर्च": 1880,
    "साइट": 1881,
    "पैसे": 1882,
    "टिप्": 1883,
    "लड़": 1884,
    "बेटी": 1885,
    "नहीं।": 1886,
    "जीव": 1887,
    "ौल": 1888,
    "तभी": 1889,
    "कार्": 1890,
    "तुल": 1891,
    "शिक्षण": 1892,
    "रोग": 1893,
    "र्य": 1894,
    "विश्वविद्यालय": 1895,
    "मंडल": 1896,
    "परेशान": 1897,
    "दबाव": 1898,
    "ews": 1899,
    "t-": 1900,
    "प्रतिनि": 1901,
    "..": 1902,
    "प्रश्": 1903,
    "पूछा": 1904,
    "जाएंगे।": 1905,
    "चिं": 1906,
    "पसंद": 1907,
    "बिल्": 1908,
    "नियंत्र": 1909,
    "लान": 1910,
    "28": 1911,
    "मल": 1912,
    "ज्य": 1913,
    "डॉलर": 1914,
    "वास्त": 1915,
    "शक": 1916,
    "छोटी": 1917,
    "दावा": 1918,
    "पुरुष": 1919,
    "घोषित": 1920,
    "महारा": 1921,
    "कैं": 1922,
    "एक्स": 1923,
    "परिणाम": 1924,
    "मॉ": 1925,
    "धित": 1926,
    "डॉक्टर": 1927,
    "नाटक": 1928,
    "िका": 1929,
    "अंग्रे": 1930,
    "असर": 1931,
    "ब्रा": 1932,
    "क्ता": 1933,
    "विस्त": 1934,
    "फाइन": 1935,
    "ंभ": 1936,
    "जानते": 1937,
    "मनो": 1938,
    "एंड": 1939,
    "वित्त": 1940,
    "बर्": 1941,
    "आंदोलन": 1942,
    "सारी": 1943,
    "साय": 1944,
    "2019": 1945,
    "मूल्य": 1946,
    "बॉलीवुड": 1947,
    "होंगे": 1948,
    "सजा": 1949,
    "आवश्यक": 1950,
    "जैसा": 1951,
    "होंगे।": 1952,
    "हरियाणा": 1953,
    "ंडे": 1954,
    "कराया": 1955,
    "धिकार": 1956,
    "कू": 1957,
    "22": 1958,
    "प्रवेश": 1959,
    "कप्ता": 1960,
    "अगस्त": 1961,
    "दय": 1962,
    "क्ट": 1963,
    "कर्मचारियों": 1964,
    "er": 1965,
    "संसद": 1966,
    "इलाके": 1967,
    "वर्तमान": 1968,
    "मुद्दे": 1969,
    "out": 1970,
    "साद": 1971,
    "वेब": 1972,
    "फिल": 1973,
    "यूपी": 1974,
    "दूसरा": 1975,
    "एसपी": 1976,
    "नती": 1977,
    "गाय": 1978,
    "पड़े": 1979,
    "उठ": 1980,
    "आठ": 1981,
    "र्क": 1982,
    "मौसम": 1983,
    "सूत्रों": 1984,
    "जरी": 1985,
    "वीं": 1986,
    "खेद": 1987,
    "बजट": 1988,
    "क्षमता": 1989,
    "हिंद": 1990,
    "कही": 1991,
    "ाई": 1992,
    "आय": 1993,
    "कारा": 1994,
    "मुश्किल": 1995,
    "तू": 1996,
    "बेटे": 1997,
    "मात्र": 1998,
    "हल": 1999,
    "ेंट": 2000,
    "समूह": 2001,
    "विपक्ष": 2002,
    "किताब": 2003,
    "मुस्": 2004,
    "देश्य": 2005,
    "संवाद": 2006,
    "धो": 2007,
    "जरिए": 2008,
    "भविष": 2009,
    "भविष्य": 2010,
    "बातें": 2011,
    "स्थापित": 2012,
    "शव": 2013,
    "बाबा": 2014,
    "ट्रेन": 2015,
    "ter": 2016,
    "खुला": 2017,
    "न्होंने": 2018,
    "वृद्धि": 2019,
    "परिवर्": 2020,
    "ब्लॉग": 2021,
    "opt-": 2022,
    "opt-out": 2023,
    "क्षेत्रों": 2024,
    "कृतिक": 2025,
    "करनी": 2026,
    "पत्ति": 2027,
    "लेना": 2028,
    "राज्यों": 2029,
    "मजबूत": 2030,
    "सामना": 2031,
    "र्जा": 2032,
    "an": 2033,
    "70": 2034,
    "पर्क": 2035,
    "सिर": 2036,
    "खाने": 2037,
    "रोजग": 2038,
    "प्रस्तुत": 2039,
    "उद्देश्य": 2040,
    "फल": 2041,
    "कंपनियों": 2042,
    "स्वामी": 2043,
    "प्रभाव": 2044,
    "प्रसाद": 2045,
    "बड़ा": 2046,
    "पीएम": 2047,
    "प्रार": 2048,
    "भर्": 2049,
    "ट्टी": 2050,
    "खर": 2051,
    "टाइ": 2052,
    "परिजनों": 2053,
    "सुप्री": 2054,
    "वैज्ञान": 2055,
    "इनमें": 2056,
    "मरा": 2057,
    "60": 2058,
    "दर्द": 2059,
    "नेतृ": 2060,
    "नेतृत्व": 2061,
    "सके।": 2062,
    "अचान": 2063,
    "अचानक": 2064,
    "दिवस": 2065,
    "ूप": 2066,
    "News": 2067,
    "पियों": 2068,
    "नदी": 2069,
    "इच्": 2070,
    "संबंधी": 2071,
    "धीरे": 2072,
    "ह्": 2073,
    "कर्मचारी": 2074,
    "बल्ले": 2075,
    "फाई": 2076,
    "ूम": 2077,
    "गी.": 2078,
    "ध्": 2079,
    "वाहन": 2080,
    "500": 2081,
    "कविता": 2082,
    "फोटो": 2083,
    "रज": 2084,
    "शोक": 2085,
    "बैठे": 2086,
    "दियों": 2087,
    "उद्योग": 2088,
    "ताप": 2089,
    "चिंता": 2090,
    "पीट": 2091,
    "एयर": 2092,
    "मिलती": 2093,
    "पृ": 2094,
    "आधारित": 2095,
    "फरवरी": 2096,
    "मतलब": 2097,
    "नेशनल": 2098,
    "ट्रोल": 2099,
    "ंदगी": 2100,
    "फिलहाल": 2101,
    "स्मार्ट": 2102,
    "इलाज": 2103,
    "आवश्यकता": 2104,
    "साथ-": 2105,
    "साथ-साथ": 2106,
    "दाता": 2107,
    "उल्लेख": 2108,
    "लगाए": 2109,
    "गैस": 2110,
    "फु": 2111,
    "दुकान": 2112,
    "पड़ता": 2113,
    "योजनाओं": 2114,
    "कृष्ण": 2115,
    "लखन": 2116,
    "भवन": 2117,
    "हिन्दी": 2118,
    "भर्ती": 2119,
    "र्ति": 2120,
    "फ्र": 2121,
    "प्रश्न": 2122,
    "चाहे": 2123,
    "बनाई": 2124,
    "स्त्र": 2125,
    "िल्": 2126,
    "श्रद्धा": 2127,
    "मोहन": 2128,
    "दिसं": 2129,
    "दिसंबर": 2130,
    "नाराज": 2131,
    "सियों": 2132,
    "संपर्क": 2133,
    "खराब": 2134,
    "कथ": 2135,
    "शीर्ष": 2136,
    "धिक": 2137,
    "लिम": 2138,
    "म्स": 2139,
    "स्टर": 2140,
    "मई": 2141,
    "देखकर": 2142,
    "कहने": 2143,
    "आवेदन": 2144,
    "गाँ": 2145,
    "स्कू": 2146,
    "किया,": 2147,
    "माहौल": 2148,
    "रल": 2149,
    "पाने": 2150,
    "वाही": 2151,
    "गया,": 2152,
    "फॉ": 2153,
    "लियों": 2154,
    "हल्": 2155,
    "राहत": 2156,
    "अमेरिकी": 2157,
    "लौट": 2158,
    "कद": 2159,
    "ऑस्ट्रेलिया": 2160,
    "कप्तान": 2161,
    "स्टार": 2162,
    "ऑन": 2163,
    "लखनऊ": 2164,
    "मतदान": 2165,
    "गंगा": 2166,
    "टॉ": 2167,
    "सलाह": 2168,
    "गा.": 2169,
    "गुण": 2170,
    "अंतरराष्ट्रीय": 2171,
    "मिश्र": 2172,
    "पहुंची": 2173,
    "वर्ण": 2174,
    "नाक": 2175,
    "en": 2176,
    "शानदार": 2177,
    "आइ": 2178,
    "न्याय": 2179,
    "ड़ों": 2180,
    "शुभ": 2181,
    "अपराध": 2182,
    "मुस्लिम": 2183,
    "उनको": 2184,
    "खिल": 2185,
    "हरण": 2186,
    "जुड़ी": 2187,
    "शास": 2188,
    "सूस": 2189,
    "वें": 2190,
    "समझा": 2191,
    "स्पष्ट": 2192,
    "अध्य": 2193,
    "बारा": 2194,
    "थम": 2195,
    "ऊर्जा": 2196,
    "पुरस्": 2197,
    "जम्": 2198,
    "जम्मू": 2199,
    "फाइनल": 2200,
    "मौका": 2201,
    "गतिवि": 2202,
    "क्कर": 2203,
    "चाहिए.": 2204,
    "रोजगार": 2205,
    "फायदा": 2206,
    "तलाश": 2207,
    "तीनों": 2208,
    "निर्धार": 2209,
    "2016": 2210,
    "आजा": 2211,
    "हिंसा": 2212,
    "खिलाड़ी": 2213,
    "ंदा": 2214,
    "उत्पादन": 2215,
    "सुप्रीम": 2216,
    "खुश": 2217,
    "स्तानी": 2218,
    "चंद्र": 2219,
    "24": 2220,
    "लकर": 2221,
    "स्त्री": 2222,
    "ण्ड": 2223,
    "दोस्त": 2224,
    "व्यापार": 2225,
    "तुर": 2226,
    "इंतजार": 2227,
    "व्": 2228,
    "ंकी": 2229,
    "चैन": 2230,
    "दिग्": 2231,
    "ँच": 2232,
    "चू": 2233,
    "बंगा": 2234,
    "विज्ञान": 2235,
    "टिकट": 2236,
    "इन्हें": 2237,
    "अल": 2238,
    "स्थल": 2239,
    "त:": 2240,
    "खार": 2241,
    "जिसकी": 2242,
    "प्रती": 2243,
    "आरोपियों": 2244,
    "ंगी": 2245,
    "पेट": 2246,
    "मुकाबले": 2247,
    "करार": 2248,
    "अथ": 2249,
    "वहार": 2250,
    "प्रतियोग": 2251,
    "उचित": 2252,
    "परिवर्तन": 2253,
    "2011": 2254,
    "मंच": 2255,
    "इंड": 2256,
    "ली।": 2257,
    "पथ": 2258,
    "घरों": 2259,
    "वेबसाइट": 2260,
    "har": 2261,
    "बड़े": 2262,
    "वती": 2263,
    "कुर": 2264,
    "प्राइ": 2265,
    "सुरक्षित": 2266,
    "महसूस": 2267,
    "सुनवाई": 2268,
    "रखी": 2269,
    "कात": 2270,
    "धिकारी": 2271,
    "ंदन": 2272,
    "29": 2273,
    "समुदाय": 2274,
    "स्पे": 2275,
    "मैने": 2276,
    "लिंग": 2277,
    "पन्न": 2278,
    "ब्रे": 2279,
    "ताजा": 2280,
    "कब": 2281,
    "विदेशी": 2282,
    "चार्": 2283,
    "नौकरी": 2284,
    "कपूर": 2285,
    "कले": 2286,
    "संगीत": 2287,
    "पौ": 2288,
    "एच": 2289,
    "फ्ट": 2290,
    "मैदान": 2291,
    "सुनी": 2292,
    "कार्यकर्ताओं": 2293,
    "नुक": 2294,
    "रास्ते": 2295,
    "इतने": 2296,
    "हालत": 2297,
    "शै": 2298,
    "श्रम": 2299,
    "हुए।": 2300,
    "लक्ष्य": 2301,
    "तरे": 2302,
    "मानव": 2303,
    "भरो": 2304,
    "समझौ": 2305,
    "ऑफि": 2306,
    "रानी": 2307,
    "ड्रा": 2308,
    "प्रसार": 2309,
    "वेज": 2310,
    "हद": 2311,
    "किलोमीटर": 2312,
    "दृष्टि": 2313,
    "इन्": 2314,
    "अग्र": 2315,
    "कं": 2316,
    "सफर": 2317,
    "पत्रकार": 2318,
    "पश्चिम": 2319,
    "भले": 2320,
    "बनाकर": 2321,
    "पार्ट": 2322,
    "तः": 2323,
    "बरा": 2324,
    "इंग्": 2325,
    "तमाम": 2326,
    "संदेश": 2327,
    "मज": 2328,
    "श्वर": 2329,
    "वर्षीय": 2330,
    "पर्य": 2331,
    "कठ": 2332,
    "सीबीआई": 2333,
    "त्कार": 2334,
    "पुन": 2335,
    "प्रेर": 2336,
    "पुरानी": 2337,
    "लिका": 2338,
    "दवा": 2339,
    "रखते": 2340,
    "ील": 2341,
    "टेड": 2342,
    "की.": 2343,
    "संघर्ष": 2344,
    "रोज": 2345,
    "साझा": 2346,
    "नुकसान": 2347,
    "युद्ध": 2348,
    "अभ": 2349,
    "गौ": 2350,
    "इच्छा": 2351,
    "जागर": 2352,
    "देशक": 2353,
    "सिंह,": 2354,
    "संभा": 2355,
    "हिस्से": 2356,
    "तलब": 2357,
    "23": 2358,
    "सफाई": 2359,
    "अथवा": 2360,
    "100": 2361,
    "शराब": 2362,
    "पालन": 2363,
    "खाली": 2364,
    "्स": 2365,
    "कल्या": 2366,
    "कल्याण": 2367,
    "अवै": 2368,
    "अवैध": 2369,
    "आत्": 2370,
    "ेंस": 2371,
    "गरीब": 2372,
    "मानना": 2373,
    "मनुष": 2374,
    "मनुष्य": 2375,
    "केश": 2376,
    "शांति": 2377,
    "तैना": 2378,
    "यारी": 2379,
    "तरण": 2380,
    "मंजू": 2381,
    "पाकिस्तानी": 2382,
    "ट्रै": 2383,
    "डाय": 2384,
    "जिनके": 2385,
    "वास्तव": 2386,
    "di": 2387,
    "परे": 2388,
    "198": 2389,
    "टेल": 2390,
    "प्रशिक्षण": 2391,
    "सेक्स": 2392,
    "स्टा": 2393,
    "ूड": 2394,
    "करि": 2395,
    "न्तु": 2396,
    "भेजा": 2397,
    "दूरी": 2398,
    "बाकी": 2399,
    "Shar": 2400,
    "मेडि": 2401,
    "होगा.": 2402,
    "ंडा": 2403,
    "विकल्प": 2404,
    "अध्ययन": 2405,
    "प्रथम": 2406,
    "लड़ा": 2407,
    "थाने": 2408,
    "योगदान": 2409,
    "आकर": 2410,
    "हमारा": 2411,
    "प्रभारी": 2412,
    "तीसरे": 2413,
    "26": 2414,
    "परिषद": 2415,
    "अरब": 2416,
    "चाई": 2417,
    "रिली": 2418,
    "संजय": 2419,
    "ग्रहण": 2420,
    "ग्राह": 2421,
    "निर्वा": 2422,
    "सोनिया": 2423,
    "‍या": 2424,
    "दाम": 2425,
    "डीएम": 2426,
    "रैली": 2427,
    "बीमारी": 2428,
    "धरी": 2429,
    "कने": 2430,
    "चलने": 2431,
    "योगी": 2432,
    "माश": 2433,
    "लाना": 2434,
    "आकर्": 2435,
    "खोज": 2436,
    "सीटों": 2437,
    "कमे": 2438,
    "उतर": 2439,
    "तत्व": 2440,
    "पहुंचने": 2441,
    "आयु": 2442,
    "एजेंसी": 2443,
    "प्रत्येक": 2444,
    "चयन": 2445,
    "इनकी": 2446,
    "शोध": 2447,
    "लास": 2448,
    "प्रमाण": 2449,
    "तीश": 2450,
    "तैयारी": 2451,
    "सार्": 2452,
    "जिनमें": 2453,
    "म्प": 2454,
    "रेखा": 2455,
    "तल": 2456,
    "चोरी": 2457,
    "27": 2458,
    "वारी": 2459,
    "म्बर": 2460,
    "जिम्मेदारी": 2461,
    "बराम": 2462,
    "बचाने": 2463,
    "पाई": 2464,
    "कियों": 2465,
    "करोड़": 2466,
    "चुन": 2467,
    "विकसित": 2468,
    "हिर": 2469,
    "क्षर": 2470,
    "रान": 2471,
    "नवं": 2472,
    "नवंबर": 2473,
    "पहर": 2474,
    "Share": 2475,
    "कितना": 2476,
    "कर्मियों": 2477,
    "मारपीट": 2478,
    "मति": 2479,
    "मुक्त": 2480,
    "बेच": 2481,
    "अस": 2482,
    "प्रव": 2483,
    "पदा": 2484,
    "नय": 2485,
    "षित": 2486,
    "गौरतलब": 2487,
    "तुलना": 2488,
    "केजरी": 2489,
    "केजरीवाल": 2490,
    "2012": 2491,
    "सामान": 2492,
    "व्यवहार": 2493,
    "तुरंत": 2494,
    "प्रणा": 2495,
    "छि": 2496,
    "उदा": 2497,
    "ऑनलाइन": 2498,
    "चौधरी": 2499,
    "कीय": 2500,
    "बदमाश": 2501,
    "शाला": 2502,
    "तुम्ह": 2503,
    "वेद": 2504,
    "सर्वे": 2505,
    "समाचार": 2506,
    "पिक": 2507,
    "कहां": 2508,
    "अंदा": 2509,
    "विमान": 2510,
    "लड़की": 2511,
    "अंग्रेजी": 2512,
    "जनक": 2513,
    "आये": 2514,
    "गोली": 2515,
    "अन्ना": 2516,
    "एक-": 2517,
    "मुलाकात": 2518,
    "ल्क": 2519,
    "ेक्षा": 2520,
    "इलाकों": 2521,
    "उपस्थित": 2522,
    "राह": 2523,
    "दिये": 2524,
    "सार्वज": 2525,
    "सार्वजनिक": 2526,
    "भूल": 2527,
    "िल्म": 2528,
    "ंची": 2529,
    "अनुमान": 2530,
    "ड़ने": 2531,
    "सब्": 2532,
    "प्ति": 2533,
    "क्का": 2534,
    "शौ": 2535,
    "बरामद": 2536,
    "लोकप्रि": 2537,
    "प्राथ": 2538,
    "स्वतंत्र": 2539,
    "पड़े": 2540,
    "बढ़ा": 2541,
    "युवाओं": 2542,
    "सव": 2543,
    "ंज": 2544,
    "ड़ियों": 2545,
    "चय": 2546,
    "कथित": 2547,
    "कितनी": 2548,
    "दोपहर": 2549,
    "वहाँ": 2550,
    "बंगाल": 2551,
    "क्रे": 2552,
    "चाहती": 2553,
    "मिता": 2554,
    "बीते": 2555,
    "बाइक": 2556,
    "नियमित": 2557,
    "पुराने": 2558,
    "कड़ी": 2559,
    "विस्तार": 2560,
    "ताल": 2561,
    "मिलकर": 2562,
    "स्ना": 2563,
    "कराई": 2564,
    "PM": 2565,
    "अफ्री": 2566,
    "21": 2567,
    "मस्": 2568,
    "35": 2569,
    "वर्षों": 2570,
    "प्रतियोगिता": 2571,
    "सैन": 2572,
    "गार": 2573,
    "निर": 2574,
    "ce": 2575,
    "जिंदगी": 2576,
    "सुंदर": 2577,
    "हथि": 2578,
    "हथियार": 2579,
    "वस्तु": 2580,
    "जिन्होंने": 2581,
    "विवाह": 2582,
    "चुनावों": 2583,
    "खाना": 2584,
    "चुनौ": 2585,
    "चढ़": 2586,
    "तनाव": 2587,
    "रही।": 2588,
    "वार्ड": 2589,
    "जैन": 2590,
    "ब्र": 2591,
    "पीड़": 2592,
    "खड़े": 2593,
    "दरवा": 2594,
    "पुरस्कार": 2595,
    "धार्": 2596,
    "धार्मिक": 2597,
    "परंपरा": 2598,
    "भोजन": 2599,
    "आंख": 2600,
    "स्थापना": 2601,
    "नागरिक": 2602,
    "2010": 2603,
    "सितंबर": 2604,
    "अंतर्गत": 2605,
    "पैसा": 2606,
    "हवा": 2607,
    "हिमा": 2608,
    "स्पी": 2609,
    "अल्": 2610,
    "गैर": 2611,
    "बोले": 2612,
    "खड़ा": 2613,
    "व्यक्त": 2614,
    "टका": 2615,
    "प्रतिनिधि": 2616,
    "संकट": 2617,
    "छत्": 2618,
    "छत्तीस": 2619,
    "इल": 2620,
    "सुपर": 2621,
    "स्म": 2622,
    "पणी": 2623,
    "यात": 2624,
    "मिशन": 2625,
    "लगती": 2626,
    "गाँव": 2627,
    "भुग": 2628,
    "बिल्कुल": 2629,
    "सम्मे": 2630,
    "सम्मेलन": 2631,
    "बौ": 2632,
    "कालीन": 2633,
    "अध्यक्षता": 2634,
    "समस्याओं": 2635,
    "तह": 2636,
    "बातों": 2637,
    "जल्दी": 2638,
    "चारों": 2639,
    "शांत": 2640,
    "गुप्ता": 2641,
    "खुशी": 2642,
    "जाग": 2643,
    "जर्": 2644,
    "आनंद": 2645,
    "नक": 2646,
    "मकर": 2647,
    "कामना": 2648,
    "पट": 2649,
    "पढ़": 2650,
    "ओवर": 2651,
    "करेगा।": 2652,
    "प्रकाशित": 2653,
    "कानू": 2654,
    "अमरी": 2655,
    "जॉ": 2656,
    "दूध": 2657,
    "खबरें": 2658,
    "अपील": 2659,
    "मित्र": 2660,
    "इंसान": 2661,
    "आंक": 2662,
    "संग": 2663,
    "स्ट्री": 2664,
    "जहाँ": 2665,
    "कर्ता": 2666,
    "जिन्हें": 2667,
    "सालों": 2668,
    "वेट": 2669,
    "शिया": 2670,
    "ताला": 2671,
    "रहना": 2672,
    "अनुमति": 2673,
    "यकों": 2674,
    "चलता": 2675,
    "उपचार": 2676,
    "लयों": 2677,
    "मृत्य": 2678,
    "मृत्यु": 2679,
    "मालिक": 2680,
    "मृत": 2681,
    "तैनात": 2682,
    "बिग": 2683,
    "विरा": 2684,
    "गई.": 2685,
    "बधा": 2686,
    "2014": 2687,
    "पटना": 2688,
    "ढा": 2689,
    "मैन": 2690,
    "्त": 2691,
    "दलों": 2692,
    "रखे": 2693,
    "प्रणाली": 2694,
    "अवधि": 2695,
    "बन्": 2696,
    "जुर्": 2697,
    "शिकार": 2698,
    "वायर": 2699,
    "प्रेस": 2700,
    "रद": 2701,
    "महान": 2702,
    "माँ": 2703,
    "ज्ञापन": 2704,
    "हादसे": 2705,
    "निर्धारित": 2706,
    "दिमा": 2707,
    "बजाय": 2708,
    "उठाया": 2709,
    "साथी": 2710,
    "बढ़ाने": 2711,
    "पॉ": 2712,
    "झार": 2713,
    "सिंग": 2714,
    "सूरत": 2715,
    "पीठ": 2716,
    "रहीं": 2717,
    "चालक": 2718,
    "उत्तरा": 2719,
    "हिसाब": 2720,
    "बारी": 2721,
    "सारा": 2722,
    "भागी": 2723,
    "वित्": 2724,
    "अफ्रीका": 2725,
    "अरवि": 2726,
    "कब्": 2727,
    "धम": 2728,
    "संस्कृति": 2729,
    "दस्ता": 2730,
    "दें।": 2731,
    "क्रो": 2732,
    "एड": 2733,
    "टों": 2734,
    "घरे": 2735,
    "गिराव": 2736,
    "गिरावट": 2737,
    "डो": 2738,
    "लॉन्": 2739,
    "अमित": 2740,
    "रिश्ते": 2741,
    "कमेटी": 2742,
    "सीधे": 2743,
    "आपत्ति": 2744,
    "ज्ञात": 2745,
    "साध": 2746,
    "ताकत": 2747,
    "ियां": 2748,
    "2018": 2749,
    "मेडिकल": 2750,
    "लिमि": 2751,
    "परिसर": 2752,
    "सर्व": 2753,
    "उनमें": 2754,
    "सबुक": 2755,
    "मात्रा": 2756,
    "सत्र": 2757,
    "साधन": 2758,
    "परेशानी": 2759,
    "मुताबिक,": 2760,
    "अनुसार,": 2761,
    "निदेशक": 2762,
    "चुनावी": 2763,
    "मौजू": 2764,
    "मौजूदा": 2765,
    "यण": 2766,
    "वैज्ञानिक": 2767,
    "जिलों": 2768,
    "बहस": 2769,
    "खाते": 2770,
    "सुख": 2771,
    "यूनिवर्": 2772,
    "मुकद": 2773,
    "उपाध्यक्ष": 2774,
    "घूम": 2775,
    "मशी": 2776,
    "पहा": 2777,
    "इट": 2778,
    "वर्ल्ड": 2779,
    "केत": 2780,
    "टिप्पणी": 2781,
    "कहता": 2782,
    "गाने": 2783,
    "ूं": 2784,
    "स्मार्टफोन": 2785,
    "होनी": 2786,
    "अशोक": 2787,
    "शाल": 2788,
    "निकाल": 2789,
    "बहन": 2790,
    "शब्दों": 2791,
    "कक्षा": 2792,
    "हम्": 2793,
    "झू": 2794,
    "स्य": 2795,
    "बैंकों": 2796,
    "पर्यावरण": 2797,
    "दोबारा": 2798,
    "ार्थियों": 2799,
    "कोर": 2800,
    "यूरो": 2801,
    "द्रा": 2802,
    "नियंत्रण": 2803,
    "ल्स": 2804,
    "निरी": 2805,
    "निशा": 2806,
    "वित्तीय": 2807,
    "लंबे": 2808,
    "आश्": 2809,
    "75": 2810,
    "मानते": 2811,
    "स्वागत": 2812,
    "की,": 2813,
    "मिलना": 2814,
    "अक्सर": 2815,
    "सहम": 2816,
    "सक्रि": 2817,
    "शही": 2818,
    "टैक्स": 2819,
    "जानी": 2820,
    "लिमिटेड": 2821,
    "प्रत्या": 2822,
    "फें": 2823,
    "प्रगति": 2824,
    "फेसबुक": 2825,
    "आजादी": 2826,
    "घटनाओं": 2827,
    "निरा": 2828,
    "इंग्लैंड": 2829,
    "कामया": 2830,
    "विधायकों": 2831,
    "पूछता": 2832,
    "परियोजना": 2833,
    "पत्थ": 2834,
    "आलो": 2835,
    "पत्रिका": 2836,
    "शहरों": 2837,
    "पने": 2838,
    "नक्स": 2839,
    "दी.": 2840,
    "ब्ला": 2841,
    "वहीं,": 2842,
    "रास्ता": 2843,
    "दास": 2844,
    "कठि": 2845,
    "es": 2846,
    "करेगी।": 2847,
    "अजय": 2848,
    "सन्": 2849,
    "गठबंधन": 2850,
    "संतु": 2851,
    "गुजर": 2852,
    "सीरी": 2853,
    "सका": 2854,
    "बुरा": 2855,
    "हफ्": 2856,
    "योग्य": 2857,
    "न्यूज": 2858,
    "संकेत": 2859,
    "गोल": 2860,
    "डु": 2861,
    "बं": 2862,
    "अनुर": 2863,
    "दीन": 2864,
    "कर्नाटक": 2865,
    "मश": 2866,
    "अके": 2867,
    "ट्वि": 2868,
    "हिंदु": 2869,
    "आधु": 2870,
    "डियम": 2871,
    "लड": 2872,
    "खारि": 2873,
    "खारिज": 2874,
    "सरों": 2875,
    "स्टि": 2876,
    "ंजी": 2877,
    ",000": 2878,
    "वितरण": 2879,
    "भरोसा": 2880,
    "सील": 2881,
    "वकी": 2882,
    "इंडि": 2883,
    "पशु": 2884,
    "स्तक": 2885,
    "मोर्": 2886,
    "ऑफिस": 2887,
    "उधर": 2888,
    "नियर": 2889,
    "वाज": 2890,
    "बधाई": 2891,
    "झु": 2892,
    "2013": 2893,
    "विरोधी": 2894,
    "रिलीज": 2895,
    "2009": 2896,
    "देखें": 2897,
    "अधी": 2898,
    "एँ": 2899,
    "मेर": 2900,
    "लोगो": 2901,
    "मर्": 2902,
    "घरेलू": 2903,
    "तुम्हार": 2904,
    "संबो": 2905,
    "संचालन": 2906,
    "आसान": 2907,
    "सकता।": 2908,
    "क्रमण": 2909,
    "रखना": 2910,
    "कोल": 2911,
    "मुसलमान": 2912,
    "लगाते": 2913,
    "टरी": 2914,
    "जंग": 2915,
    "मरीजों": 2916,
    "विद्या": 2917,
    "न्याया": 2918,
    "पूछताछ": 2919,
    "वहन": 2920,
    "छूट": 2921,
    "जताई": 2922,
    "इस्ला": 2923,
    "कमरे": 2924,
    "राजीव": 2925,
    "उपभो": 2926,
    "मारे": 2927,
    "सीएम": 2928,
    "सिलसि": 2929,
    "रूपए": 2930,
    "साहब": 2931,
    "मनमोहन": 2932,
    "लक्ष्": 2933,
    "जिसने": 2934,
    "आसपास": 2935,
    "48": 2936,
    "वनी": 2937,
    "यूनिवर्सिटी": 2938,
    "भारती": 2939,
    "रस": 2940,
    "व्र": 2941,
    "लगने": 2942,
    "सड़": 2943,
    "चेहरे": 2944,
    "तोड़": 2945,
    "ate": 2946,
    "वेस्ट": 2947,
    "संत": 2948,
    "नवी": 2949,
    "नतम": 2950,
    "गन": 2951,
    "शू": 2952,
    "चार्ज": 2953,
    "सहायक": 2954,
    "ट्वी": 2955,
    "दिमाग": 2956,
    "नियु": 2957,
    "इधर": 2958,
    "में।": 2959,
    "प्राइवेट": 2960,
    "महाराष्ट्र": 2961,
    "माया": 2962,
    "कोह": 2963,
    "रीन": 2964,
    "हम्मद": 2965,
    "आवाज": 2966,
    "देखी": 2967,
    "सामग्री": 2968,
    "रेट": 2969,
    "पैर": 2970,
    "टिस": 2971,
    "बोली": 2972,
    "रूम": 2973,
    "शुल्क": 2974,
    "टकर": 2975,
    "प्रसिद्ध": 2976,
    "बें": 2977,
    "आजकल": 2978,
    "छोड़": 2979,
    "चीनी": 2980,
    "उक्त": 2981,
    "रिंग": 2982,
    "अरविंद": 2983,
    "हाईकोर्ट": 2984,
    "तें": 2985,
    "दशक": 2986,
    "लंका": 2987,
    "मनी": 2988,
    "हार्": 2989,
    "संर": 2990,
    "बत": 2991,
    "हाथों": 2992,
    "लोड": 2993,
    "मच": 2994,
    "th": 2995,
    "indi": 2996,
    "गए.": 2997,
    "चक": 2998,
    "आतंकी": 2999,
    "हजारों": 3000,
    "तियों": 3001,
    "किशो": 3002,
    "शंका": 3003,
    "पाते": 3004,
    "मती": 3005,
    "चुनौती": 3006,
    "लेश": 3007,
    "गांवों": 3008,
    "वधान": 3009,
    "बेहत": 3010,
    "भुगतान": 3011,
    "आधुनिक": 3012,
    "र्न": 3013,
    "सच्": 3014,
    "धीश": 3015,
    "त्मा": 3016,
    "प्रवक्ता": 3017,
    "कार्यों": 3018,
    "परंतु": 3019,
    "कहती": 3020,
    "मजदूर": 3021,
    "झे": 3022,
    "भीड़": 3023,
    "आतंकवाद": 3024,
    "पड़ी": 3025,
    "स्कूलों": 3026,
    "उल्लेखनीय": 3027,
    "गई,": 3028,
    "लेखक": 3029,
    "बांध": 3030,
    "घोटा": 3031,
    "धारण": 3032,
    "सचिन": 3033,
    "ंतर": 3034,
    "केदार": 3035,
    "सीरीज": 3036,
    "शिवि": 3037,
    "अधिनियम": 3038,
    "मशीन": 3039,
    "सिस्ट": 3040,
    "कैंसर": 3041,
    "आसानी": 3042,
    "दीवार": 3043,
    "बहा": 3044,
    "्याज": 3045,
    "उतार": 3046,
    "ंकन": 3047,
    "क्षकों": 3048,
    "होगा,": 3049,
    "ेंज": 3050,
    "हवाई": 3051,
    "डिंग": 3052,
    "संपत्ति": 3053,
    "गर्मी": 3054,
    "पत": 3055,
    "गाड़ी": 3056,
    "आगा": 3057,
    "से,": 3058,
    "सोने": 3059,
    "खतरा": 3060,
    "देखि": 3061,
    "फान": 3062,
    "सवार": 3063,
    "बंदी": 3064,
    "मुखर्जी": 3065,
    "ट्रक": 3066,
    "जमकर": 3067,
    "हालांकि,": 3068,
    "दोषी": 3069,
    "संविधान": 3070,
    "1.": 3071,
    "हाउस": 3072,
    "बचाव": 3073,
    "om": 3074,
    "80": 3075,
    "समीक्षा": 3076,
    "2015": 3077,
    "अर्था": 3078,
    "नैतिक": 3079,
    "चौक": 3080,
    "महिलाएं": 3081,
    "आना": 3082,
    "Hindi": 3083,
    "उदाहरण": 3084,
    "ग्रामीणों": 3085,
    "सीमित": 3086,
    "ेंशन": 3087,
    "स्टेट": 3088,
    "आशंका": 3089,
    "टेन": 3090,
    "देखना": 3091,
    "सक्रिय": 3092,
    "जरा": 3093,
    "नियुक्ति": 3094,
    "पड़ा": 3095,
    "ठाकुर": 3096,
    "ंडी": 3097,
    "पवि": 3098,
    "पवित्र": 3099,
    "वादा": 3100,
    "क्षेत्रीय": 3101,
    "बेहतरीन": 3102,
    "रद्": 3103,
    "रद्द": 3104,
    "होगी.": 3105,
    "्यास": 3106,
    "हालात": 3107,
    "दरा": 3108,
    "महंगा": 3109,
    "मिलाकर": 3110,
    "पुल": 3111,
    "ब्यू": 3112,
    "अध्या": 3113,
    "सत्य": 3114,
    "सदन": 3115,
    "क्लब": 3116,
    "लड़ाई": 3117,
    "रॉ": 3118,
    "जाहिर": 3119,
    "झारखंड": 3120,
    "इस्ती": 3121,
    "आँ": 3122,
    "दिया,": 3123,
    "घे": 3124,
    "चार्य": 3125,
    "विशाल": 3126,
    "जागरू": 3127,
    "पंच": 3128,
    "फसल": 3129,
    "र्डर": 3130,
    "बीर": 3131,
    "न्द": 3132,
    "व्यापक": 3133,
    "दृश्य": 3134,
    "पाक": 3135,
    "ंधे": 3136,
    "वाता": 3137,
    "वातावरण": 3138,
    "लूम": 3139,
    "पुष्टि": 3140,
    "विवे": 3141,
    "आराम": 3142,
    "अनिवार": 3143,
    "अनिवार्य": 3144,
    "os": 3145,
    "oo": 3146,
    "करियर": 3147,
    "पान": 3148,
    "होटल": 3149,
    "आत्म": 3150,
    "चेन्न": 3151,
    "कोच": 3152,
    "बचने": 3153,
    "बद्ध": 3154,
    "सीख": 3155,
    "जवानों": 3156,
    "ट्ट": 3157,
    "2017": 3158,
    "ेंड": 3159,
    "च्छ": 3160,
    "नामक": 3161,
    "अमिता": 3162,
    "आईपी": 3163,
    "दुख": 3164,
    "स्टेडियम": 3165,
    "अली": 3166,
    "अपेक्षा": 3167,
    "अत्य": 3168,
    "डिग्री": 3169,
    "शिक्षक": 3170,
    "मिला।": 3171,
    "पढ़ाई": 3172,
    "प्रबंध": 3173,
    "श्रेष्ठ": 3174,
    "जितना": 3175,
    "किर": 3176,
    "उपाय": 3177,
    "मुंह": 3178,
    "खिलाड़ियों": 3179,
    "निकालने": 3180,
    "चलाने": 3181,
    "पार्क": 3182,
    "मंजूरी": 3183,
    "लूट": 3184,
    "वकील": 3185,
    "इंडियन": 3186,
    "घुस": 3187,
    "आईटी": 3188,
    "बांग्": 3189,
    "बांग्ला": 3190,
    "नारायण": 3191,
    "कार्यकर्ता": 3192,
    "आदित्य": 3193,
    "राज्यपाल": 3194,
    "रेक्टर": 3195,
    "थ्": 3196,
    "कठिन": 3197,
    "जानने": 3198,
    "al": 3199,
    "ज्यो": 3200,
    "ज्योति": 3201,
    "मैचों": 3202,
    "ंसी": 3203,
    "बाई": 3204,
    "मेश": 3205,
    "रिकॉ": 3206,
    "वासियों": 3207,
    "ऋण": 3208,
    "त्रियों": 3209,
    "मुना": 3210,
    "तकनीक": 3211,
    "wi": 3212,
    "उत्पाद": 3213,
    "सर्च": 3214,
    "इका": 3215,
    "ट्वीट": 3216,
    "निभा": 3217,
    "लाश": 3218,
    "मला": 3219,
    "ार्थी": 3220,
    "क्रांति": 3221,
    "निष्": 3222,
    "नज": 3223,
    "मायावती": 3224,
    "बनाना": 3225,
    "आशा": 3226,
    "चीज": 3227,
    "खुल": 3228,
    "गहरा": 3229,
    "क़": 3230,
    "शेर": 3231,
    "स्थानों": 3232,
    "आउ": 3233,
    "आउट": 3234,
    "चित्र": 3235,
    "हड़": 3236,
    "न्यायाधीश": 3237,
    "समक्ष": 3238,
    "गुर": 3239,
    "अना": 3240,
    "हो.": 3241,
    "लगाई": 3242,
    "कितने": 3243,
    "बिक्री": 3244,
    "भाषण": 3245,
    "लाखों": 3246,
    "जिद": 3247,
    "अभिने": 3248,
    "तकनीकी": 3249,
    "रात्रि": 3250,
    "प्रबंधन": 3251,
    "यहीं": 3252,
    "लंदन": 3253,
    "लंब": 3254,
    "पाता": 3255,
    "ट्विटर": 3256,
    "दिला": 3257,
    "ममता": 3258,
    "पहल": 3259,
    "ड्राइ": 3260,
    "न्यास": 3261,
    "गतिविधियों": 3262,
    "लोकप्रिय": 3263,
    "मकान": 3264,
    "गयी।": 3265,
    "वनडे": 3266,
    "श्रीलंका": 3267,
    "निर्वाचन": 3268,
    "परमाण": 3269,
    "परमाणु": 3270,
    "le": 3271,
    "पेट्रोल": 3272,
    "सेवाओं": 3273,
    "इक": 3274,
    "वापसी": 3275,
    "is": 3276,
    "तस्वीरें": 3277,
    "दुष्": 3278,
    "सांस्": 3279,
    "सांस्कृतिक": 3280,
    "चेन्नई": 3281,
    "मॉडल": 3282,
    "लॉन्च": 3283,
    "जाएगा.": 3284,
    "दिखाने": 3285,
    "इयों": 3286,
    "संबोधित": 3287,
    "वाणी": 3288,
    "प्रशास": 3289,
    "करेगा": 3290,
    "विधे": 3291,
    "शिक्षकों": 3292,
    "मनाया": 3293,
    "देरी": 3294,
    "प्ला": 3295,
    "टॉप": 3296,
    "अक्टू": 3297,
    "अक्टूबर": 3298,
    "सेवन": 3299,
    "नियमों": 3300,
    "मोहम्मद": 3301,
    "काला": 3302,
    "युवकों": 3303,
    "हैदरा": 3304,
    "हैदराबाद": 3305,
    "बराबर": 3306,
    "हुआ,": 3307,
    "इनका": 3308,
    "लगे।": 3309,
    "सूचित": 3310,
    "बदलने": 3311,
    "वेतन": 3312,
    "अन्त": 3313,
    "सिया": 3314,
    "कारात्मक": 3315,
    "चीजें": 3316,
    "टिया": 3317,
    "सुनिश्चित": 3318,
    "जुट": 3319,
    "ज्यादातर": 3320,
    "देखिए": 3321,
    "समझौता": 3322,
    "फर्जी": 3323,
    "पटेल": 3324,
    "देह": 3325,
    "खून": 3326,
    "तथ": 3327,
    "तथ्य": 3328,
    "लिखी": 3329,
    "रहेगा।": 3330,
    "‘‘": 3331,
    "विशेषज्ञ": 3332,
    "दावे": 3333,
    "31": 3334,
    "रूपये": 3335,
    "नेह": 3336,
    "लियन": 3337,
    "लिखित": 3338,
    "शिविर": 3339,
    "छवि": 3340,
    "लें।": 3341,
    "वायु": 3342,
    "गठन": 3343,
    "समीप": 3344,
    "हफ्ते": 3345,
    "है!": 3346,
    "कमजोर": 3347,
    "सेट": 3348,
    "ग्रु": 3349,
    "ग्रुप": 3350,
    "लुओं": 3351,
    "सुनने": 3352,
    "जर्स": 3353,
    "लिंक": 3354,
    "टीएम": 3355,
    "शपथ": 3356,
    "निंग": 3357,
    "इले": 3358,
    "अह": 3359,
    "सास": 3360,
    "दायर": 3361,
    "दायिक": 3362,
    "कर्ज": 3363,
    "ैंस": 3364,
    "सर्वो": 3365,
    "लागत": 3366,
    "्रो": 3367,
    "आवं": 3368,
    "जुन": 3369,
    "करवाया": 3370,
    "अतिथि": 3371,
    "मिश्रा": 3372,
    "बढ़ती": 3373,
    "विद्यार्थियों": 3374,
    "इसको": 3375,
    "अश्": 3376,
    "प्रदर्श": 3377,
    "शुरूआत": 3378,
    "पुस्तक": 3379,
    "वर्क": 3380,
    "लगते": 3381,
    "रहेंगे।": 3382,
    "तोष": 3383,
    "नीतीश": 3384,
    "ग्रे": 3385,
    "45": 3386,
    "बला": 3387,
    "नॉ": 3388,
    "ोग्रा": 3389,
    "क्ट्र": 3390,
    "सर्वि": 3391,
    "बीमा": 3392,
    "किनारे": 3393,
    "पावर": 3394,
    "हिक": 3395,
    "इजा": 3396,
    "जिए": 3397,
    "फार": 3398,
    "भरी": 3399,
    "मरे": 3400,
    "जंगल": 3401,
    "पंजी": 3402,
    "न्व": 3403,
    "शाखा": 3404,
    "विजे": 3405,
    "मशहू": 3406,
    "मशहूर": 3407,
    "प्रतिबंध": 3408,
    "दिए।": 3409,
    "डेट": 3410,
    "मानसिक": 3411,
    "कोहली": 3412,
    "नींद": 3413,
    "पर,": 3414,
    "कानूनी": 3415,
    "अमिताभ": 3416,
    "कल्पना": 3417,
    "लगा।": 3418,
    "असली": 3419,
    "खतरे": 3420,
    "तिवारी": 3421,
    "बुरी": 3422,
    "तिथि": 3423,
    "लेट": 3424,
    "प्राकृतिक": 3425,
    "मालूम": 3426,
    "पत्थर": 3427,
    "आलोचना": 3428,
    "मुद्रा": 3429,
    "नरे": 3430,
    "हरु": 3431,
    "मिलते": 3432,
    "अमर": 3433,
    "वायरल": 3434,
    "है-": 3435,
    "बोला": 3436,
    "निरीक्षण": 3437,
    "मुद्दों": 3438,
    "षक": 3439,
    "सूत्र": 3440,
    "लुक": 3441,
    "काउंट": 3442,
    "लोकतंत्र": 3443,
    "खतर": 3444,
    "विराट": 3445,
    "इमर": 3446,
    "तहसील": 3447,
    "कम्प": 3448,
    "सपा": 3449,
    "ढंग": 3450,
    "भक्त": 3451,
    "असम": 3452,
    "साइकिल": 3453,
    "देंगे": 3454,
    "सौं": 3455,
    "टूट": 3456,
    "बिनेट": 3457,
    "फिया": 3458,
    "अधिकां": 3459,
    "अधिकांश": 3460,
    "र्द": 3461,
    "बम": 3462,
    "ग्राहकों": 3463,
    "लिस्ट": 3464,
    "यात्रियों": 3465,
    "सैन्य": 3466,
    "लम्": 3467,
    "संरक्षण": 3468,
    "वसू": 3469,
    "वाना": 3470,
    "लड़कियों": 3471,
    "सिस्टम": 3472,
    "बैठा": 3473,
    "हूँ।": 3474,
    "हंगा": 3475,
    "मुलायम": 3476,
    "उल": 3477,
    "शुद्ध": 3478,
    "पदों": 3479,
    "हूँ.": 3480,
    "तत्काल": 3481,
    "जानता": 3482,
    "लिखे": 3483,
    "सड़कों": 3484,
    "आवास": 3485,
    "प्रियं": 3486,
    "प्रियंका": 3487,
    "शहीद": 3488,
    "शिप": 3489,
    "काने": 3490,
    "पहुँच": 3491,
    "ूर्ति": 3492,
    "डू": 3493,
    "स्टी": 3494,
    "यात्री": 3495,
    "नजदी": 3496,
    "चेता": 3497,
    "मान्यता": 3498,
    "पदार्थ": 3499,
    "लेन": 3500,
    "तारीख": 3501,
    "पेड़": 3502,
    "घन": 3503,
    "टियां": 3504,
    "लिए।": 3505,
    "जागरण": 3506,
    "भरा": 3507,
    "मानत": 3508,
    "मचा": 3509,
    "परीक्षण": 3510,
    "नियुक्त": 3511,
    "कलेक्टर": 3512,
    "नयी": 3513,
    "ऑपरे": 3514,
    "सूर्य": 3515,
    "कोण": 3516,
    "दाखिल": 3517,
    "दित": 3518,
    "अंदाज": 3519,
    "है।’": 3520,
    "पूंजी": 3521,
    "नहीं.": 3522,
    "फिल्में": 3523,
    "रोल": 3524,
    "प्रावधान": 3525,
    "लोनी": 3526,
    "श्रेणी": 3527,
    "अभिनेत्री": 3528,
    "फ़िल्म": 3529,
    "आँख": 3530,
    "खण्ड": 3531,
    "वादियों": 3532,
    "नागरि": 3533,
    "नागरिकों": 3534,
    "तरीका": 3535,
    "पहन": 3536,
    "रैं": 3537,
    "लम": 3538,
    "डायरेक्टर": 3539,
    "लिया.": 3540,
    "पियन": 3541,
    "हान": 3542,
    "अफग": 3543,
    "हाबाद": 3544,
    "बुला": 3545,
    "समाजवादी": 3546,
    "शंकर": 3547,
    "गये।": 3548,
    "इंजी": 3549,
    "AM": 3550,
    "कूल": 3551,
    "स्वतंत्रता": 3552,
    "मानी": 3553,
    "ap": 3554,
    "नल": 3555,
    "पकड़": 3556,
    "ज़ा": 3557,
    "ic": 3558,
    "सॉ": 3559,
    "उड़": 3560,
    "विश्ले": 3561,
    "पेंशन": 3562,
    "एसटी": 3563,
    "दिवसी": 3564,
    "दिवसीय": 3565,
    "वॉ": 3566,
    "भोपाल": 3567,
    "दाबाद": 3568,
    "प्राचीन": 3569,
    "ब्रिटि": 3570,
    "ब्रिटिश": 3571,
    "मनोज": 3572,
    "ृत": 3573,
    "प्रशासनिक": 3574,
    "भरे": 3575,
    "Pin": 3576,
    "विधेयक": 3577,
    "राजेश": 3578,
    "गुस्": 3579,
    "खेती": 3580,
    "चलती": 3581,
    "सुनील": 3582,
    "जाए,": 3583,
    "देन": 3584,
    "वाय": 3585,
    "कपि": 3586,
    "मेहन": 3587,
    "दर्भ": 3588,
    "इसीलिए": 3589,
    "संशो": 3590,
    ".5": 3591,
    "समर्": 3592,
    "गरीबी": 3593,
    "युग": 3594,
    "मुकदमा": 3595,
    "पहुंचे।": 3596,
    "प्रोत्": 3597,
    "आरक्षण": 3598,
    "खुलासा": 3599,
    "वाहनों": 3600,
    "बढ़ने": 3601,
    "आंध": 3602,
    "आंध्र": 3603,
    "भूत": 3604,
    "बादी": 3605,
    "ं.": 3606,
    "दरअसल,": 3607,
    "उंड": 3608,
    "चोट": 3609,
    "ent": 3610,
    "संस्थानों": 3611,
    "196": 3612,
    "अनुवाद": 3613,
    "प्रोजे": 3614,
    "रकम": 3615,
    "बल्लेबाज": 3616,
    "टाटा": 3617,
    "समाधान": 3618,
    "प्रेरित": 3619,
    "ड्यू": 3620,
    "दिक": 3621,
    "निकले": 3622,
    "सख्": 3623,
    "चालू": 3624,
    "स्कर": 3625,
    "सपना": 3626,
    "id": 3627,
    "भेजने": 3628,
    "मर्श": 3629,
    "बदमाशों": 3630,
    "लंबी": 3631,
    "उसको": 3632,
    "सनी": 3633,
    "कमि": 3634,
    "अभिनेता": 3635,
    "निधन": 3636,
    "सिने": 3637,
    "संवेदन": 3638,
    "चंद": 3639,
    "नम": 3640,
    "णे": 3641,
    "कोलका": 3642,
    "कोलकाता": 3643,
    "बच्चा": 3644,
    "चाहिये": 3645,
    "खुले": 3646,
    "जानकार": 3647,
    "चेतावनी": 3648,
    "क्लिक": 3649,
    "किरा": 3650,
    "उठाने": 3651,
    "मंत्रियों": 3652,
    "मिली।": 3653,
    "स्वरूप": 3654,
    "कामयाब": 3655,
    "आखिरी": 3656,
    "वैश्": 3657,
    "वैश्विक": 3658,
    "जमानत": 3659,
    "संसाधन": 3660,
    "महासचिव": 3661,
    "रोकने": 3662,
    "छात्राओं": 3663,
    "वृत्ति": 3664,
    "पड़ा।": 3665,
    "राग": 3666,
    "सुन्": 3667,
    "नोटिस": 3668,
    "दाताओं": 3669,
    "करवाने": 3670,
    "आदर्श": 3671,
    "हिरा": 3672,
    "किरदार": 3673,
    "संगठनों": 3674,
    "न्यूजी": 3675,
    "न्यूजीलैंड": 3676,
    "प्रतीक": 3677,
    "कार्यवाही": 3678,
    "भेद": 3679,
    "संबंधों": 3680,
    "बढ़कर": 3681,
    "ऐतिहा": 3682,
    "ऐतिहासिक": 3683,
    "फुट": 3684,
    "फरार": 3685,
    "सृ": 3686,
    "पश्चा": 3687,
    "कथा": 3688,
    "संसदी": 3689,
    "संसदीय": 3690,
    "रिकॉर्ड": 3691,
    "घोटाले": 3692,
    "धू": 3693,
    "राजस्व": 3694,
    "दिरा": 3695,
    "est": 3696,
    "गर्म": 3697,
    "सड़क": 3698,
    "वार्ता": 3699,
    "बान": 3700,
    "-बार": 3701,
    "संपा": 3702,
    "बनाये": 3703,
    "भरने": 3704,
    "अंतरि": 3705,
    "ंटी": 3706,
    "िए": 3707,
    "क्‍": 3708,
    "शुक्": 3709,
    "मांगी": 3710,
    "ब्रिटेन": 3711,
    "शरण": 3712,
    "दौरे": 3713,
    "ज़र": 3714,
    "जाएंगे": 3715,
    "मजा": 3716,
    "स्क्री": 3717,
    "एशिया": 3718,
    "आत्मह": 3719,
    "आत्महत्या": 3720,
    "बनकर": 3721,
    "करे।": 3722,
    "बीएस": 3723,
    "पढ": 3724,
    "बच्चन": 3725,
    "मजबूर": 3726,
    "कपिल": 3727,
    "न्हा": 3728,
    "ल्या": 3729,
    "अंग": 3730,
    "टिक": 3731,
    "मेहनत": 3732,
    "डा.": 3733,
    "पीड़": 3734,
    "परिवहन": 3735,
    "फूल": 3736,
    "अनि": 3737,
    "प्रौ": 3738,
    "प्रौद्योग": 3739,
    "आगामी": 3740,
    "ंजन": 3741,
    "बंग": 3742,
    "जीतने": 3743,
    "्यूटर": 3744,
    "मृतक": 3745,
    "थोड़ा": 3746,
    "ईरान": 3747,
    "ढे": 3748,
    "समझने": 3749,
    "सेंटर": 3750,
    "रूस": 3751,
    "बाला": 3752,
    "गिरा": 3753,
    "ख्य": 3754,
    "रिजर्": 3755,
    "कॉल": 3756,
    "जिम्मेदार": 3757,
    "लंबित": 3758,
    "विज": 3759,
    "अंजाम": 3760,
    "स्टो": 3761,
    "केन्द्रीय": 3762,
    "हिन्दू": 3763,
    "हिमाचल": 3764,
    "गायब": 3765,
    "संसार": 3766,
    "पृथ्": 3767,
    "पृथ्वी": 3768,
    "लिहा": 3769,
    "पर्याप्त": 3770,
    "मोटर": 3771,
    "धन्य": 3772,
    "33": 3773,
    "कैबिनेट": 3774,
    "डाक": 3775,
    "इंद": 3776,
    "2008": 3777,
    "रियल": 3778,
    "हराया": 3779,
    "म्न": 3780,
    "साई": 3781,
    "चक्कर": 3782,
    "विपरी": 3783,
    "विपरीत": 3784,
    "संस्करण": 3785,
    "ष्‍": 3786,
    "पालिका": 3787,
    "ुमान": 3788,
    "है..": 3789,
    "गुला": 3790,
    "रोह": 3791,
    "पुस्त": 3792,
    "न्यूज़": 3793,
    "आईएस": 3794,
    "क्सी": 3795,
    "जबरद": 3796,
    "तुम्हें": 3797,
    "जयपुर": 3798,
    "कोय": 3799,
    "of": 3800,
    "अधीक्षक": 3801,
    "विजेता": 3802,
    "जोड़": 3803,
    "क्षम": 3804,
    "न्ना": 3805,
    "tter": 3806,
    "Fa": 3807,
    "Face": 3808,
    "Faceb": 3809,
    "Faceboo": 3810,
    "Facebook": 3811,
    "कें": 3812,
    "निर्यात": 3813,
    "बताया,": 3814,
    "तालाब": 3815,
    "बढ़ते": 3816,
    "आरोपों": 3817,
    "आए।": 3818,
    "प्रतिभा": 3819,
    "कभी-": 3820,
    "ज़्यादा": 3821,
    "काले": 3822,
    "जायेगा।": 3823,
    "अग्रवाल": 3824,
    "शारी": 3825,
    "शारीरिक": 3826,
    "किन्तु": 3827,
    "तापमान": 3828,
    "विधि": 3829,
    "पड़ता": 3830,
    "उद्घा": 3831,
    "क्के": 3832,
    "कमाई": 3833,
    "पूर्वी": 3834,
    "ज़रू": 3835,
    "स्थायी": 3836,
    "क्ताओं": 3837,
    "हूं.": 3838,
    "प्रशं": 3839,
    "सहारा": 3840,
    "मुख्यालय": 3841,
    "वर्मा": 3842,
    "ूर": 3843,
    "सबको": 3844,
    "म्मत": 3845,
    "उत्तराखंड": 3846,
    "बैक": 3847,
    "संतोष": 3848,
    "टिल": 3849,
    "मुझसे": 3850,
    "सम्मानित": 3851,
    "निशाना": 3852,
    "ब्दी": 3853,
    "लापर": 3854,
    "व्हा": 3855,
    "शास्त्र": 3856,
    "डाला": 3857,
    "गंभीरता": 3858,
    "खतरनाक": 3859,
    "कीन": 3860,
    "प्रदू": 3861,
    "कलाकार": 3862,
    "हटाने": 3863,
    "इलाहाबाद": 3864,
    "वारदा": 3865,
    "कैमरा": 3866,
    "दी,": 3867,
    "बलात्कार": 3868,
    "रमेश": 3869,
    "मंत्रि": 3870,
    "सुविधाएं": 3871,
    "90": 3872,
    "हुये": 3873,
    "प्राथमि": 3874,
    "ण्": 3875,
    "एस.": 3876,
    "गुना": 3877,
    "काबू": 3878,
    "वर्ती": 3879,
    "मिलेगा।": 3880,
    "बार-बार": 3881,
    "चेक": 3882,
    "स्टूड": 3883,
    "जॉन": 3884,
    "दौरा": 3885,
    "दिखाया": 3886,
    "ब्याज": 3887,
    "ल,": 3888,
    "किस्म": 3889,
    "लोन": 3890,
    "देंगे।": 3891,
    "‍ह": 3892,
    "हवाले": 3893,
    "लेती": 3894,
    "नजदीक": 3895,
    "अखि": 3896,
    "अखिलेश": 3897,
    "ग़": 3898,
    "लेंगे।": 3899,
    "प्रतिक्रिया": 3900,
    "लगाकर": 3901,
    "तर्क": 3902,
    "दोस्ती": 3903,
    "विभा": 3904,
    "फार्": 3905,
    "संदर्भ": 3906,
    "उर्फ": 3907,
    "उपकरण": 3908,
    "जिनका": 3909,
    "ढ़ी": 3910,
    "त्वचा": 3911,
    "प्रताप": 3912,
    "लगाना": 3913,
    "प्रौद्योगि": 3914,
    "विवि": 3915,
    "सियासी": 3916,
    "चाहिए,": 3917,
    "संचालित": 3918,
    "ंचित": 3919,
    "जगत": 3920,
    "फ्रा": 3921,
    "केशन": 3922,
    "व्रत": 3923,
    "चुप": 3924,
    "सुल": 3925,
    "पारित": 3926,
    "बीसीसी": 3927,
    "रणनीति": 3928,
    "युवती": 3929,
    "निकट": 3930,
    "मेगा": 3931,
    "जयं": 3932,
    "दलित": 3933,
    "निर्भर": 3934,
    "जिश": 3935,
    "बुनिया": 3936,
    "खनन": 3937,
    "यौ": 3938,
    "मुकेश": 3939,
    "बांग्लादेश": 3940,
    "खूबसूरत": 3941,
    "हिस्सों": 3942,
    "रहे.": 3943,
    "खाद्य": 3944,
    "सोचा": 3945,
    "महंगाई": 3946,
    "उदय": 3947,
    "स्ट्र": 3948,
    "ंडित": 3949,
    "कस": 3950,
    "खरीदने": 3951,
    "दुर्घटना": 3952,
    "्‍य": 3953,
    "प्रत्याशी": 3954,
    "अफगानि": 3955,
    "विशि": 3956,
    "गठित": 3957,
    "माय": 3958,
    "धमकी": 3959,
    "2000": 3960,
    "इंदिरा": 3961,
    "अर्थात": 3962,
    "रफ्": 3963,
    "रफ्तार": 3964,
    "लेता": 3965,
    "मोह": 3966,
    "शूटिंग": 3967,
    "दुष्कर्म": 3968,
    "टूर्": 3969,
    "टूर्ना": 3970,
    "टूर्नामेंट": 3971,
    "सेक्टर": 3972,
    "के.": 3973,
    "डेटा": 3974,
    "लांच": 3975,
    "राजे": 3976,
    "भाग्य": 3977,
    "परिवारों": 3978,
    "हूं,": 3979,
    "ट्रां": 3980,
    "Twi": 3981,
    "Twitter": 3982,
    "संवेदनशील": 3983,
    "अज्ञात": 3984,
    "सैनि": 3985,
    "सैनिकों": 3986,
    "एटीएम": 3987,
    "प्रण": 3988,
    "होली": 3989,
    "गोवा": 3990,
    "इमार": 3991,
    "नेस": 3992,
    "गेट": 3993,
    "महज": 3994,
    "इंटरनेट": 3995,
    "आपसे": 3996,
    "एका": 3997,
    "प्रदायिक": 3998,
    "दिक्": 3999,
    "जिनकी": 4000,
    "अरु": 4001,
    "धोनी": 4002,
    "कमान": 4003,
    "सुनाई": 4004,
    "जाया": 4005,
    "स्थितियों": 4006,
    "ष्णु": 4007,
    "स्की": 4008,
    "एसो": 4009,
    "एसोसि": 4010,
    "एसोसिए": 4011,
    "गहरी": 4012,
    "आशी": 4013,
    "सबके": 4014,
    "स्तरी": 4015,
    "स्तरीय": 4016,
    "बताने": 4017,
    "तत्कालीन": 4018,
    "प्रेमी": 4019,
    "क्की": 4020,
    "नष्ट": 4021,
    "पी.": 4022,
    "अभिनय": 4023,
    "उन्हीं": 4024,
    "नु": 4025,
    "उद्घाटन": 4026,
    "कौशल": 4027,
    "डेढ़": 4028,
    "छुट्टी": 4029,
    "निप": 4030,
    "कालेज": 4031,
    "कार्यकाल": 4032,
    "सपने": 4033,
    "अब्": 4034,
    "स्नान": 4035,
    "शाली": 4036,
    "नये": 4037,
    "मारने": 4038,
    "नारे": 4039,
    "दरवाजे": 4040,
    "कारियों": 4041,
    "रखकर": 4042,
    "रिसर्च": 4043,
    "रिजर्व": 4044,
    "प्लान": 4045,
    "बाप": 4046,
    "प्रकृति": 4047,
    "आईए": 4048,
    "चक्र": 4049,
    "पदक": 4050,
    "आगरा": 4051,
    "जिया": 4052,
    "व्यू": 4053,
    "प्रारंभ": 4054,
    "हैया": 4055,
    "वासन": 4056,
    "अकाउंट": 4057,
    "आकार": 4058,
    "छोटा": 4059,
    "पहुंचाने": 4060,
    "बाहरी": 4061,
    "स्वर्ण": 4062,
    "सिद्धा": 4063,
    "किए।": 4064,
    "मूर्ति": 4065,
    "िकों": 4066,
    "आकर्षित": 4067,
    "अन्तर्गत": 4068,
    "टक्कर": 4069,
    "कोत": 4070,
    "रनों": 4071,
    "ST": 4072,
    "ंडर": 4073,
    "38": 4074,
    "ार्ड": 4075,
    "लक्ष्मी": 4076,
    "इंदौर": 4077,
    "आपस": 4078,
    "हस्ता": 4079,
    "दत्त": 4080,
    "डीपी": 4081,
    "निम्न": 4082,
    "पीने": 4083,
    "आयुक्त": 4084,
    "है।'": 4085,
    "द्वि": 4086,
    "परो": 4087,
    "मारी": 4088,
    "दै": 4089,
    "दैनिक": 4090,
    "सिखा": 4091,
    "झटका": 4092,
    "ेंट्स": 4093,
    "आर्": 4094,
    "अमरीका": 4095,
    "महो": 4096,
    "त्सव": 4097,
    "िर": 4098,
    "सेमी": 4099,
    "बाढ़": 4100,
    "गढ़": 4101,
    "घाटी": 4102,
    "हिंदू": 4103,
    "मुकाबला": 4104,
    "विनो": 4105,
    "विनोद": 4106,
    "Pinter": 4107,
    "Pinterest": 4108,
    "श्रीमती": 4109,
    "बलों": 4110,
    "कहे": 4111,
    "खाता": 4112,
    "प्रस्तावित": 4113,
    "ज़ार": 4114,
    "वां": 4115,
    "''": 4116,
    "रक्त": 4117,
    "अगली": 4118,
    "केरल": 4119,
    "गी,": 4120,
    "खेले": 4121,
    "व्यापारी": 4122,
    "सीन": 4123,
    "मतदाता": 4124,
    "हारी": 4125,
    "बताए": 4126,
    "आया।": 4127,
    "पत्रकारों": 4128,
    "कराए": 4129,
    "औसत": 4130,
    "व्यक्तिगत": 4131,
    "वाने": 4132,
    "कहा।": 4133,
    "वारा": 4134,
    "अनिल": 4135,
    "चाल": 4136,
    "अनुसं": 4137,
    "अनुसंधान": 4138,
    "स्कोर": 4139,
    "माफी": 4140,
    "टेली": 4141,
    "शाहरु": 4142,
    "विदा": 4143,
    "कायम": 4144,
    "शर": 4145,
    "पीड़ित": 4146,
    "जम्मू-": 4147,
    "जम्मू-कश्मीर": 4148,
    "यंस": 4149,
    "इस्तीफा": 4150,
    "गुल": 4151,
    "कार्यक्रमों": 4152,
    "संकल्प": 4153,
    "कानों": 4154,
    "अर्थव्यवस्था": 4155,
    "ंतु": 4156,
    "पड़ती": 4157,
    "मुद्दा": 4158,
    "डिप्": 4159,
    "चिकित्सा": 4160,
    "त्तर": 4161,
    "बदले": 4162,
    "छत्तीसगढ़": 4163,
    "मोर्चा": 4164,
    "लापरवाही": 4165,
    "पांडे": 4166,
    "त्‍": 4167,
    "आबादी": 4168,
    "कमल": 4169,
    "कस्": 4170,
    "हंस": 4171,
    "पर्यटन": 4172,
    "चाय": 4173,
    "उतना": 4174,
    "जरिये": 4175,
    "बाबू": 4176,
    "नियां": 4177,
    "चौहान": 4178,
    "संवाददाता": 4179,
    "तट": 4180,
    "विशिष्ट": 4181,
    "rs": 4182,
    "ढ़े": 4183,
    "सुनकर": 4184,
    "दर्शा": 4185,
    "संचार": 4186,
    "टेक्": 4187,
    "एकदम": 4188,
    "दस्तावेज": 4189,
    "विपक्षी": 4190,
    "रेशन": 4191,
    "शुभकामना": 4192,
    "हनुमान": 4193,
    "जत": 4194,
    "व्यवसाय": 4195,
    "ul": 4196,
    "तिर": 4197,
    "रजि": 4198,
    "सदस्यता": 4199,
    "परन्तु": 4200,
    "ए.": 4201,
    "्राष्ट्र": 4202,
    "्राष्ट्रीय": 4203,
    "मामू": 4204,
    "मामूली": 4205,
    "लाइट": 4206,
    "चैनल": 4207,
    "स्पर्": 4208,
    "ईमेल": 4209,
    "विभागों": 4210,
    "अनुरो": 4211,
    "अनुरोध": 4212,
    "सर्वेक्षण": 4213,
    "गूगल": 4214,
    "रखता": 4215,
    "लड़की": 4216,
    "उन्होने": 4217,
    "आपूर्ति": 4218,
    "मेह": 4219,
    "दिलाने": 4220,
    "मुसलमानों": 4221,
    "उन्‍ह": 4222,
    "खेत": 4223,
    "मिट्टी": 4224,
    "पेपर": 4225,
    "किमी": 4226,
    "ज़ि": 4227,
    "अख": 4228,
    "अखबार": 4229,
    "श्त": 4230,
    "शियों": 4231,
    "रुद्ध": 4232,
    "निकाला": 4233,
    "सहमति": 4234,
    "एक-दूसरे": 4235,
    "सोना": 4236,
    "विवरण": 4237,
    "एसोसिएशन": 4238,
    "दर्जा": 4239,
    "निर्मित": 4240,
    "जनरल": 4241,
    "सर्वोच्च": 4242,
    "कैद": 4243,
    "एप्": 4244,
    "गतिविधि": 4245,
    "अर्जुन": 4246,
    "न्यूनतम": 4247,
    "टिव": 4248,
    "सुन्दर": 4249,
    "डिजा": 4250,
    "डिजाइन": 4251,
    "विद्यालयों": 4252,
    "जगहों": 4253,
    "हिरासत": 4254,
    "कक्ष": 4255,
    "कर्मी": 4256,
    "स्टॉ": 4257,
    "आश्रम": 4258,
    "ओबा": 4259,
    "ओबामा": 4260,
    "ट्रंप": 4261,
    "दुश्": 4262,
    "पार्टियों": 4263,
    "विन": 4264,
    "ट्यू": 4265,
    "गौतम": 4266,
    "सुविधाओं": 4267,
    "बालों": 4268,
    "इश": 4269,
    "बढ़ावा": 4270,
    "क्षी": 4271,
    "ड्राइवर": 4272,
    "पाइ": 4273,
    "खेलने": 4274,
    "नोटबंदी": 4275,
    "प्रकट": 4276,
    "म्यू": 4277,
    "सागर": 4278,
    "इकाई": 4279,
    "कोर्स": 4280,
    "पूजन": 4281,
    "सिद्धांत": 4282,
    "निगर": 4283,
    "निगरानी": 4284,
    "सैनिक": 4285,
    "नेपाल": 4286,
    "मारा": 4287,
    "हीरो": 4288,
    "बसपा": 4289,
    "स्क्रीन": 4290,
    "चैं": 4291,
    "स्फो": 4292,
    "शरीफ": 4293,
    "प्रतिमा": 4294,
    "फू": 4295,
    "धन्यवाद": 4296,
    "समस्त": 4297,
    "साधारण": 4298,
    "37": 4299,
    "शतक": 4300,
    "पोल": 4301,
    "जीब": 4302,
    "नेहरू": 4303,
    "धमा": 4304,
    "मंत्रिमंडल": 4305,
    "दोस्तों": 4306,
    "2007": 4307,
    "हेल्": 4308,
    "माइ": 4309,
    "उत्पन्न": 4310,
    "आधा": 4311,
    "स्पीड": 4312,
    "औद्योग": 4313,
    "रुक": 4314,
    "इंजन": 4315,
    "संस्थाओं": 4316,
    "निर्माता": 4317,
    "मास्टर": 4318,
    "प्रखंड": 4319,
    "ोस": 4320,
    "राजनैतिक": 4321,
    "जबरदस्त": 4322,
    "मांड": 4323,
    "विज्ञापन": 4324,
    "इनकार": 4325,
    "रेड": 4326,
    "खला": 4327,
    "निकलने": 4328,
    "मकसद": 4329,
    "बढ": 4330,
    "द्वितीय": 4331,
    "बच्ची": 4332,
    "मरने": 4333,
    "सिम": 4334,
    "फायदे": 4335,
    "बिजनेस": 4336,
    "मेले": 4337,
    "भक्ति": 4338,
    "भौ": 4339,
    "प्राधि": 4340,
    "लील": 4341,
    "कुर्": 4342,
    "इलेक्ट्र": 4343,
    "रहें": 4344,
    "पुरी": 4345,
    "दर्शकों": 4346,
    "कभी-कभी": 4347,
    "शिक": 4348,
    "फंस": 4349,
    "आईपीएल": 4350,
    "ईमान": 4351,
    "सुझा": 4352,
    "बेचने": 4353,
    "महात्मा": 4354,
    "रहेगी।": 4355,
    "जुटा": 4356,
    "सकेंगे।": 4357,
    "तीसरी": 4358,
    "सकारात्मक": 4359,
    "रियर": 4360,
    "भावनाओं": 4361,
    "उर्": 4362,
    "बेड": 4363,
    "परिचय": 4364,
    "संपन्न": 4365,
    "लिखने": 4366,
    "मनाने": 4367,
    "गाह": 4368,
    "स्वस्थ": 4369,
    "जक": 4370,
    "रांची": 4371,
    "बढ़त": 4372,
    "तिमा": 4373,
    "तूफान": 4374,
    "मस्जिद": 4375,
    "एक्ट": 4376,
    "रेडियो": 4377,
    "बेटा": 4378,
    "चौरा": 4379,
    "अहमद": 4380,
    "जद": 4381,
    "नायक": 4382,
    "हड़ताल": 4383,
    "निरंतर": 4384,
    "सिनेमा": 4385,
    "मुहैया": 4386,
    "समर्थकों": 4387,
    "सिलसिला": 4388,
    "लिखते": 4389,
    "देगा।": 4390,
    "फॉर्म": 4391,
    "फाइल": 4392,
    "भागीदारी": 4393,
    "मुफ्": 4394,
    "लिश": 4395,
    "लाकर": 4396,
    "पिछली": 4397,
    "लियां": 4398,
    "मेट्रो": 4399,
    "बनर्जी": 4400,
    "कोतवाली": 4401,
    "ड्डा": 4402,
    "अफगानिस्तान": 4403,
    "वारदात": 4404,
    "चावल": 4405,
    "बहाद": 4406,
    "बहादुर": 4407,
    "सेन": 4408,
    "प्रोजेक्ट": 4409,
    "ठेकेदार": 4410,
    "ईद": 4411,
    "जीता": 4412,
    "निवास": 4413,
    "रवाना": 4414,
    "रुख": 4415,
    "विद्यु": 4416,
    "विद्युत": 4417,
    "फ्लै": 4418,
    "am": 4419,
    "प्रॉ": 4420,
    "बाद,": 4421,
    "ted": 4422,
    "एक्सप्रेस": 4423,
    "विश्लेषण": 4424,
    "कपड़े": 4425,
    "सम्बन्": 4426,
    "रायपुर": 4427,
    "लीग": 4428,
    "एक्ट्रे": 4429,
    "एक्ट्रेस": 4430,
    "आधी": 4431,
    "तमिलना": 4432,
    "तमिलनाडु": 4433,
    "ज़र": 4434,
    "सेल": 4435,
    "शहरी": 4436,
    "पृष्ठ": 4437,
    "भट्ट": 4438,
    "नज़र": 4439,
    "नामा": 4440,
    "कोरिया": 4441,
    "कहाँ": 4442,
    "भला": 4443,
    "पब्": 4444,
    "पब्लिक": 4445,
    "नाबा": 4446,
    "डिट": 4447,
    "लाइस": 4448,
    "बोलने": 4449,
    "चेंज": 4450,
    "सीटें": 4451,
    "हौ": 4452,
    "ल्ला": 4453,
    "विरुद्ध": 4454,
    "अभ्यास": 4455,
    "रिट": 4456,
    "सिन्हा": 4457,
    "चेयर": 4458,
    "आजम": 4459,
    "अज": 4460,
    "जोखि": 4461,
    "जोखिम": 4462,
    "फार्म": 4463,
    "खोल": 4464,
    "मुक्ति": 4465,
    "रेज": 4466,
    "शख्": 4467,
    "माता-": 4468,
    "माता-पिता": 4469,
    "लालू": 4470,
    "स्थग": 4471,
    "स्थगित": 4472,
    "दूसरों": 4473,
    "धीरे-": 4474,
    "संपाद": 4475,
    "संशोधन": 4476,
    "संयो": 4477,
    "गान": 4478,
    "सहयोगी": 4479,
    "क्‍या": 4480,
    "जमाने": 4481,
    "महाराज": 4482,
    "स्मृ": 4483,
    "आस-": 4484,
    "आस-पास": 4485,
    "चढ़ा": 4486,
    "ऊंचा": 4487,
    "विचारधारा": 4488,
    "अपहरण": 4489,
    "वैसा": 4490,
    "वर्ड": 4491,
    "मल्": 4492,
    "ड्स": 4493,
    "किट": 4494,
    "उपभोक्ताओं": 4495,
    "बीसीसीआई": 4496,
    "लायक": 4497,
    "जयंती": 4498,
    "तिन": 4499,
    "साजिश": 4500,
    "चौकी": 4501,
    "जनपद": 4502,
    "ऩे": 4503,
    "मांगने": 4504,
    "कीमतों": 4505,
    "पैमाने": 4506,
    "गेंदबाज": 4507,
    "विल": 4508,
    "स्टोर": 4509,
    "कंड": 4510,
    "आकाश": 4511,
    "विस्तृत": 4512,
    "मांस": 4513,
    "बचपन": 4514,
    "सश": 4515,
    "जिक्र": 4516,
    "आवंटन": 4517,
    "जातियों": 4518,
    "नियंत्रित": 4519,
    "मध्यप्रदेश": 4520,
    "बुल": 4521,
    "सिंचाई": 4522,
    "आफ": 4523,
    "इमरान": 4524,
    "निकला": 4525,
    "स्पि": 4526,
    "पंडित": 4527,
    "नशे": 4528,
    "कंपनियां": 4529,
    "एकमात्र": 4530,
    "वालि": 4531,
    "वाम": 4532,
    "धिकारियों": 4533,
    "पवन": 4534,
    "तुम्हारे": 4535,
    "गए,": 4536,
    "ment": 4537,
    "mar": 4538,
    "साढ़े": 4539,
    "2-": 4540,
    "रखें।": 4541,
    "लीप": 4542,
    "खेला": 4543,
    "55": 4544,
    "सिख": 4545,
    "नाराजगी": 4546,
    "जोशी": 4547,
    "फेल": 4548,
    "प्रोग्रा": 4549,
    "चीजों": 4550,
    "सरकारों": 4551,
    "कियां": 4552,
    "चलाया": 4553,
    "अगु": 4554,
    "यें": 4555,
    "हंगामा": 4556,
    "लोकपाल": 4557,
    "याँ": 4558,
    "ख्याल": 4559,
    "अंतरिक्ष": 4560,
    "बुक": 4561,
    "सीसीटीवी": 4562,
    "अंतर्राष्ट्रीय": 4563,
    "तस्वीरें।": 4564,
    "काट": 4565,
    "ईओ": 4566,
    "रेप": 4567,
    "मार्केट": 4568,
    "हिट": 4569,
    "गलती": 4570,
    "400": 4571,
    "ंखला": 4572,
    "भी,": 4573,
    "इंडस्ट्री": 4574,
    "अपराधियों": 4575,
    "मिस": 4576,
    "बिन": 4577,
    "समझते": 4578,
    "गाना": 4579,
    "होम": 4580,
    "कहा-": 4581,
    "स्वच्छ": 4582,
    "मंद": 4583,
    "अकेले": 4584,
    "महीनों": 4585,
    "मानने": 4586,
    "फीस": 4587,
    "लीटर": 4588,
    "कैसा": 4589,
    "कब्जा": 4590,
    "हक": 4591,
    "डॉक्टरों": 4592,
    "खबरों": 4593,
    "देखता": 4594,
    "दिक्कत": 4595,
    "इरा": 4596,
    "पर्व": 4597,
    "सुझाव": 4598,
    "विष्णु": 4599,
    "मूल्या": 4600,
    "मूल्यांकन": 4601,
    "जन्मदिन": 4602,
    "प्रतिनिधियों": 4603,
    "चंडी": 4604,
    "का,": 4605,
    "सकें।": 4606,
    "क्षति": 4607,
    "भय": 4608,
    "कोष": 4609,
    "प्रभावी": 4610,
    "पायल": 4611,
    "प्रार्थ": 4612,
    "प्रार्थना": 4613,
    "चर्चित": 4614,
    "डि़": 4615,
    "हकी": 4616,
    "हकीकत": 4617,
    "सिफार": 4618,
    "सिफारिश": 4619,
    "सेल्": 4620,
    "पदाधिकारी": 4621,
    "में.": 4622,
    "अनशन": 4623,
    "कॉन्": 4624,
    "बंट": 4625,
    "प्रकरण": 4626,
    "प्रौद्योगिकी": 4627,
    "प्रमो": 4628,
    "रामदेव": 4629,
    "इत्या": 4630,
    "इत्यादि": 4631,
    "कंट्रोल": 4632,
    "कंप्यूटर": 4633,
    "कच्": 4634,
    "प्राथमिक": 4635,
    "सेवाएं": 4636,
    "ंगी।": 4637,
    "समुद्र": 4638,
    "जहा": 4639,
    "ही,": 4640,
    "सांस": 4641,
    "अब्दु": 4642,
    "यूं": 4643,
    "ंटों": 4644,
    "यानि": 4645,
    "अवस्था": 4646,
    "सराह": 4647,
    "तिमाही": 4648,
    "किंतु": 4649,
    "संदिग्": 4650,
    "संदिग्ध": 4651,
    "आग्रह": 4652,
    "लक्षण": 4653,
    "रसो": 4654,
    "व्यस्त": 4655,
    "कॉम": 4656,
    "दिलच": 4657,
    "राल": 4658,
    "मेन": 4659,
    "पापा": 4660,
    "तेलंगा": 4661,
    "तेलंगाना": 4662,
    "जानवर": 4663,
    "क्लास": 4664,
    "छोड़कर": 4665,
    "कारोबारी": 4666,
    "उतरे": 4667,
    "जुड़ा": 4668,
    "सौंप": 4669,
    "सन्न": 4670,
    "को,": 4671,
    "ौती": 4672,
    "धरती": 4673,
    "मण्ड": 4674,
    "प्रदर्शनकारियों": 4675,
    "इड": 4676,
    "वैज्ञानिकों": 4677,
    "कलाकारों": 4678,
    "धिया": 4679,
    "आदित्यनाथ": 4680,
    "ऐलान": 4681,
    "स्वीकृति": 4682,
    "फ़ी": 4683,
    "आपसी": 4684,
    "विस्फो": 4685,
    "ंजलि": 4686,
    "तुम्हारी": 4687,
    "नरेन्द्र": 4688,
    "IST": 4689,
    "सलों": 4690,
    "34": 4691,
    "शास्त्री": 4692,
    "आपदा": 4693,
    "फरी": 4694,
    "हृ": 4695,
    "51": 4696,
    "रखें": 4697,
    "कब्जे": 4698,
    "गईं": 4699,
    "भारत-": 4700,
    "हुआ.": 4701,
    "तीसरा": 4702,
    "काउं": 4703,
    "दारों": 4704,
    "वाकई": 4705,
    "अंधे": 4706,
    "शर्त": 4707,
    "सेव": 4708,
    "डाउन": 4709,
    "ड्यूटी": 4710,
    "सख्त": 4711,
    "धर्": 4712,
    "औद्योगिक": 4713,
    "रावण": 4714,
    "ab": 4715,
    "तलाक": 4716,
    "स्टूडेंट्स": 4717,
    "डिजि": 4718,
    "पात्र": 4719,
    "हेड": 4720,
    "कैमरे": 4721,
    "निकाली": 4722,
    "जीएसटी": 4723,
    "शर्म": 4724,
    "खोलने": 4725,
    "विचारों": 4726,
    "कार्यकारी": 4727,
    "बोलते": 4728,
    "वीय": 4729,
    "प्रेरणा": 4730,
    "भूति": 4731,
    "थियों": 4732,
    "दिग्विजय": 4733,
    "डवाणी": 4734,
    "आयी": 4735,
    "टीन": 4736,
    "सक्षम": 4737,
    "सीजन": 4738,
    "डालने": 4739,
    "भगत": 4740,
    "पश्चिमी": 4741,
    "नाबालि": 4742,
    "नाबालिग": 4743,
    "आरपी": 4744,
    "खड़ी": 4745,
    "अवश्य": 4746,
    "एक्शन": 4747,
    "बीन": 4748,
    "रहेगा": 4749,
    "लड़ने": 4750,
    "कहकर": 4751,
    "काज": 4752,
    "हिता": 4753,
    "चेयरमैन": 4754,
    "स्रो": 4755,
    "देगी।": 4756,
    "जीते": 4757,
    "विवा": 4758,
    "दीपक": 4759,
    "गह": 4760,
    "जुर्माना": 4761,
    "दंड": 4762,
    "शख्स": 4763,
    "अधिकतर": 4764,
    "धीरे-धीरे": 4765,
    "प्रत्यक्ष": 4766,
    "जाल": 4767,
    "गरीबों": 4768,
    "सर्वश्रेष्ठ": 4769,
    "बुलाया": 4770,
    "एकजुट": 4771,
    "गज": 4772,
    "गिरफ्तारी": 4773,
    "दौड़": 4774,
    "अमरीकी": 4775,
    "फैंस": 4776,
    "षेक": 4777,
    "सच्चाई": 4778,
    "व्यक्तियों": 4779,
    "राज्यसभा": 4780,
    "उल्लं": 4781,
    "उल्लंघन": 4782,
    "पात": 4783,
    "रोध": 4784,
    "यौन": 4785,
    "सिविल": 4786,
    "नेटवर्क": 4787,
    "आधिकार": 4788,
    "आधिकारिक": 4789,
    "आखिरकार": 4790,
    "चूंकि": 4791,
    "कारणों": 4792,
    "वेयर": 4793,
    "पश्चात": 4794,
    "फांसी": 4795,
    "रिकार्ड": 4796,
    "लगी।": 4797,
    "चौथे": 4798,
    "वंत": 4799,
    "पढ़ने": 4800,
    "नाय": 4801,
    "मनीष": 4802,
    "एकत्र": 4803,
    "क्रिके": 4804,
    "क्रिकेटर": 4805,
    "तृण": 4806,
    "तृणमूल": 4807,
    "बॉल": 4808,
    "वानी": 4809,
    "जागरूक": 4810,
    "एमएस": 4811,
    "हादसा": 4812,
    "जस्टि": 4813,
    "ग्लो": 4814,
    "रुचि": 4815,
    "ंचे": 4816,
    "शेखर": 4817,
    "पकड़": 4818,
    "In": 4819,
    "प्राप्ति": 4820,
    "साहि": 4821,
    "कुमार,": 4822,
    "खुफिया": 4823,
    "डीए": 4824,
    "पेयी": 4825,
    "pm": 4826,
    "खड़े": 4827,
    "शीघ": 4828,
    "शीघ्र": 4829,
    "पुन:": 4830,
    "वाइस": 4831,
    "कुश": 4832,
    "एं।": 4833,
    "ay": 4834,
    "सेटिंग": 4835,
    "डीजल": 4836,
    "उड़ान": 4837,
    "इंडी": 4838,
    "इंडीज": 4839,
    "दह": 4840,
    "छत्तीसगढ़": 4841,
    "का.": 4842,
    "बल्लेबाजी": 4843,
    "ऐप": 4844,
    "यूजर्स": 4845,
    "सीपी": 4846,
    "जी,": 4847,
    "बीसी": 4848,
    "Pos": 4849,
    "Posted": 4850,
    "by": 4851,
    "श्रृ": 4852,
    "बनती": 4853,
    "मासू": 4854,
    "पद्": 4855,
    "थीं,": 4856,
    "गैंग": 4857,
    "क्राइ": 4858,
    "क्राइम": 4859,
    "दिल्ली:": 4860,
    "अक": 4861,
    "क्षय": 4862,
    "अपराधी": 4863,
    "प्राधिकरण": 4864,
    "बानी": 4865,
    "गईं।": 4866,
    "जाएं": 4867,
    "ग्राहक": 4868,
    "कतों": 4869,
    "हुए,": 4870,
    "द्वी": 4871,
    "मद्": 4872,
    "ख़ु": 4873,
    "चंडीगढ़": 4874,
    "होता।": 4875,
    "बौद्ध": 4876,
    "करोड़ों": 4877,
    "मरीज": 4878,
    "जात": 4879,
    "पीड़ित": 4880,
    "समापन": 4881,
    "चतु": 4882,
    "चेहरा": 4883,
    "आमि": 4884,
    "आमिर": 4885,
    "बुजुर्": 4886,
    "बुजुर्ग": 4887,
    "कलन": 4888,
    "उन्न": 4889,
    "खिताब": 4890,
    "बांट": 4891,
    "संभाल": 4892,
    "शाहरुख": 4893,
    "अधिकारों": 4894,
    "प्रशंसा": 4895,
    "स्मृति": 4896,
    "बताई": 4897,
    "बढ़ो": 4898,
    "चिकित्साल": 4899,
    "चिकित्सालय": 4900,
    "तारीफ": 4901,
    "सॉफ्ट": 4902,
    "लियम": 4903,
    "अरुण": 4904,
    "उठाए": 4905,
    "हां,": 4906,
    "ईश्वर": 4907,
    "अभाव": 4908,
    "मिथ": 4909,
    "उत्साह": 4910,
    "प्रांत": 4911,
    "बॉस": 4912,
    "पों": 4913,
    "रसोई": 4914,
    "निलंबित": 4915,
    "मोहल्": 4916,
    "कराया।": 4917,
    "इंटरव्यू": 4918,
    "बुनियादी": 4919,
    "गिरने": 4920,
    "आई.": 4921,
    "प्लेट": 4922,
    "अल्पसं": 4923,
    "अल्पसंख्य": 4924,
    "पौधे": 4925,
    "आमत": 4926,
    "आमतौर": 4927,
    "वंचित": 4928,
    "मुफ्त": 4929,
    "निधि": 4930,
    "चीफ": 4931,
    "मण्डल": 4932,
    "नू": 4933,
    "पोषण": 4934,
    "गेंदबाजी": 4935,
    "कि,": 4936,
    "वाण": 4937,
    "दिना": 4938,
    "दिनांक": 4939,
    "निवेशकों": 4940,
    "पलट": 4941,
    "बुद्ध": 4942,
    "शेयरों": 4943,
    "नतीजे": 4944,
    "प्रतिबद्ध": 4945,
    "चैंपियन": 4946,
    "फर्म": 4947,
    "दून": 4948,
    "hrs": 4949,
    "ct": 4950,
    "सब्सि": 4951,
    "सब्सिडी": 4952,
    "बतौर": 4953,
    "हृदय": 4954,
    "49": 4955,
    "किस्": 4956,
    "धूम": 4957,
    "197": 4958,
    "बादल": 4959,
    "मणि": 4960,
    "इन्होंने": 4961,
    "न्यायिक": 4962,
    "करें,": 4963,
    "रखती": 4964,
    "अमीर": 4965,
    "2.": 4966,
    "रिटा": 4967,
    "फंड": 4968,
    "कित": 4969,
    "जनसंख्या": 4970,
    "ब्लै": 4971,
    "ब्लैक": 4972,
    "पेक्ष": 4973,
    "गिरोह": 4974,
    "our": 4975,
    "ion": 4976,
    "डिजिटल": 4977,
    "तरीकों": 4978,
    "सर्वा": 4979,
    "सामू": 4980,
    "सामूहिक": 4981,
    "महेंद्र": 4982,
    "डांस": 4983,
    "जज": 4984,
    "क्यो": 4985,
    "नज़र": 4986,
    "होती।": 4987,
    "आडवाणी": 4988,
    "प्रारूप": 4989,
    "वानि": 4990,
    "लिए,": 4991,
    "साधनों": 4992,
    "देशभर": 4993,
    "दीपि": 4994,
    "दीपिका": 4995,
    "कन्या": 4996,
    "तीर्थ": 4997,
    "उपलब्धि": 4998,
    "होगी,": 4999,
    "आन्": 5000,
    "नीरज": 5001,
    "पहुंची।": 5002,
    "स्कीम": 5003,
    "आई।": 5004,
    "रोश": 5005,
    "रोशनी": 5006,
    "उत्पादों": 5007,
    "उन्हे": 5008,
    "सैक": 5009,
    "गले": 5010,
    "सरल": 5011,
    "पाती": 5012,
    "शून": 5013,
    "शून्य": 5014,
    "स्थिर": 5015,
    "बंदर": 5016,
    "चिकित्सक": 5017,
    "जायेगी।": 5018,
    "बढ़ता": 5019,
    "अर्पित": 5020,
    "थान": 5021,
    "वस्तुओं": 5022,
    "शुरुआती": 5023,
    "आभार": 5024,
    "गुणव": 5025,
    "हिम": 5026,
    "बिलकुल": 5027,
    "धारणा": 5028,
    "जोड़": 5029,
    "जताते": 5030,
    "अफसरों": 5031,
    "क्यू": 5032,
    "हॉलीवुड": 5033,
    "ढेर": 5034,
    "पाय": 5035,
    "आह्": 5036,
    "आह्वान": 5037,
    "आइए": 5038,
    "हरकत": 5039,
    "शय": 5040,
    "अभिषेक": 5041,
    "साक्षा": 5042,
    "इसने": 5043,
    "नवा": 5044,
    "पाठ्य": 5045,
    "पाठ्यक्रम": 5046,
    "जला": 5047,
    "यूरोपी": 5048,
    "यूरोपीय": 5049,
    "निंदा": 5050,
    "उथ": 5051,
    "ऑटो": 5052,
    "र्ज": 5053,
    "ंटा": 5054,
    "बर्फ": 5055,
    "मुआव": 5056,
    "फ्रंट": 5057,
    "सुनते": 5058,
    "ट्रॉ": 5059,
    "शिखर": 5060,
    "मानें": 5061,
    "सोनी": 5062,
    "जीने": 5063,
    "लाइफ": 5064,
    "कॉलोनी": 5065,
    "सोचने": 5066,
    "सूरज": 5067,
    "हिम्मत": 5068,
    "फैशन": 5069,
    "अस्ति": 5070,
    "स्वर": 5071,
    "ग्रस्त": 5072,
    "जब्त": 5073,
    "सृजन": 5074,
    "भीषण": 5075,
    "कर्ताओं": 5076,
    "हमलावर": 5077,
    "प्रसन्न": 5078,
    "क्ष्य": 5079,
    "मासिक": 5080,
    "ठंड": 5081,
    "मीरा": 5082,
    "आरएस": 5083,
    "मजबूरी": 5084,
    "बताया।": 5085,
    "कौर": 5086,
    "आरंभ": 5087,
    "चाइ": 5088,
    "जरुर": 5089,
    "फ्री": 5090,
    "यकीन": 5091,
    "विमर्श": 5092,
    "बनना": 5093,
    "प्रदूषण": 5094,
    "जियो": 5095,
    "छत": 5096,
    "श्रीवास्तव": 5097,
    "लंबा": 5098,
    "हस्ताक्षर": 5099,
    "चिकित्स": 5100,
    "दादा": 5101,
    "जस्टिस": 5102,
    "जितनी": 5103,
    "नौकर": 5104,
    "थीं.": 5105,
    "कृष्": 5106,
    "कृष्णा": 5107,
    "सूर": 5108,
    "कार्यरत": 5109,
    "32": 5110,
    "क्वि": 5111,
    "आश्चर्": 5112,
    "आश्चर्य": 5113,
    "44": 5114,
    "अजीब": 5115,
    "65": 5116,
    "परियोजनाओं": 5117,
    "जवाहर": 5118,
    "प्रोग्राम": 5119,
    "वाजपेयी": 5120,
    "जाए.": 5121,
    "ख्यात": 5122,
    "खेलना": 5123,
    "भार्": 5124,
    "डाउनलोड": 5125,
    "पाकर": 5126,
    "दिल्‍": 5127,
    "दिल्‍ली": 5128,
    "थोड़ी": 5129,
    "रोजाना": 5130,
    "्न": 5131,
    "app": 5132,
    "Late": 5133,
    "Latest": 5134,
    "ख़बर": 5135,
    "रोचक": 5136,
    "गोयल": 5137,
    "पहुँ": 5138,
    "छूने": 5139,
    "फूड": 5140,
    "कांड": 5141,
    "मंड": 5142,
    "शुक्ला": 5143,
    "साव": 5144,
    "डोना": 5145,
    "300": 5146,
    "हैरान": 5147,
    "नाइ": 5148,
    "तुम्हारा": 5149,
    "नहर": 5150,
    "ed": 5151,
    "खू": 5152,
    "her": 5153,
    "कमर": 5154,
    "रिजल्": 5155,
    "रिजल्ट": 5156,
    "मजे": 5157,
    "धोखा": 5158,
    "सहज": 5159,
    "त्रु": 5160,
    "मासूम": 5161,
    "प्रणब": 5162,
    "उतरने": 5163,
    "राशन": 5164,
    "रंगों": 5165,
    "त्यो": 5166,
    "त्योहार": 5167,
    "मेला": 5168,
    "मिठा": 5169,
    "शिमला": 5170,
    "क्रेडिट": 5171,
    "लाइसेंस": 5172,
    "गाड़ी": 5173,
    "महेश": 5174,
    "अक्षर": 5175,
    "काय": 5176,
    "वजन": 5177,
    "एक्सचेंज": 5178,
    "भोज": 5179,
    "आयकर": 5180,
    "छुट": 5181,
    "छुटकारा": 5182,
    "फं": 5183,
    "शैली": 5184,
    "स्टाफ": 5185,
    "वट": 5186,
    "मद्दे": 5187,
    "मद्देनजर": 5188,
    "आंखें": 5189,
    "पारि": 5190,
    "अटल": 5191,
    "नि.": 5192,
    "चारिक": 5193,
    "अत्यंत": 5194,
    "ब्लड": 5195,
    "मीरी": 5196,
    "समय-": 5197,
    "यस": 5198,
    "पीढ़ी": 5199,
    "ड़ियों": 5200,
    "गोद": 5201,
    "अनुराग": 5202,
    "लापता": 5203,
    "ब्राह्": 5204,
    "ब्राह्मण": 5205,
    "विविध": 5206,
    "बनाते": 5207,
    "सोसाय": 5208,
    "ब्रह्": 5209,
    "लीला": 5210,
    "पुणे": 5211,
    "एनजी": 5212,
    "चिन्ह": 5213,
    "निर्देशन": 5214,
    "जापान": 5215,
    "कमाल": 5216,
    "का।": 5217,
    "अफसर": 5218,
    "आतंकवादी": 5219,
    "आंग": 5220,
    "मजदूरों": 5221,
    "पॉलि": 5222,
    "चमक": 5223,
    "भागों": 5224,
    "सेमीफाइनल": 5225,
    "भूषण": 5226,
    "पोस्टमार्ट": 5227,
    "पोस्टमार्टम": 5228,
    "घंटों": 5229,
    "वाट": 5230,
    "सकते।": 5231,
    "पेशे": 5232,
    "अमृत": 5233,
    "न्यूय": 5234,
    "रहेंगे": 5235,
    "जेट": 5236,
    "भाषाओं": 5237,
    "विटा": 5238,
    "विटामिन": 5239,
    "म्भ": 5240,
    "टाइम्स": 5241,
    "आंकड़े": 5242,
    "एप": 5243,
    "नगरी": 5244,
    "फिक": 5245,
    "औष": 5246,
    "शिक्षित": 5247,
    "स्टॉक": 5248,
    "समझौते": 5249,
    "आईसीसी": 5250,
    "से.": 5251,
    "आचार्य": 5252,
    "चका": 5253,
    "निपटने": 5254,
    "हानि": 5255,
    "लेकिन,": 5256,
    "आंखों": 5257,
    "शनि": 5258,
    "पेज": 5259,
    "ड्र": 5260,
    "बीज": 5261,
    "साम्रा": 5262,
    "प्रतिदिन": 5263,
    "बूथ": 5264,
    "दिने": 5265,
    "दिनेश": 5266,
    "र्वे": 5267,
    "मधु": 5268,
    "करें.": 5269,
    "टीमों": 5270,
    "दिल्ली,": 5271,
    "यश": 5272,
    "कना": 5273,
    "फ़िल्म": 5274,
    "वर्षा": 5275,
    "प्रदीप": 5276,
    "पार्षद": 5277,
    "शोभा": 5278,
    "उपरा": 5279,
    "ार्क": 5280,
    "यमुना": 5281,
    "श्रा": 5282,
    "उपभोक्ता": 5283,
    "शिवराज": 5284,
    "प्राय": 5285,
    "करू": 5286,
    "त्न": 5287,
    "पुरुषों": 5288,
    "पदाधिकारियों": 5289,
    "जर्म": 5290,
    "जर्मनी": 5291,
    "देहरा": 5292,
    "बिंद": 5293,
    "पुनर्": 5294,
    "टकों": 5295,
    "नीतियों": 5296,
    "दुरु": 5297,
    "एयरपोर्ट": 5298,
    "उभर": 5299,
    "संस्कृत": 5300,
    "तेंदु": 5301,
    "तेंदुलकर": 5302,
    "57": 5303,
    "अधिग्रहण": 5304,
    "जेब": 5305,
    "प्राथमिकता": 5306,
    "ve": 5307,
    "शीर्षक": 5308,
    "ष्‍ट्र": 5309,
    "पोरेशन": 5310,
    "मैनेज": 5311,
    "मैनेजमेंट": 5312,
    "सेज": 5313,
    "आपरा": 5314,
    "आपराधिक": 5315,
    "मेरठ": 5316,
    "चुनें।": 5317,
    "बॉक्स": 5318,
    "सर्विस": 5319,
    "छापे": 5320,
    "इजाजत": 5321,
    "सितम्बर": 5322,
    "मित्रों": 5323,
    "लिखकर": 5324,
    "सदा": 5325,
    "मोड": 5326,
    "बीत": 5327,
    "Th": 5328,
    "ब्रेकिंग": 5329,
    "लिए?": 5330,
    "पहलुओं": 5331,
    "नार": 5332,
    "करें!": 5333,
    "रहे,": 5334,
    "प्रसारण": 5335,
    "ानु": 5336,
    "ob": 5337,
    "पड़ी": 5338,
    "गोपाल": 5339,
    "प्रोफे": 5340,
    "श्रृंखला": 5341,
    "रहा.": 5342,
    "द्दीन": 5343,
    "डाक्टर": 5344,
    "टीसी": 5345,
    "महत्": 5346,
    "शाही": 5347,
    "राणा": 5348,
    "विद्र": 5349,
    "फ्रेंड": 5350,
    "रणवीर": 5351,
    "इमारत": 5352,
    "अंकों": 5353,
    "शासकीय": 5354,
    "परिक": 5355,
    "शरद": 5356,
    "पुराना": 5357,
    "नमक": 5358,
    "वाहा": 5359,
    "गोल्ड": 5360,
    "उठता": 5361,
    "वैधान": 5362,
    "वैधानिक": 5363,
    "थाम": 5364,
    "अस्पतालों": 5365,
    "कड़": 5366,
    "तत्वों": 5367,
    "जाओ": 5368,
    "पकड़े": 5369,
    "दर्शक": 5370,
    "वर्गी": 5371,
    "वर्गीय": 5372,
    "लांग": 5373,
    "दुर्गा": 5374,
    "अनुरूप": 5375,
    "पंप": 5376,
    "सांसदों": 5377,
    "है.’": 5378,
    "बिहारी": 5379,
    "एक-एक": 5380,
    "यूनिट": 5381,
    "शिशु": 5382,
    "राकेश": 5383,
    "संग्रह": 5384,
    "रवै": 5385,
    "सका।": 5386,
    "मास": 5387,
    "संपादक": 5388,
    "जीवित": 5389,
    "घट": 5390,
    "इंच": 5391,
    "हजारे": 5392,
    "चीज़": 5393,
    "चरणों": 5394,
    "गुणवत्ता": 5395,
    "बनते": 5396,
    "दबंग": 5397,
    "सवालों": 5398,
    "टुक": 5399,
    "आतंकि": 5400,
    "आतंकियों": 5401,
    "दश": 5402,
    "खै": 5403,
    "लेंडर": 5404,
    "शॉ": 5405,
    "the": 5406,
    "लायंस": 5407,
    "मछ": 5408,
    "प्रदर्शित": 5409,
    "साक्षात्कार": 5410,
    "वैसी": 5411,
    "तस्वीरों": 5412,
    "ड्डी": 5413,
    "बढ़ोतरी": 5414,
    "नवीन": 5415,
    "साहस": 5416,
    "सिलसिले": 5417,
    "नक्सलियों": 5418,
    "हुए.": 5419,
    "दुश्मन": 5420,
    "कही।": 5421,
    "गोरख": 5422,
    "टाई": 5423,
    "बरसात": 5424,
    "आतंकवादियों": 5425,
    "ढाई": 5426,
    "ओलं": 5427,
    "ओलंपिक": 5428,
    "प्रवृत्ति": 5429,
    "बालक": 5430,
    "अड्": 5431,
    "अड्डे": 5432,
    "प्रतीक्षा": 5433,
    "हुई.": 5434,
    "उजागर": 5435,
    "अस्तित्व": 5436,
    "निकली": 5437,
    "एनएस": 5438,
    "रथ": 5439,
    "तब्दी": 5440,
    "विद्यार्थी": 5441,
    "ंत्रिक": 5442,
    "आधे": 5443,
    "भी।": 5444,
    "आशीर्": 5445,
    "आशीर्वाद": 5446,
    "बैठकर": 5447,
    "ब्लॉक": 5448,
    "पर्सन": 5449,
    "गार्ड": 5450,
    "कटौती": 5451,
    "गेम": 5452,
    "बनता": 5453,
    "ेद": 5454,
    "इंजीनियर": 5455,
    "प्रयासों": 5456,
    "नकदी": 5457,
    "इन्हीं": 5458,
    "यादव,": 5459,
    "ऊंची": 5460,
    "नतीजा": 5461,
    "खेतों": 5462,
    "जारा": 5463,
    "साथियों": 5464,
    "स्नातक": 5465,
    "सराहना": 5466,
    "दरवाजा": 5467,
    "कमिश्": 5468,
    "कुशल": 5469,
    "आश्वासन": 5470,
    "सके.": 5471,
    "ग्लोबल": 5472,
    "विस्फोट": 5473,
    "निर्देशक": 5474,
    "बीस": 5475,
    "ड्य": 5476,
    "चने": 5477,
    "जिम": 5478,
    "मिलेगी": 5479,
    "चेतना": 5480,
    "बहरहा": 5481,
    "दाद": 5482,
    "ch": 5483,
    "जाट": 5484,
    "दिलीप": 5485,
    "ंगों": 5486,
    "बरी": 5487,
    "वास्तविक": 5488,
    "No": 5489,
    "जातीय": 5490,
    "शौक": 5491,
    "ल्ट": 5492,
    "सार्थ": 5493,
    "सार्थक": 5494,
    "मैनेजर": 5495,
    "हैंड": 5496,
    "ब्रेक": 5497,
    "धूप": 5498,
    "प्रता": 5499,
    "रिश्ता": 5500,
    "सेटिंग्स": 5501,
    "पाली": 5502,
    "हैं!": 5503,
    "प्शन": 5504,
    "स्वर्ग": 5505,
    "हमलों": 5506,
    "टी.": 5507,
    "लीन": 5508,
    "प्रभु": 5509,
    "पर्दे": 5510,
    "न्वयन": 5511,
    "जितने": 5512,
    "पेय": 5513,
    "सर्वाधिक": 5514,
    "गली": 5515,
    "प्टर": 5516,
    "s:": 5517,
    "कार्या": 5518,
    "मानवीय": 5519,
    "ex": 5520,
    "पत्रकारिता": 5521,
    "370": 5522,
    "रूर": 5523,
    "हिन्दु": 5524,
    "भरपूर": 5525,
    "वार्ष": 5526,
    "वार्षिक": 5527,
    "भीड़": 5528,
    "कांत": 5529,
    "वेल": 5530,
    "गणेश": 5531,
    "मुँ": 5532,
    "मुँह": 5533,
    "सलाहकार": 5534,
    "गिनती": 5535,
    "जाएगा,": 5536,
    "हाजि": 5537,
    "हिंदुस्तान": 5538,
    "क्रोध": 5539,
    "पद्ध": 5540,
    "सरस्व": 5541,
    "सरस्वती": 5542,
    "महावीर": 5543,
    "स्रोत": 5544,
    "करेगी": 5545,
    "भाल": 5546,
    "पाठी": 5547,
    "लड़के": 5548,
    "अभिव्यक्ति": 5549,
    "-20": 5550,
    "अतः": 5551,
    "सेहत": 5552,
    "छाया": 5553,
    "जाये।": 5554,
    "देशा": 5555,
    "\"मैं": 5556,
    "जिसमे": 5557,
    "बूझ": 5558,
    "समय-समय": 5559,
    "द्दा": 5560,
    "गिल": 5561,
    "बढ़ाने": 5562,
    "स्पद": 5563,
    "जैसे-": 5564,
    "फैल": 5565,
    "सतीश": 5566,
    "समर्पित": 5567,
    "कार्यशाला": 5568,
    "जनहित": 5569,
    "पागल": 5570,
    "अपने-": 5571,
    "अपने-अपने": 5572,
    "गुस्सा": 5573,
    "सोल": 5574,
    "चालन": 5575,
    "लड़ा": 5576,
    "बेस्ट": 5577,
    "अपमान": 5578,
    "गयी.": 5579,
    "एजेंसियों": 5580,
    "आंगन": 5581,
    "पक्षों": 5582,
    "तैयारियों": 5583,
    "समस्याएं": 5584,
    "लेखन": 5585,
    "फीट": 5586,
    "छोड़ने": 5587,
    "रोशन": 5588,
    "इंस": 5589,
    "रिहा": 5590,
    "कूद": 5591,
    "गुरू": 5592,
    "चोर": 5593,
    "उग्र": 5594,
    "उद्य": 5595,
    "पाना": 5596,
    "चैनलों": 5597,
    "बसों": 5598,
    "बैठने": 5599,
    "आजाद": 5600,
    "ट्रैफिक": 5601,
    "यड": 5602,
    "कोड": 5603,
    "उठाना": 5604,
    "सांप्रदायिक": 5605,
    "संस्कार": 5606,
    "कहानि": 5607,
    "जटिल": 5608,
    "आदिवासी": 5609,
    "ख्ता": 5610,
    "भंड": 5611,
    "गणना": 5612,
    "लोकता": 5613,
    "ंधा": 5614,
    "सदै": 5615,
    "सदैव": 5616,
    "दया": 5617,
    "पाठकों": 5618,
    "गड़": 5619,
    "नें": 5620,
    "पूर्ति": 5621,
    "आलम": 5622,
    "प्रस्तुति": 5623,
    "आवाज़": 5624,
    "बैंकिंग": 5625,
    "ऑफर": 5626,
    "दबा": 5627,
    "दरों": 5628,
    "सोसायटी": 5629,
    "है।\"": 5630,
    "सीडी": 5631,
    "कनाडा": 5632,
    "कम्पनी": 5633,
    "रोहित": 5634,
    "महाविद्यालय": 5635,
    "काफ़ी": 5636,
    "चम": 5637,
    "बोझ": 5638,
    "चिकित्सकों": 5639,
    "जख्": 5640,
    "बहुमत": 5641,
    "बीएसई": 5642,
    "बिंदु": 5643,
    "कुमारी": 5644,
    "ंगना": 5645,
    "श्रद्धालुओं": 5646,
    "हस्त": 5647,
    "पीएच": 5648,
    "जागरूकता": 5649,
    "सुष": 5650,
    "सुषमा": 5651,
    "खुली": 5652,
    "बाजों": 5653,
    "सुर्": 5654,
    "बेंगल": 5655,
    "सेंट्र": 5656,
    "सेंट्रल": 5657,
    "समन्व": 5658,
    "देहरादून": 5659,
    "पुष्": 5660,
    "स्वराज": 5661,
    "पीछा": 5662,
    "वण": 5663,
    "श्रद्धांजलि": 5664,
    "फायरिंग": 5665,
    "ala": 5666,
    "42": 5667,
    "पाठक": 5668,
    "साहिब": 5669,
    "शिवा": 5670,
    "खेलते": 5671,
    "मनोहर": 5672,
    "59": 5673,
    "उपन्यास": 5674,
    "लाह": 5675,
    "72": 5676,
    "भारतीयों": 5677,
    "अधू": 5678,
    "or": 5679,
    "खातों": 5680,
    "पचा": 5681,
    "पचास": 5682,
    "त्याग": 5683,
    "प्रका": 5684,
    "99": 5685,
    "ber": 5686,
    "स्थी": 5687,
    "राष्‍ट्र": 5688,
    "सुशील": 5689,
    "बॉडी": 5690,
    "150": 5691,
    "बेट": 5692,
    "उच्चतम": 5693,
    "हों,": 5694,
    "चम्": 5695,
    "इंटरनेशनल": 5696,
    "मूल्यों": 5697,
    "महोत्सव": 5698,
    "हर्ष": 5699,
    "ठोस": 5700,
    "हाथी": 5701,
    "पंजीकृत": 5702,
    "पाये": 5703,
    "बहाने": 5704,
    "फ़ा": 5705,
    "एडि": 5706,
    "चौथा": 5707,
    "अख्": 5708,
    "करीना": 5709,
    "करेंइसे": 5710,
    "तित": 5711,
    "मिंग": 5712,
    "उपचुनाव": 5713,
    "जानें": 5714,
    "करेंगे.": 5715,
    "राजेंद्र": 5716,
    "TwitterShare": 5717,
    "FacebookShare": 5718,
    "हेज": 5719,
    "वोटर": 5720,
    "टिप्पण": 5721,
    "प्रस्तुतकर्ता": 5722,
    "धाम": 5723,
    "हिद": 5724,
    "चर्स": 5725,
    "अपडेट": 5726,
    "उत्सव": 5727,
    "अक्षय": 5728,
    "स्पर्धा": 5729,
    "दाश्त": 5730,
    "कैश": 5731,
    "कुंड": 5732,
    "पड़ो": 5733,
    "किराए": 5734,
    "जाएगी.": 5735,
    "वसूली": 5736,
    "बताता": 5737,
    "झूठ": 5738,
    "जाएगी": 5739,
    "जादू": 5740,
    "ईमानदारी": 5741,
    "गहरे": 5742,
    "कॉले": 5743,
    "कॉलेजों": 5744,
    "ब्रांड": 5745,
    "यानों": 5746,
    "परिस्थितियों": 5747,
    "संहिता": 5748,
    "लपुर": 5749,
    "्यु": 5750,
    "गेंदों": 5751,
    "आस्था": 5752,
    "अत्यधिक": 5753,
    "लिया,": 5754,
    "इंस्पे": 5755,
    "इंस्पेक्टर": 5756,
    "वचन": 5757,
    "अभियं": 5758,
    "लौटे": 5759,
    "अधिकतम": 5760,
    "जिलाध्यक्ष": 5761,
    "राधा": 5762,
    "को-": 5763,
    "ओम": 5764,
    "सहमत": 5765,
    "ऋषि": 5766,
    "विषयों": 5767,
    "फर्क": 5768,
    "इकट्": 5769,
    "विनय": 5770,
    "प्रबंधक": 5771,
    "मिले।": 5772,
    "वैध": 5773,
    "दृष्टिकोण": 5774,
    "मुहिम": 5775,
    "शौचा": 5776,
    "वीजा": 5777,
    "जिंदा": 5778,
    "आहार": 5779,
    "दायि": 5780,
    "दायित्व": 5781,
    "सूख": 5782,
    "जूझ": 5783,
    "नारी": 5784,
    "रिलायंस": 5785,
    "पूर्वक": 5786,
    "वाराण": 5787,
    "वाराणसी": 5788,
    "केंड": 5789,
    "नक्सली": 5790,
    "केंद्रों": 5791,
    "कैसी": 5792,
    "करो।": 5793,
    "दीक्षित": 5794,
    "फाइ": 5795,
    "श्या": 5796,
    "बढ़ी": 5797,
    "प्लांट": 5798,
    "फेंक": 5799,
    "साउथ": 5800,
    "लौटने": 5801,
    "फॉर": 5802,
    "बेडकर": 5803,
    "सभ": 5804,
    "सभ्य": 5805,
    "क्चर": 5806,
    "मलिक": 5807,
    "भजन": 5808,
    "विशेषता": 5809,
    "एकता": 5810,
    "मारकर": 5811,
    "संदेह": 5812,
    "तियां": 5813,
    "परिजन": 5814,
    "पेट्रो": 5815,
    "तलाशी": 5816,
    "फायर": 5817,
    "खेलों": 5818,
    "हों।": 5819,
    "पाया।": 5820,
    "योग्यता": 5821,
    "चपेट": 5822,
    "जिलाधिकारी": 5823,
    "प्‍": 5824,
    "मनोर": 5825,
    "मनोरंजन": 5826,
    "बढ़े": 5827,
    "मंशा": 5828,
    "पाइप": 5829,
    "रैंक": 5830,
    "देखे": 5831,
    "कतार": 5832,
    "बोल्ड": 5833,
    "प्रतिष्ठ": 5834,
    "आयात": 5835,
    "छाड़": 5836,
    "हीन": 5837,
    "कस्बे": 5838,
    "आस्ट्रेलिया": 5839,
    "साम्राज्य": 5840,
    "इजरा": 5841,
    "बनाया।": 5842,
    "दक्षिणी": 5843,
    "विशेषज्ञों": 5844,
    "नामी": 5845,
    "सफेद": 5846,
    "इनसे": 5847,
    "है;": 5848,
    "पंक्ति": 5849,
    "गाजिया": 5850,
    "कैप्": 5851,
    "पोस्टर": 5852,
    "हरि": 5853,
    "वाणि": 5854,
    "वाणिज्य": 5855,
    "कांग्रेसी": 5856,
    "सीधा": 5857,
    "ग्रो": 5858,
    "सेवक": 5859,
    "सहकारी": 5860,
    "थक": 5861,
    "जताया": 5862,
    "गड": 5863,
    "नागपुर": 5864,
    "परमा": 5865,
    "परमात्मा": 5866,
    "पाए।": 5867,
    "राज्‍य": 5868,
    "गीतों": 5869,
    "भाभी": 5870,
    "मतदाताओं": 5871,
    "पंथी": 5872,
    "टके": 5873,
    "जोरदार": 5874,
    "खियों": 5875,
    "ऊँ": 5876,
    "संजीव": 5877,
    "घाट": 5878,
    "पीली": 5879,
    "माद": 5880,
    "खासकर": 5881,
    "व्यक्तित्व": 5882,
    "हँ": 5883,
    "न्दगी": 5884,
    "दिसम्": 5885,
    "दिसम्बर": 5886,
    "सुरेश": 5887,
    "२०": 5888,
    "41": 5889,
    "46": 5890,
    "47": 5891,
    "ईसा": 5892,
    "52": 5893,
    "पढ़ा": 5894,
    "फर्": 5895,
    "omment": 5896,
    "84": 5897,
    "मायने": 5898,
    "लोकप्रियता": 5899,
    "हिमालय": 5900,
    "डेवल": 5901,
    "अगुवाई": 5902,
    "हार्दिक": 5903,
    "बोध": 5904,
    "वर्धन": 5905,
    "क्रमा": 5906,
    "निरपेक्ष": 5907,
    "दीजिए": 5908,
    "प्रवी": 5909,
    "प्रवीण": 5910,
    "दरबार": 5911,
    "उलझ": 5912,
    "बोतल": 5913,
    "and": 5914,
    "एफआई": 5915,
    "विड": 5916,
    "पेयजल": 5917,
    "el": 5918,
    "चांद": 5919,
    "लिन": 5920,
    "निर्देशित": 5921,
    "किशोर": 5922,
    "नर्म": 5923,
    "कोयले": 5924,
    "स्टार्": 5925,
    "ric": 5926,
    "exp": 5927,
    "ien": 5928,
    "कड़ी": 5929,
    "उम्मीदवारों": 5930,
    "मजेदार": 5931,
    "किताबों": 5932,
    "तारा": 5933,
    "महत्त्व": 5934,
    "नाई": 5935,
    "बाधा": 5936,
    "तोड़": 5937,
    "रजनी": 5938,
    "भुत": 5939,
    "नाश": 5940,
    "लाइव": 5941,
    "सबकी": 5942,
    "गुस्से": 5943,
    "होंगे.": 5944,
    "फैक्": 5945,
    "फैक्ट्री": 5946,
    "अग्": 5947,
    "अका": 5948,
    "कुत्": 5949,
    "घि": 5950,
    "स्कूली": 5951,
    "अनुदान": 5952,
    "600": 5953,
    "जानना": 5954,
    "दिखने": 5955,
    "मजबूती": 5956,
    "दायरे": 5957,
    "सम्रा": 5958,
    "सम्राट": 5959,
    "अमल": 5960,
    "बाधित": 5961,
    "बनाता": 5962,
    "बचत": 5963,
    "पद्धति": 5964,
    "कैच": 5965,
    "आला": 5966,
    "कामकाज": 5967,
    "खासी": 5968,
    "आगमन": 5969,
    "देशी": 5970,
    "त्रिपाठी": 5971,
    "अतिक्रमण": 5972,
    "उपायों": 5973,
    "मिनी": 5974,
    "पीडि़": 5975,
    "कश्मीरी": 5976,
    "ई-": 5977,
    "रिक्": 5978,
    "अध्यापक": 5979,
    "यूपीए": 5980,
    "भिक": 5981,
    "ढूं": 5982,
    "पाट": 5983,
    "आमद": 5984,
    "समर्पण": 5985,
    "इए": 5986,
    "यूरोप": 5987,
    "करना।": 5988,
    "राज्यमंत्री": 5989,
    "फ्टी": 5990,
    "पनों": 5991,
    "बताती": 5992,
    "संपूर्ण": 5993,
    "राजू": 5994,
    "दो-": 5995,
    "सकेगा।": 5996,
    "आलोक": 5997,
    "स्वभाव": 5998,
    "गणित": 5999,
    "इंकार": 6000,
    "ट्रस्ट": 6001,
    "राजनाथ": 6002,
    "सेंट": 6003,
    "स्टल": 6004,
    "रिश्तों": 6005,
    "मस": 6006,
    "भंग": 6007,
    "न्ने": 6008,
    "इसलिये": 6009,
    "नीत": 6010,
    "उड़ा": 6011,
    "कच्चे": 6012,
    "प्रया": 6013,
    "पंजीकरण": 6014,
    "हुसैन": 6015,
    "र्घ": 6016,
    "डालर": 6017,
    "भरोसे": 6018,
    "टकरा": 6019,
    "इस्लाम": 6020,
    "कवर": 6021,
    "इश्": 6022,
    "किशोरी": 6023,
    "ंचल": 6024,
    "जदयू": 6025,
    "क्रय": 6026,
    "वादे": 6027,
    "बसे": 6028,
    "जुड़े": 6029,
    "त्यौ": 6030,
    "त्यौहार": 6031,
    "लेंगे": 6032,
    "ब्रांच": 6033,
    "सरा": 6034,
    "धव": 6035,
    "पुत्री": 6036,
    "लस": 6037,
    "फ्रांस": 6038,
    "क्य": 6039,
    "गोप": 6040,
    "नमू": 6041,
    "मोर्चे": 6042,
    "ख़ि": 6043,
    "भी.": 6044,
    "लहर": 6045,
    "किरण": 6046,
    "लोकतांत्रिक": 6047,
    "पैठ": 6048,
    "अल्पसंख्यक": 6049,
    "शीला": 6050,
    "सियत": 6051,
    "चौथी": 6052,
    "डिस्": 6053,
    "कमजो": 6054,
    "घटनाएं": 6055,
    "जोड़ने": 6056,
    "सशक्त": 6057,
    "यूजर": 6058,
    "म्यूजिक": 6059,
    "शर्मा,": 6060,
    "आसन": 6061,
    "नायडू": 6062,
    "आँखों": 6063,
    "एसएसपी": 6064,
    "क्ल": 6065,
    "बेकार": 6066,
    "ऊपरी": 6067,
    "लघु": 6068,
    "फिट": 6069,
    "विद्वान": 6070,
    "प्पा": 6071,
    "ओपी": 6072,
    "हमू": 6073,
    "हमूद": 6074,
    "डूब": 6075,
    "ग्रं": 6076,
    "ग्रंथ": 6077,
    "गाँधी": 6078,
    "शुभार": 6079,
    "शुभारंभ": 6080,
    "ब्यूरो": 6081,
    "नीला": 6082,
    "प्रोत्सा": 6083,
    "प्रोत्साहन": 6084,
    "कॉर्": 6085,
    "करों": 6086,
    "सीबी": 6087,
    "मिकों": 6088,
    "पेड़": 6089,
    "धरना": 6090,
    "बरे": 6091,
    "बरेली": 6092,
    "बैग": 6093,
    "एसडीएम": 6094,
    "शैक्ष": 6095,
    "शैक्षिक": 6096,
    "महादेव": 6097,
    "ऑपरेशन": 6098,
    "महानि": 6099,
    "ग्वालि": 6100,
    "ग्वालियर": 6101,
    "कमिश्नर": 6102,
    "रिश्वत": 6103,
    "सरपंच": 6104,
    "करवाई": 6105,
    "जूनियर": 6106,
    "यूनियन": 6107,
    "कनेक्शन": 6108,
    "पीड़िता": 6109,
    "हस्तक्षे": 6110,
    "हस्तक्षेप": 6111,
    "खुलने": 6112,
    "आत्मा": 6113,
    "लिहाजा": 6114,
    "उंग": 6115,
    "दंप": 6116,
    "संगम": 6117,
    "लिहाज": 6118,
    "तुलसी": 6119,
    "१०": 6120,
    "भूख": 6121,
    "स्थलों": 6122,
    "देंगे.": 6123,
    "63": 6124,
    "चुने": 6125,
    "संतुष्ट": 6126,
    "इंजीनिय": 6127,
    "इंजीनियरिंग": 6128,
    "सौदे": 6129,
    "87": 6130,
    "प्रकाशन": 6131,
    "भयं": 6132,
    "भयंकर": 6133,
    "एन.": 6134,
    "हेल्थ": 6135,
    "डेस्क": 6136,
    "प्रीमि": 6137,
    "4.": 6138,
    "दर्जन": 6139,
    "अंकित": 6140,
    "गां": 6141,
    "अपराधों": 6142,
    "रोगी": 6143,
    "मेट": 6144,
    "ओडि": 6145,
    "ओडिशा": 6146,
    "दफ्": 6147,
    "दफ्तर": 6148,
    "कानूनों": 6149,
    "टिकल": 6150,
    "स्ट्रेशन": 6151,
    "एकल": 6152,
    "अखिल": 6153,
    "मेजर": 6154,
    "गारंटी": 6155,
    "वेस्टइंडीज": 6156,
    "पहुँचा": 6157,
    "लव": 6158,
    "दांत": 6159,
    "स्टैंड": 6160,
    "ro": 6161,
    "हुई,": 6162,
    "आकर्षण": 6163,
    "खरे": 6164,
    "सस्ते": 6165,
    "अख्तर": 6166,
    "रहें।": 6167,
    "हं": 6168,
    "निर्वाचित": 6169,
    "विवेक": 6170,
    "उपस्थिति": 6171,
    "सी.": 6172,
    "बटन": 6173,
    "आलू": 6174,
    "कच": 6175,
    "भेंट": 6176,
    "सोनम": 6177,
    "ज़ा": 6178,
    "उपयोगी": 6179,
    "सर्जरी": 6180,
    "शिवसेना": 6181,
    "शाहिद": 6182,
    "उन्‍हें": 6183,
    "सेंसेक्स": 6184,
    "गिरी": 6185,
    "सोचते": 6186,
    "चाहिये।": 6187,
    "अपनाने": 6188,
    "ेंगे.": 6189,
    "इलेक्ट्रिक": 6190,
    "पार्टनर": 6191,
    "इंतजाम": 6192,
    "संवैधानिक": 6193,
    "औरत": 6194,
    "जायेगा": 6195,
    "सिर्फ़": 6196,
    "टाल": 6197,
    "दोनो": 6198,
    "सौदा": 6199,
    "विभाजन": 6200,
    "सीधी": 6201,
    "मांगों": 6202,
    "तीत": 6203,
    "डाटा": 6204,
    "रोकना": 6205,
    "समानता": 6206,
    "कष्ट": 6207,
    "जानबूझ": 6208,
    "जायजा": 6209,
    "संक्रमण": 6210,
    "मिला,": 6211,
    "अनियमित": 6212,
    "अनुप": 6213,
    "लियो": 6214,
    "कविताओं": 6215,
    "कश्य": 6216,
    "कश्यप": 6217,
    "थोड़े": 6218,
    "कड़ा": 6219,
    "अनंत": 6220,
    "पड़ा।": 6221,
    "प्राण": 6222,
    "जाएँ": 6223,
    "से।": 6224,
    "सना": 6225,
    "टाइप": 6226,
    "तेरे": 6227,
    "उपाध्या": 6228,
    "उपाध्याय": 6229,
    "गंग": 6230,
    "डियों": 6231,
    "आध्या": 6232,
    "वरना": 6233,
    "गर्भ": 6234,
    "प्रो.": 6235,
    "पाँच": 6236,
    "मानवा": 6237,
    "खैर": 6238,
    "फेर": 6239,
    "जानकर": 6240,
    "आंगनबा": 6241,
    "टेबल": 6242,
    "दस्तावे": 6243,
    "मेक": 6244,
    "मूर्": 6245,
    "जी.": 6246,
    "सेबी": 6247,
    "स्त्रियों": 6248,
    "संयोजक": 6249,
    "बचे": 6250,
    "सबक": 6251,
    "इंग": 6252,
    "गों": 6253,
    "ंसि": 6254,
    "नितिन": 6255,
    "सीने": 6256,
    "दिलाया": 6257,
    "कोप": 6258,
    "व्यापारियों": 6259,
    "चन्द्र": 6260,
    "अरे": 6261,
    "तो,": 6262,
    "सीरिया": 6263,
    "नसी": 6264,
    "संरचना": 6265,
    "दुकानों": 6266,
    "गाव": 6267,
    "सहारे": 6268,
    "अश्विन": 6269,
    "र्व": 6270,
    "ऑल": 6271,
    "अभियंता": 6272,
    "हट": 6273,
    "चौराहे": 6274,
    "रोडवेज": 6275,
    "निशाने": 6276,
    "विरासत": 6277,
    "डिप्टी": 6278,
    "2006": 6279,
    "सौर": 6280,
    "हो?": 6281,
    "कैंप": 6282,
    "दहशत": 6283,
    "रोटी": 6284,
    "तड़": 6285,
    "गाड़": 6286,
    "वंश": 6287,
    "हावी": 6288,
    "डबल": 6289,
    "रम": 6290,
    "पूनम": 6291,
    "समृ": 6292,
    "तब्दील": 6293,
    "चोपड़ा": 6294,
    "निर्धारण": 6295,
    "राक": 6296,
    "आएगी।": 6297,
    "बजाए": 6298,
    "लगा.": 6299,
    "िंग": 6300,
    "सॉफ्टवेयर": 6301,
    "सैफ": 6302,
    "स्वाभा": 6303,
    "स्वाभाविक": 6304,
    "मसा": 6305,
    "है:": 6306,
    "प्रोफाइल": 6307,
    "सरदार": 6308,
    "शिल्": 6309,
    "हेली": 6310,
    "भागवत": 6311,
    "सप्": 6312,
    "सप्लाई": 6313,
    "समर्थक": 6314,
    "बस्ती": 6315,
    "छेड़": 6316,
    "छेड़छाड़": 6317,
    "टिफि": 6318,
    "रावत": 6319,
    "जिनसे": 6320,
    "संग्र": 6321,
    "टाइम": 6322,
    "दशा": 6323,
    "निस": 6324,
    "जरुरत": 6325,
    "घाय": 6326,
    "घायलों": 6327,
    "बालिका": 6328,
    "ससु": 6329,
    "ससुराल": 6330,
    "ट्रैक": 6331,
    "इनाम": 6332,
    "बी.": 6333,
    "झेल": 6334,
    "ष्य": 6335,
    "निश्चय": 6336,
    "प्रोसे": 6337,
    "हिंदुओं": 6338,
    "ुति": 6339,
    "कार्यो": 6340,
    "सून": 6341,
    "क्रमश": 6342,
    "चैम्": 6343,
    "धीन": 6344,
    "ब्लाक": 6345,
    "सीखने": 6346,
    "खड़ा": 6347,
    "काटने": 6348,
    "रैंकिंग": 6349,
    "होंगी।": 6350,
    "कार्बन": 6351,
    "याता": 6352,
    "यातायात": 6353,
    "बुलंद": 6354,
    "क्षिप्त": 6355,
    "जख्मी": 6356,
    "ड्रे": 6357,
    "जगदी": 6358,
    "जगदीश": 6359,
    "उपकरणों": 6360,
    "भागने": 6361,
    "बोट": 6362,
    "फोकस": 6363,
    "मेहता": 6364,
    "बारह": 6365,
    "ब्लू": 6366,
    "उपह": 6367,
    "उपहार": 6368,
    "उपेक्षा": 6369,
    "तुमने": 6370,
    "सतर्": 6371,
    "सतर्कता": 6372,
    "कैप्टन": 6373,
    "पूछने": 6374,
    "मौजूदगी": 6375,
    "शोर": 6376,
    "सुर्खियों": 6377,
    "सैं": 6378,
    "पुरू": 6379,
    "पुरूष": 6380,
    "उधर,": 6381,
    "जाज": 6382,
    "राजमार्ग": 6383,
    "बंबई": 6384,
    "ड्रि": 6385,
    "छान": 6386,
    "हैं।'": 6387,
    "निर्मल": 6388,
    "पीपी": 6389,
    "चौं": 6390,
    "व्हाइट": 6391,
    "राउंड": 6392,
    "नवाज": 6393,
    "आक्रा": 6394,
    "Amar": 6395,
    "jala": 6396,
    "पीजी": 6397,
    "करीबन": 6398,
    "लक्ष्मण": 6399,
    "फूलों": 6400,
    "देय": 6401,
    "120": 6402,
    "सौंपी": 6403,
    "सम्पूर्ण": 6404,
    "43": 6405,
    "Jan": 6406,
    "पोर्टल": 6407,
    "66": 6408,
    "बने।": 6409,
    "सऊ": 6410,
    "सऊदी": 6411,
    "1998": 6412,
    "घूमने": 6413,
    "सीता": 6414,
    "चलन": 6415,
    "अनुकूल": 6416,
    "अधीन": 6417,
    "बुद्धि": 6418,
    "लेखा": 6419,
    "ंदे": 6420,
    "किताबें": 6421,
    "मांगा": 6422,
    "3.": 6423,
    "लाभार्": 6424,
    "टैब": 6425,
    "डालकर": 6426,
    "डेवलप": 6427,
    "हराकर": 6428,
    "महर्ष": 6429,
    "महर्षि": 6430,
    "सरो": 6431,
    "रूख": 6432,
    "तस्कर": 6433,
    "छिपा": 6434,
    "कार्यकार": 6435,
    "कार्यकारि": 6436,
    "कार्यकारिणी": 6437,
    "il": 6438,
    "तरित": 6439,
    "on:": 6440,
    "कांस्टे": 6441,
    "केंद्रित": 6442,
    "एम.": 6443,
    "नवीनतम": 6444,
    "नित": 6445,
    "सम्बन्ध": 6446,
    "घातक": 6447,
    "बहू": 6448,
    "संध्या": 6449,
    "ंडो": 6450,
    "ated": 6451,
    "नर्मदा": 6452,
    "आंकड़ों": 6453,
    "ताज": 6454,
    "richer": 6455,
    "exper": 6456,
    "experien": 6457,
    "experience": 6458,
    "mob": 6459,
    "mobi": 6460,
    "mobile": 6461,
    "app!": 6462,
    "ठिका": 6463,
    "सेवानि": 6464,
    "पहने": 6465,
    "‘मैं": 6466,
    "अर्चना": 6467,
    "आक्रमण": 6468,
    "कैलाश": 6469,
    "नदियों": 6470,
    "फीचर्स": 6471,
    "अकबर": 6472,
    "पारं": 6473,
    "पारंपरिक": 6474,
    "जाँच": 6475,
    "रेंज": 6476,
    "ट्रेलर": 6477,
    "कीजिए": 6478,
    "बैटरी": 6479,
    "बराब": 6480,
    "बराबरी": 6481,
    "कारगर": 6482,
    "बचाना": 6483,
    "पड़ोसी": 6484,
    "चलकर": 6485,
    "चूक": 6486,
    "सटी": 6487,
    "सटीक": 6488,
    "निराशा": 6489,
    "थोड़ा": 6490,
    "प्रगतिशील": 6491,
    "बस्तर": 6492,
    "रसा": 6493,
    "दार्": 6494,
    "रहा,": 6495,
    "करेंगे,": 6496,
    "अत्या": 6497,
    "चाहा": 6498,
    "नेहा": 6499,
    "कराना": 6500,
    "खाद": 6501,
    "तले": 6502,
    "सकती।": 6503,
    "रणबीर": 6504,
    "टित": 6505,
    "चोरों": 6506,
    "विजन": 6507,
    "बाजारों": 6508,
    "रोगों": 6509,
    "ई.": 6510,
    "ध्व": 6511,
    "पचारिक": 6512,
    "छोटे-": 6513,
    "गर्भव": 6514,
    "गर्भवती": 6515,
    "करने,": 6516,
    "अर्जी": 6517,
    "गतिविधियां": 6518,
    "अधिसूचना": 6519,
    "खिलाड़ियों": 6520,
    "सपोर्ट": 6521,
    "अवगत": 6522,
    "छेद": 6523,
    "मैसे": 6524,
    "मैसेज": 6525,
    "ंभिक": 6526,
    "समाप्ति": 6527,
    "व्यास": 6528,
    "वश": 6529,
    "संवाददाताओं": 6530,
    "इकट्ठा": 6531,
    "करेंगी।": 6532,
    "राजस्थानी": 6533,
    "प्रमोशन": 6534,
    "सुधारों": 6535,
    "आपत्तिजनक": 6536,
    "वर्णन": 6537,
    "उत्तरी": 6538,
    "कृप": 6539,
    "कृपया": 6540,
    "चौके": 6541,
    "शौचालय": 6542,
    "लेनदेन": 6543,
    "हूँ,": 6544,
    "सम्बंध": 6545,
    "कुलपति": 6546,
    "लिटी": 6547,
    "उठाते": 6548,
    "सबू": 6549,
    "इस्लामा": 6550,
    "शियल": 6551,
    "बेस": 6552,
    "जोड़ी": 6553,
    "एससी": 6554,
    "शोषण": 6555,
    "वोटिंग": 6556,
    "पेड": 6557,
    "एडमिशन": 6558,
    "मिलेगा": 6559,
    "कालोनी": 6560,
    "कलर": 6561,
    "कामों": 6562,
    "मिया": 6563,
    "पड़ेगा।": 6564,
    "व्याख्या": 6565,
    "भेजे": 6566,
    "संज्ञान": 6567,
    "योजन": 6568,
    "प्रोत्साहित": 6569,
    "मानो": 6570,
    "हथियारों": 6571,
    "बराक": 6572,
    "अहं": 6573,
    "रेड्डी": 6574,
    "वर्गों": 6575,
    "हराने": 6576,
    "दीर्घ": 6577,
    "न्यूयॉ": 6578,
    "न्यूयॉर्क": 6579,
    "ट्रेड": 6580,
    "प्रदर्शनी": 6581,
    "जेटली": 6582,
    "लिए.": 6583,
    "लगाव": 6584,
    "मुआवजा": 6585,
    "टाइगर": 6586,
    "अहमदाबाद": 6587,
    "ट्यूट": 6588,
    "जडे": 6589,
    "जडेजा": 6590,
    "स्थाना": 6591,
    "पराजित": 6592,
    "पोषक": 6593,
    "पेट्रोलियम": 6594,
    "ठान": 6595,
    "टीआई": 6596,
    "हिस्सेदारी": 6597,
    "डी.": 6598,
    "आक्रो": 6599,
    "आक्रोश": 6600,
    "घटनास्थल": 6601,
    "कोने": 6602,
    "जाधव": 6603,
    "मिसाल": 6604,
    "स्मार": 6605,
    "स्मारक": 6606,
    "बांटने": 6607,
    "मंडी": 6608,
    "गेम्स": 6609,
    "विजयी": 6610,
    "रही.": 6611,
    "मस्ती": 6612,
    "रहकर": 6613,
    "ढ़े": 6614,
    "विडियो": 6615,
    "कामयाबी": 6616,
    "पाएंगे।": 6617,
    "ट्रांसफर": 6618,
    "जिट": 6619,
    "दीवारों": 6620,
    "एक्टर": 6621,
    "खरीदा": 6622,
    "सब्जी": 6623,
    "बृह": 6624,
    "बृहस्": 6625,
    "बृहस्पति": 6626,
    "गोरखपुर": 6627,
    "आरएसएस": 6628,
    "गौरव": 6629,
    "आरबीआई": 6630,
    "संभावित": 6631,
    "व्‍य": 6632,
    "पैरों": 6633,
    "शत्रु": 6634,
    "खुलकर": 6635,
    "उमर": 6636,
    "इजरायल": 6637,
    "नोए": 6638,
    "नोएडा": 6639,
    "लिखा,": 6640,
    "दिव्या": 6641,
    "मुखि": 6642,
    "मुखिया": 6643,
    "ऑर्डर": 6644,
    "कयास": 6645,
    "झूठे": 6646,
    "रु.": 6647,
    "श्रद्धालु": 6648,
    "सब्जि": 6649,
    "3-": 6650,
    "ग्यार": 6651,
    "ग्यारह": 6652,
    "कदमों": 6653,
    "बैंड": 6654,
    "महमूद": 6655,
    "नृ": 6656,
    "मिलियन": 6657,
    "पिक्स": 6658,
    "पिक्सल": 6659,
    "उत्साहित": 6660,
    "बिता": 6661,
    "मूड": 6662,
    "प्रच": 6663,
    "वामा": 6664,
    "आईसी": 6665,
    "एसएमएस": 6666,
    "हाजिर": 6667,
    "नीलामी": 6668,
    "जिंग": 6669,
    "आएंगे": 6670,
    "ग्रीन": 6671,
    "नुक्": 6672,
    "गीता": 6673,
    "रमन": 6674,
    "नाबाद": 6675,
    "मेश्वर": 6676,
    "उतनी": 6677,
    "बिया": 6678,
    "गडकरी": 6679,
    "लीड": 6680,
    "इंट": 6681,
    "न्त्र": 6682,
    "बीती": 6683,
    "मीटिंग": 6684,
    "कंगना": 6685,
    "एरिया": 6686,
    "झान": 6687,
    "दिखाना": 6688,
    "पिन": 6689,
    "घटकर": 6690,
    "अवतार": 6691,
    "रामपुर": 6692,
    "नशा": 6693,
    "दलि": 6694,
    "दलितों": 6695,
    "टाने": 6696,
    "समन्वय": 6697,
    "चंद्रशेखर": 6698,
    "डाले": 6699,
    "सूचका": 6700,
    "सूचकांक": 6701,
    "द्रवि": 6702,
    "फ्रेंस": 6703,
    "परिदृश्य": 6704,
    "तादाद": 6705,
    "जुटे": 6706,
    "कबीर": 6707,
    "भक्तों": 6708,
    "Mar": 6709,
    "टेयर": 6710,
    "बदौ": 6711,
    "बदौलत": 6712,
    "एंट्री": 6713,
    "नवम्बर": 6714,
    "ईरानी": 6715,
    "प्रसारित": 6716,
    "68": 6717,
    "सईद": 6718,
    "हालिया": 6719,
    "78": 6720,
    "रतन": 6721,
    "बुर": 6722,
    "बसा": 6723,
    "नैशनल": 6724,
    "किसने": 6725,
    "लड़कियां": 6726,
    "बेटियों": 6727,
    "मानसि": 6728,
    "मानसिकता": 6729,
    "उठे": 6730,
    "तेरा": 6731,
    "un": 6732,
    "पक्षी": 6733,
    "Ph": 6734,
    "Vid": 6735,
    "ction": 6736,
    "रजिस्ट्रेशन": 6737,
    "श्मा": 6738,
    "प्रतिनिधित्व": 6739,
    "जानकारी,": 6740,
    "जानिए": 6741,
    "सदस्यीय": 6742,
    "छाप": 6743,
    "This": 6744,
    "फरीदाबाद": 6745,
    "सम्भव": 6746,
    "नोटों": 6747,
    "बली": 6748,
    "प्रोफेसर": 6749,
    "करूं": 6750,
    "नामांकन": 6751,
    "श्रेय": 6752,
    "संसाधनों": 6753,
    "ियाँ": 6754,
    "जुड़ी": 6755,
    "देखा।": 6756,
    "अद्": 6757,
    "अद्भुत": 6758,
    "कोटा": 6759,
    "वीरेंद्र": 6760,
    "ंबा": 6761,
    "प्लास्ट": 6762,
    "प्लास्टिक": 6763,
    "निश": 6764,
    "पढ़ें": 6765,
    "संदीप": 6766,
    "अकाद": 6767,
    "परीक्ष": 6768,
    "मराठी": 6769,
    "तेवर": 6770,
    "बर्दाश्त": 6771,
    "प्रत्याशियों": 6772,
    "स्टाइल": 6773,
    "ब्बत": 6774,
    "स्वीकृत": 6775,
    "आसमान": 6776,
    "मेज": 6777,
    "हॉकी": 6778,
    "तबा": 6779,
    "खरा": 6780,
    "प्रेमियों": 6781,
    "रिटर्न": 6782,
    "द्वं": 6783,
    "अग्रणी": 6784,
    "चेतन": 6785,
    "स्वि": 6786,
    "नम्बर": 6787,
    "अंडर": 6788,
    "थन": 6789,
    "परम": 6790,
    "हैं-": 6791,
    "मुठ": 6792,
    "मुठभे": 6793,
    "असफल": 6794,
    "है)": 6795,
    "दिष्ट": 6796,
    "अनुमो": 6797,
    "उठकर": 6798,
    "मोल": 6799,
    "कन": 6800,
    "प्ट": 6801,
    "अनाज": 6802,
    "को-ऑपरे": 6803,
    "को-ऑपरेटिव": 6804,
    "सत्या": 6805,
    "तप": 6806,
    "रेत": 6807,
    "पूरक": 6808,
    "आएंगे।": 6809,
    "वेफ": 6810,
    "दिनभर": 6811,
    "अनुसूचित": 6812,
    "तिया": 6813,
    "अभय": 6814,
    "देवताओं": 6815,
    "आज़": 6816,
    "आमदनी": 6817,
    "रुपया": 6818,
    "रने": 6819,
    "दिव्य": 6820,
    "राजद": 6821,
    "बाबत": 6822,
    "धवन": 6823,
    "चरि": 6824,
    "चरित्र": 6825,
    "परिचालन": 6826,
    "गर्व": 6827,
    "सकता.": 6828,
    "वर्षो": 6829,
    "लड़ाई": 6830,
    "बेबी": 6831,
    "ऊंचाई": 6832,
    "बदलते": 6833,
    "सहाय": 6834,
    "अपर": 6835,
    "पला": 6836,
    "उपज": 6837,
    "इंडे": 6838,
    "एयरटेल": 6839,
    "मूर्ख": 6840,
    "गये,": 6841,
    "जुटी": 6842,
    "मानवता": 6843,
    "गन्ने": 6844,
    "मछली": 6845,
    "अब्दुल": 6846,
    "कार्तिक": 6847,
    "नंदन": 6848,
    "लगेगा": 6849,
    "श्याम": 6850,
    "संतान": 6851,
    "मेगावाट": 6852,
    "कलम": 6853,
    "सकी": 6854,
    "अभ्य": 6855,
    "ख्वा": 6856,
    "बंसल": 6857,
    "मिट": 6858,
    "अम्": 6859,
    "अयो": 6860,
    "अयोध्या": 6861,
    "बेंच": 6862,
    "सियास": 6863,
    "सियासत": 6864,
    "कॉप्टर": 6865,
    "जेंसी": 6866,
    "माओ": 6867,
    "मेजब": 6868,
    "मुश्कि": 6869,
    "आकर्षक": 6870,
    "संभावनाएं": 6871,
    "ट्रॉफी": 6872,
    "थकान": 6873,
    "आहत": 6874,
    "टु": 6875,
    "अंग्रेजों": 6876,
    "ट्रि": 6877,
    "स्‍ता": 6878,
    "पदार्थों": 6879,
    "स्टेश": 6880,
    "स्टेशनों": 6881,
    "उठाकर": 6882,
    "सकी।": 6883,
    "रियों": 6884,
    "अंबानी": 6885,
    "मिलेगी।": 6886,
    "गुणों": 6887,
    "दिलचस्प": 6888,
    "एंड्र": 6889,
    "एंड्रॉ": 6890,
    "एंड्रॉयड": 6891,
    "आईएम": 6892,
    "सीओ": 6893,
    "ट्टे": 6894,
    "डोर": 6895,
    "शोए": 6896,
    "शोएब": 6897,
    "तड़के": 6898,
    "लाए": 6899,
    "योजनाएं": 6900,
    "दराज": 6901,
    "बलि": 6902,
    "परम्": 6903,
    "जानवरों": 6904,
    "रहस्य": 6905,
    "कुर्सी": 6906,
    "मतों": 6907,
    "जाता।": 6908,
    "चाव": 6909,
    "ख़िला": 6910,
    "ख़िलाफ़": 6911,
    "झी": 6912,
    "रामा": 6913,
    "सालाना": 6914,
    "एनसी": 6915,
    "बनाती": 6916,
    "शुभकामनाएं": 6917,
    "निराश": 6918,
    "समीर": 6919,
    "रहेगा.": 6920,
    "औरतों": 6921,
    "जायेंगे।": 6922,
    "खासा": 6923,
    "जाने-": 6924,
    "डिस्प्ले": 6925,
    "बुखार": 6926,
    "निकालकर": 6927,
    "चिंति": 6928,
    "चिंतित": 6929,
    "होंगी": 6930,
    "कहें": 6931,
    "बडी": 6932,
    "पर्सनल": 6933,
    "एंट": 6934,
    "शमी": 6935,
    "जोध": 6936,
    "जोधपुर": 6937,
    "संचालक": 6938,
    "आरा": 6939,
    "आरोपित": 6940,
    "लड़के": 6941,
    "स्ट्रा": 6942,
    "संग्रहा": 6943,
    "संग्रहालय": 6944,
    "डिप्लो": 6945,
    "डिप्लोमा": 6946,
    "मोटा": 6947,
    "आंत": 6948,
    "रिटी": 6949,
    "पर्वत": 6950,
    "आए,": 6951,
    "गिरि": 6952,
    "ठहर": 6953,
    "जौ": 6954,
    "संयम": 6955,
    "जीबी": 6956,
    "विरू": 6957,
    "दानी": 6958,
    "शिष्य": 6959,
    "फीचर": 6960,
    "जीन": 6961,
    "भीम": 6962,
    "स्पीकर": 6963,
    "दोग": 6964,
    "दोगु": 6965,
    "पूछे": 6966,
    "पड़ी।": 6967,
    "गंध": 6968,
    "बढ़ती": 6969,
    "खल": 6970,
    "दे।": 6971,
    "गाजियाबाद": 6972,
    "जड़": 6973,
    "उद्योगपति": 6974,
    "मानसून": 6975,
    "नकली": 6976,
    "डिपार्ट": 6977,
    "राजकीय": 6978,
    "चैम्पियन": 6979,
    "ग्रोथ": 6980,
    "ष्क": 6981,
    "संयंत्र": 6982,
    "नारेबाजी": 6983,
    "पारिवार": 6984,
    "पारिवारिक": 6985,
    "घर-": 6986,
    "रिटायर": 6987,
    "प्पी": 6988,
    "श्रमिकों": 6989,
    "विभागी": 6990,
    "विभागीय": 6991,
    "ेन्द्र": 6992,
    "रघु": 6993,
    "संक्रांति": 6994,
    "पांडेय": 6995,
    "मंजि": 6996,
    "मंजिल": 6997,
    "नगरीय": 6998,
    "लौटा": 6999,
    "भोग": 7000,
    "न्स": 7001,
    "एम्स": 7002,
    "सीईओ": 7003,
    "पर्यटकों": 7004,
    "बेल": 7005,
    "चाप": 7006,
    "पैसों": 7007,
    "मध्यम": 7008,
    "अनू": 7009,
    "पार्टियां": 7010,
    "वृक्ष": 7011,
    "गवर्": 7012,
    "हिया": 7013,
    "घाटा": 7014,
    "अपेक्षाकृत": 7015,
    "पड़ने": 7016,
    "डीएसपी": 7017,
    "हाइ": 7018,
    "मिर्": 7019,
    "टेज": 7020,
    "ंटन": 7021,
    "उदयपुर": 7022,
    "--": 7023,
    "नाले": 7024,
    "कमलनाथ": 7025,
    "कोयला": 7026,
    "सदर": 7027,
    "बैठी": 7028,
    "पायदान": 7029,
    "बेंगलुरु": 7030,
    "खींच": 7031,
    "दामाद": 7032,
    "धरा": 7033,
    "मुज": 7034,
    "मुजफ्": 7035,
    "मुजफ्फर": 7036,
    "फौ": 7037,
    "जिसको": 7038,
    "राजेन्द्र": 7039,
    "संवाददाता,": 7040,
    "वीडियो।": 7041,
    "डेंट": 7042,
    "तलवार": 7043,
    "ज़ी": 7044,
    "पढ़ने": 7045,
    "क्विंट": 7046,
    "क्विंटल": 7047,
    "39": 7048,
    "छक्का": 7049,
    "पत्ते": 7050,
    "58": 7051,
    "शासक": 7052,
    "१९": 7053,
    "ारों": 7054,
    "67": 7055,
    "दंगों": 7056,
    "77": 7057,
    "काउंटर": 7058,
    "मुकदमे": 7059,
    "Se": 7060,
    "एनडीए": 7061,
    "95": 7062,
    "दिखाते": 7063,
    "निम्नलिखित": 7064,
    "पिंग": 7065,
    "गणतंत्र": 7066,
    "कहला": 7067,
    "ऑस्ट्रेलियाई": 7068,
    "माइक्रो": 7069,
    "गोवि": 7070,
    "उपरो": 7071,
    "उपरोक्त": 7072,
    "डिवाइस": 7073,
    "त्ती": 7074,
    "छापेमारी": 7075,
    "भास्कर": 7076,
    "फ्लैट": 7077,
    "धर्मनिरपेक्ष": 7078,
    "गुलाब": 7079,
    "पुस्तकों": 7080,
    "अद्य": 7081,
    "अद्यतन": 7082,
    "खत": 7083,
    "Res": 7084,
    "Resul": 7085,
    "Result": 7086,
    "ठगी": 7087,
    "ऑप्शन": 7088,
    "एक्टिंग": 7089,
    "खिड़": 7090,
    "चलाई": 7091,
    "परामर्श": 7092,
    "पीयू": 7093,
    "पीयूष": 7094,
    "अर्थात्": 7095,
    "कर,": 7096,
    "वायरस": 7097,
    "ir": 7098,
    "खबरें,": 7099,
    "हत्याकांड": 7100,
    "अगवा": 7101,
    "प्रयोगशाला": 7102,
    "लेड": 7103,
    "बॉय": 7104,
    "ad": 7105,
    "सिखाया": 7106,
    "06": 7107,
    "बीबीसी": 7108,
    "as": 7109,
    "आवेद": 7110,
    "शीतल": 7111,
    "वार्थ": 7112,
    "टैं": 7113,
    "तेरी": 7114,
    "छल": 7115,
    "प्रोटीन": 7116,
    "निकाय": 7117,
    "2002": 7118,
    "धोखाध": 7119,
    "धोखाधड़ी": 7120,
    "निर्दोष": 7121,
    "देखो": 7122,
    "ढ़ी": 7123,
    "सेवानिवृ": 7124,
    "हियों": 7125,
    "Up": 7126,
    "Upd": 7127,
    "Updated": 7128,
    "गर्ल": 7129,
    "नीयत": 7130,
    "शीट": 7131,
    "फायदेमंद": 7132,
    "सुपरस्टार": 7133,
    "खोला": 7134,
    "प्याज": 7135,
    "रेटिंग": 7136,
    "दुसरे": 7137,
    "वर्जन": 7138,
    "'मैं": 7139,
    "धुर": 7140,
    "निष्पक्ष": 7141,
    "ऐश्": 7142,
    "ऐश्वर्": 7143,
    "ऐश्वर्या": 7144,
    "उच्": 7145,
    "निकलते": 7146,
    "दलील": 7147,
    "पवार": 7148,
    "अकेला": 7149,
    "शुमार": 7150,
    "खाकर": 7151,
    "तोह": 7152,
    "देनी": 7153,
    "भोजपुरी": 7154,
    "हैं।’": 7155,
    "दिखता": 7156,
    "गाली": 7157,
    "कठोर": 7158,
    "नींव": 7159,
    "जायें": 7160,
    "गुन": 7161,
    "1000": 7162,
    "अत्याचार": 7163,
    "पारदर्": 7164,
    "वैकल्": 7165,
    "वैकल्पिक": 7166,
    "वायदा": 7167,
    "एकी": 7168,
    "त्तम": 7169,
    "प्रजा": 7170,
    "अजमेर": 7171,
    "आवंटित": 7172,
    "अत:": 7173,
    "गहलो": 7174,
    "गहलोत": 7175,
    "संतुलन": 7176,
    "भौतिक": 7177,
    "दायक": 7178,
    "सर्दी": 7179,
    "ठंडे": 7180,
    "सीम": 7181,
    "ड्ड": 7182,
    "गजल": 7183,
    "लेशन": 7184,
    "अनुभवों": 7185,
    "हवाला": 7186,
    "नेटवर्": 7187,
    "इच्छ": 7188,
    "इच्छुक": 7189,
    "सेल्सि": 7190,
    "सेल्सियस": 7191,
    "ठाकरे": 7192,
    "न्त": 7193,
    "एंटी": 7194,
    "कराते": 7195,
    "अनुच्": 7196,
    "अनुच्छेद": 7197,
    "केन्द्रों": 7198,
    "मों": 7199,
    "श्‍": 7200,
    "डीआई": 7201,
    "अन्दर": 7202,
    "बर्बाद": 7203,
    "इजाफा": 7204,
    "वास्तु": 7205,
    "आमंत्र": 7206,
    "आमंत्रित": 7207,
    "ज़मी": 7208,
    "प्रासंग": 7209,
    "प्रासंगिक": 7210,
    "आध्यात्": 7211,
    "आध्यात्मिक": 7212,
    "रचनाओं": 7213,
    "मात": 7214,
    "पसंदी": 7215,
    "पसंदीदा": 7216,
    "उन्‍होंने": 7217,
    "आचार": 7218,
    "सटे": 7219,
    "इस्लामाबाद": 7220,
    "लिकेशन": 7221,
    "मार्क्स": 7222,
    "कहेंगे": 7223,
    "जाएंगी।": 7224,
    "जुड़": 7225,
    "जहाज": 7226,
    "रूट": 7227,
    "सिलेंडर": 7228,
    "मल्टी": 7229,
    "डीसी": 7230,
    "घटिया": 7231,
    "बीकाने": 7232,
    "बीकानेर": 7233,
    "साइड": 7234,
    "पंचायतों": 7235,
    "गर्मियों": 7236,
    "बनाम": 7237,
    "हसन": 7238,
    "देखभाल": 7239,
    "शांतिपूर्ण": 7240,
    "अश्लील": 7241,
    "विज्ञ": 7242,
    "विज्ञप्ति": 7243,
    "संयोग": 7244,
    "वक्ता": 7245,
    "गुप्ता,": 7246,
    "रोका": 7247,
    "छोटी-": 7248,
    "अवकाश": 7249,
    "आँखें": 7250,
    "पुलिसकर्मी": 7251,
    "ललि": 7252,
    "ललिता": 7253,
    "बताकर": 7254,
    "आदिवासियों": 7255,
    "भेदभाव": 7256,
    "सांप": 7257,
    "चलाए": 7258,
    "फाउ": 7259,
    "फाउंडे": 7260,
    "फाउंडेशन": 7261,
    "बनाए।": 7262,
    "आयर": 7263,
    "उत्तम": 7264,
    "निर्मला": 7265,
    "डोनाल्ड": 7266,
    "रोधक": 7267,
    "दिलाई": 7268,
    "टीमें": 7269,
    "पार्वती": 7270,
    "स्मिथ": 7271,
    "मालि": 7272,
    "जनाब": 7273,
    "विहार": 7274,
    "कुं": 7275,
    "अस्थायी": 7276,
    "डिली": 7277,
    "सुल्": 7278,
    "सुल्तान": 7279,
    "निपट": 7280,
    "बुकिंग": 7281,
    "लेखकों": 7282,
    "सवा": 7283,
    "लगाये": 7284,
    "बचाया": 7285,
    "डील": 7286,
    "1999": 7287,
    "इंस्टा": 7288,
    "ठहराया": 7289,
    "प्रशिक्षित": 7290,
    "डीजी": 7291,
    "पूर्वो": 7292,
    "ओएस": 7293,
    "नहीं?": 7294,
    "बरकरार": 7295,
    "आईडी": 7296,
    "कहानियां": 7297,
    "ख़ा": 7298,
    "बीमारियों": 7299,
    "गये.": 7300,
    "ज़रूरत": 7301,
    "लूस": 7302,
    "क्षतिग्रस्त": 7303,
    "कांस्य": 7304,
    "सुभाष": 7305,
    "पुख्ता": 7306,
    "भंडार": 7307,
    "नीर": 7308,
    "राखी": 7309,
    "हँस": 7310,
    "गला": 7311,
    "पड़ती": 7312,
    "ंगत": 7313,
    "स्टील": 7314,
    "घुसपैठ": 7315,
    "व्यय": 7316,
    "भटक": 7317,
    "बहि": 7318,
    "यूँ": 7319,
    "साहित्यिक": 7320,
    "पर्दा": 7321,
    "साध्": 7322,
    "साध्वी": 7323,
    "सेकेंड": 7324,
    "कांस्टेबल": 7325,
    "प्रिंट": 7326,
    "ख़ुद": 7327,
    "हल्के": 7328,
    "निराकरण": 7329,
    "सस्प": 7330,
    "प्रश": 7331,
    "प्रशंस": 7332,
    "कमजोरी": 7333,
    "बाढ़": 7334,
    "परेशानियों": 7335,
    "परस्": 7336,
    "परस्पर": 7337,
    "घरा": 7338,
    "बृहस्पतिवार": 7339,
    "धीर": 7340,
    "कोट": 7341,
    "निशान": 7342,
    "ओझा": 7343,
    "जीती": 7344,
    "आर्मी": 7345,
    "साधा": 7346,
    "लाठी": 7347,
    "जानती": 7348,
    "साक्षी": 7349,
    "षा": 7350,
    "पढ़ते": 7351,
    "आसारा": 7352,
    "आसाराम": 7353,
    "धनराशि": 7354,
    "करना,": 7355,
    "मोटी": 7356,
    "मनु": 7357,
    "लगाम": 7358,
    "सेलि": 7359,
    "बढ़ने": 7360,
    "दं": 7361,
    "आर.": 7362,
    "शहीदों": 7363,
    "मजि": 7364,
    "मजिस्ट्रे": 7365,
    "मजिस्ट्रेट": 7366,
    "दावेदार": 7367,
    "होता,": 7368,
    "हॉस्पि": 7369,
    "हॉस्पिटल": 7370,
    "सैनी": 7371,
    "मनरे": 7372,
    "मनरेगा": 7373,
    "ट्रैक्टर": 7374,
    "पैं": 7375,
    "आकलन": 7376,
    "लुधिया": 7377,
    "लुधियाना": 7378,
    "लता": 7379,
    "पुलवामा": 7380,
    "अलावा,": 7381,
    "भागियों": 7382,
    "पूर्वा": 7383,
    "र्डिंग": 7384,
    "सचिवा": 7385,
    "सचिवालय": 7386,
    "गेहूं": 7387,
    "फाइबर": 7388,
    "नुक्सान": 7389,
    "लकड़ी": 7390,
    "गोस्वामी": 7391,
    "प्रोड": 7392,
    "थोक": 7393,
    "गाई": 7394,
    "बढ़ाकर": 7395,
    "गोलीबारी": 7396,
    "शता": 7397,
    "शताब्दी": 7398,
    "अपनाया": 7399,
    "र्त": 7400,
    "सुरेंद्र": 7401,
    "देवी,": 7402,
    "लोकार्": 7403,
    "लोकार्पण": 7404,
    "नाते": 7405,
    "जानकारियां": 7406,
    "सिब्": 7407,
    "सिब्बल": 7408,
    "हब": 7409,
    "चिद": 7410,
    "भावी": 7411,
    "बेरोजगार": 7412,
    "ज़्यादा": 7413,
    "पोरेट": 7414,
    "मानक": 7415,
    "शायरी": 7416,
    "सेकंड": 7417,
    "ढांचे": 7418,
    "सोनू": 7419,
    "बनार": 7420,
    "पॉलिसी": 7421,
    "पड़ेगा।": 7422,
    "वाल्": 7423,
    "वोटों": 7424,
    "स्टोरी": 7425,
    "पड": 7426,
    "इंग्लिश": 7427,
    "पैदल": 7428,
    "टूटने": 7429,
    "ख़त्म": 7430,
    "कृपा": 7431,
    "खरीदी": 7432,
    "मच्छ": 7433,
    "ंद्रा": 7434,
    "ईस्ट": 7435,
    "सुमन": 7436,
    "सेवी": 7437,
    "कुलदीप": 7438,
    "चलना": 7439,
    "ढ़ा": 7440,
    "तरक्की": 7441,
    "निवारण": 7442,
    "नकारात्मक": 7443,
    "पकड़ा": 7444,
    "जेई": 7445,
    "परिचित": 7446,
    "स्टडी": 7447,
    "लेंस": 7448,
    "चलो": 7449,
    "साधु": 7450,
    "क्टरी": 7451,
    "जीतकर": 7452,
    "मले": 7453,
    "फोर्स": 7454,
    "चाचा": 7455,
    "कि.": 7456,
    "मौलाना": 7457,
    "एलान": 7458,
    "छानबीन": 7459,
    "बेशक": 7460,
    "तमिल": 7461,
    "मय": 7462,
    "शैक्षण": 7463,
    "शैक्षणिक": 7464,
    "तव्य": 7465,
    "मौलिक": 7466,
    "आक्रामक": 7467,
    "क्टेयर": 7468,
    "फसलों": 7469,
    "मोटरसाइकिल": 7470,
    "36": 7471,
    "गरम": 7472,
    "लगाया।": 7473,
    "स्वाद": 7474,
    "मोती": 7475,
    "ठेकेदारों": 7476,
    "जवाहरलाल": 7477,
    "घटनाक्रम": 7478,
    "करेगी.": 7479,
    "85": 7480,
    "सक्": 7481,
    "बुरे": 7482,
    "मंदी": 7483,
    "दर्शाया": 7484,
    "राष्‍ट्रीय": 7485,
    "130": 7486,
    "नगरपालिका": 7487,
    "बद्र": 7488,
    "बद्री": 7489,
    "वायुसेना": 7490,
    "सर्विसेज": 7491,
    "गोदाम": 7492,
    "कपड़े": 7493,
    "था?": 7494,
    "एमबी": 7495,
    "पीएस": 7496,
    "डेवलपमेंट": 7497,
    "सिंध": 7498,
    "स्‍तान": 7499,
    "सामु": 7500,
    "परिक्रमा": 7501,
    "कमेंट": 7502,
    "साक्षर": 7503,
    "भव्य": 7504,
    "दीपा": 7505,
    "वली": 7506,
    "ज्योतिष": 7507,
    "ive": 7508,
    "एफआईआर": 7509,
    "ताज़ा": 7510,
    "Con": 7511,
    "250": 7512,
    "बसंत": 7513,
    "डिब्": 7514,
    "सर्वर": 7515,
    "दुल्": 7516,
    "दुल्हन": 7517,
    "कॉर": 7518,
    "Fr": 7519,
    "क्‍यों": 7520,
    "बिस्तर": 7521,
    "ट्रेट": 7522,
    "सभाग": 7523,
    "सभागार": 7524,
    "सावधानी": 7525,
    "han": 7526,
    "कहान": 7527,
    "कहानियों": 7528,
    "डिमांड": 7529,
    "बर्थ": 7530,
    "वसु": 7531,
    "वसुंध": 7532,
    "वसुंधरा": 7533,
    "मुम्": 7534,
    "मुम्बई": 7535,
    "चिंग": 7536,
    "विवादों": 7537,
    "po": 7538,
    "700": 7539,
    "स्पोर्ट": 7540,
    "दिवाली": 7541,
    "आदत": 7542,
    "करूंगा।": 7543,
    "निज": 7544,
    "खन्ना": 7545,
    "ेली": 7546,
    "स्पेशल": 7547,
    "करेंFacebook": 7548,
    "करेंPinterest": 7549,
    "आलेख": 7550,
    "मॉल": 7551,
    "विनाश": 7552,
    "इमाम": 7553,
    "पद्मा": 7554,
    "मिठाई": 7555,
    "फैन": 7556,
    "लैप": 7557,
    "लैपटॉप": 7558,
    "देश-": 7559,
    "पीस": 7560,
    "ज़ार": 7561,
    "ट्राई": 7562,
    "ूँ": 7563,
    "सैर": 7564,
    "अहसास": 7565,
    "बिल्डिंग": 7566,
    "सके,": 7567,
    "रही,": 7568,
    "दाल": 7569,
    "वांछ": 7570,
    "गहराई": 7571,
    "पंद्र": 7572,
    "पंद्रह": 7573,
    "बुराई": 7574,
    "भैंस": 7575,
    "ओपन": 7576,
    "गर्दन": 7577,
    "योगा": 7578,
    "दुखद": 7579,
    "द्वीप": 7580,
    "प्रदेश,": 7581,
    "सर्जन": 7582,
    "दूत": 7583,
    "िम": 7584,
    "लगे,": 7585,
    "बगैर": 7586,
    "स्वप्": 7587,
    "स्वप्न": 7588,
    "डेय": 7589,
    "सस्ती": 7590,
    "सैकड़ों": 7591,
    "बैनर": 7592,
    "चौटा": 7593,
    "चौटाला": 7594,
    "प्य": 7595,
    "पायलट": 7596,
    "वरेज": 7597,
    "बदनाम": 7598,
    "निचले": 7599,
    "निरस्त": 7600,
    "जुटाने": 7601,
    "जोन": 7602,
    "प्रभार": 7603,
    "पकों": 7604,
    "पैरा": 7605,
    "गिन": 7606,
    "कानपुर": 7607,
    "प्राथमिकी": 7608,
    "मिका": 7609,
    "जैसे-जैसे": 7610,
    "पासपोर्ट": 7611,
    "धक्का": 7612,
    "अनुया": 7613,
    "निर्मा": 7614,
    "विश्वविद्यालयों": 7615,
    "शिकायतें": 7616,
    "विफल": 7617,
    "इनको": 7618,
    "युवराज": 7619,
    "निहित": 7620,
    "फेस्टि": 7621,
    "फेस्टिवल": 7622,
    "टनेस": 7623,
    "जंगली": 7624,
    "अनुभूति": 7625,
    "टिन": 7626,
    "उर्दू": 7627,
    "्यो": 7628,
    "पत्रिकाओं": 7629,
    "सोलह": 7630,
    "अनुचित": 7631,
    "विविधता": 7632,
    "सम्बंधित": 7633,
    "आएं": 7634,
    "बर्खा": 7635,
    "बर्खास्त": 7636,
    "दशकों": 7637,
    "अंधेरे": 7638,
    "लें.": 7639,
    "उपर": 7640,
    "शिफ्ट": 7641,
    "माफिया": 7642,
    "कुशवाहा": 7643,
    "लम्बी": 7644,
    "जेठ": 7645,
    "दो।": 7646,
    "है।”": 7647,
    "पहुंचना": 7648,
    "बढ़िया": 7649,
    "नर्": 7650,
    "अनदेखी": 7651,
    "हटकर": 7652,
    "विलय": 7653,
    "सूबे": 7654,
    "पहलू": 7655,
    "भ्रम": 7656,
    "भारद्": 7657,
    "भारद्वाज": 7658,
    "मिड": 7659,
    "अब्दुल्ला": 7660,
    "यादगार": 7661,
    "जैन,": 7662,
    "उन्नत": 7663,
    "लड़का": 7664,
    "पैके": 7665,
    "घटक": 7666,
    "जरूरतों": 7667,
    "फीसद": 7668,
    "विवादा": 7669,
    "विवादास्पद": 7670,
    "पहले,": 7671,
    "तकरीबन": 7672,
    "अहंकार": 7673,
    "टीचर": 7674,
    "तर्ज": 7675,
    "टीय": 7676,
    "नमा": 7677,
    "यूएस": 7678,
    "थोड़े": 7679,
    "बदलकर": 7680,
    "परिवर्तित": 7681,
    "नक्सल": 7682,
    "मोट": 7683,
    "आदर": 7684,
    "जिनको": 7685,
    "बहाल": 7686,
    "क्ष्": 7687,
    "प्रारम्भ": 7688,
    "समझाने": 7689,
    "रहीं।": 7690,
    "इंस्टी": 7691,
    "म्मे": 7692,
    "है.'": 7693,
    "टैक्सी": 7694,
    "पीटीआई": 7695,
    "समझता": 7696,
    "टेलि": 7697,
    "अंसारी": 7698,
    "रोड,": 7699,
    "चौराहा": 7700,
    "तथ्यों": 7701,
    "टम": 7702,
    "आरसी": 7703,
    "सुरक्षाबलों": 7704,
    "2020": 7705,
    "शूट": 7706,
    "एसबीआई": 7707,
    "कमांडर": 7708,
    "सुपु": 7709,
    "सुपुर्द": 7710,
    "मंजूर": 7711,
    "वैन": 7712,
    "मौर्य": 7713,
    "माथे": 7714,
    "पहुंचकर": 7715,
    "छाए": 7716,
    "रासाय": 7717,
    "रासायनिक": 7718,
    "नौसेना": 7719,
    "वरदान": 7720,
    "दुर्भाग्य": 7721,
    "प्रात:": 7722,
    "हैं..": 7723,
    "परिस्थिति": 7724,
    "आन्दोलन": 7725,
    "स्पेस": 7726,
    "हितों": 7727,
    "लाभकारी": 7728,
    "महोदय": 7729,
    "हज़ार": 7730,
    "रौ": 7731,
    "पेन": 7732,
    "आया.": 7733,
    "साइन": 7734,
    "शर्तों": 7735,
    "साड़ी": 7736,
    "मंदिरों": 7737,
    "आब": 7738,
    "आबकारी": 7739,
    "पृष्ठभूमि": 7740,
    "आयुर्": 7741,
    "पशुओं": 7742,
    "यती": 7743,
    "दिखाकर": 7744,
    "सूर्": 7745,
    "विमानों": 7746,
    "हॉट": 7747,
    "रोमा": 7748,
    "चतुर्वे": 7749,
    "चतुर्वेदी": 7750,
    "दर्दनाक": 7751,
    "व्याव": 7752,
    "व्यावसाय": 7753,
    "व्यावसायिक": 7754,
    "तिल": 7755,
    "पहुंचते": 7756,
    "ट्रेनों": 7757,
    "मसले": 7758,
    "सरत": 7759,
    "झलक": 7760,
    "खान,": 7761,
    "लालच": 7762,
    "दरगाह": 7763,
    "पिटाई": 7764,
    "लिवर": 7765,
    "इमरजेंसी": 7766,
    "ज्म": 7767,
    "ताना": 7768,
    "अलर्ट": 7769,
    "देवेंद्र": 7770,
    "भूप": 7771,
    "सीनियर": 7772,
    "स्वच्छता": 7773,
    "अंदाजा": 7774,
    "दखल": 7775,
    "शिलान": 7776,
    "शिलान्यास": 7777,
    "मारुति": 7778,
    "पुलिसकर्मियों": 7779,
    "छाल": 7780,
    "एसआई": 7781,
    "ऋष": 7782,
    "डिपार्टमेंट": 7783,
    "स्किन": 7784,
    "मोबाई": 7785,
    "मोबाईल": 7786,
    "स्‍तर": 7787,
    "झग": 7788,
    "मस्ति": 7789,
    "मस्तिष्क": 7790,
    "ान्त": 7791,
    "बाग": 7792,
    "जनसभा": 7793,
    "वाड्रा": 7794,
    "सबकुछ": 7795,
    "परमेश्वर": 7796,
    "ुरू": 7797,
    "काटकर": 7798,
    "सिरे": 7799,
    "चुप्पी": 7800,
    "स्त्रों": 7801,
    "झंडा": 7802,
    "तेजस्वी": 7803,
    "ान्": 7804,
    "बायो": 7805,
    "वाटर": 7806,
    "सिपा": 7807,
    "टेक्नो": 7808,
    "लॉजी": 7809,
    "जावेद": 7810,
    "सौंपा": 7811,
    "काफि": 7812,
    "लाइंस": 7813,
    "दिलचस्पी": 7814,
    "तालाबों": 7815,
    "धारी": 7816,
    "ऑफिसर": 7817,
    "नेश्वर": 7818,
    "तकली": 7819,
    "उठाया।": 7820,
    "रहेगी": 7821,
    "प्राइमरी": 7822,
    "महानिदेशक": 7823,
    "फुटबॉल": 7824,
    "मुकाबलों": 7825,
    "करीबी": 7826,
    "किंग्स": 7827,
    "पीते": 7828,
    "पयोग": 7829,
    "विभाग,": 7830,
    "शासित": 7831,
    "फैलाने": 7832,
    "श्वे": 7833,
    "शिर": 7834,
    "शिरकत": 7835,
    "खाई": 7836,
    "बापू": 7837,
    "चरम": 7838,
    "पुस्तका": 7839,
    "पुस्तकालय": 7840,
    "अभिभाव": 7841,
    "रॉय": 7842,
    "पत्थरों": 7843,
    "मुख्‍य": 7844,
    "रच": 7845,
    "लैस": 7846,
    "दमन": 7847,
    "दुरुस्त": 7848,
    "कस्ट": 7849,
    "भारत,": 7850,
    "मोटे": 7851,
    "फिक्": 7852,
    "नाव": 7853,
    "तबी": 7854,
    "तबीयत": 7855,
    "पड़ताल": 7856,
    "उम": 7857,
    "कंधे": 7858,
    "माली": 7859,
    "धीमी": 7860,
    "चला।": 7861,
    "मजाक": 7862,
    "सिद्धांतों": 7863,
    "तहरी": 7864,
    "ट्रेनिंग": 7865,
    "प्रचार-": 7866,
    "प्रचार-प्रसार": 7867,
    "नाकाम": 7868,
    "मजदूरी": 7869,
    "योजित": 7870,
    "भती": 7871,
    "धै": 7872,
    "धैर्य": 7873,
    "राजकुमार": 7874,
    "चंद्रमा": 7875,
    "सुलझा": 7876,
    "पंजाबी": 7877,
    "हॉल": 7878,
    "हंगामे": 7879,
    "ड्यूल": 7880,
    "बताना": 7881,
    "लगी.": 7882,
    "होंगे,": 7883,
    "मन्": 7884,
    "मन्दिर": 7885,
    "फ्लाइट": 7886,
    "कुंभ": 7887,
    "पूर्णि": 7888,
    "पूर्णिमा": 7889,
    "भ्रमण": 7890,
    "खामो": 7891,
    "श्रवण": 7892,
    "फुटेज": 7893,
    "खिले": 7894,
    "हुड्डा": 7895,
    "पिट": 7896,
    "शेख": 7897,
    "थोड़ी": 7898,
    "जगह-": 7899,
    "जगह-जगह": 7900,
    "पीपल": 7901,
    "बहरहाल,": 7902,
    "झुका": 7903,
    "गुफा": 7904,
    "गना": 7905,
    "कप्तानी": 7906,
    "काशी": 7907,
    "गुड़": 7908,
    "53": 7909,
    "बढा": 7910,
    "मार्क": 7911,
    "62": 7912,
    "सितारों": 7913,
    "बनायी": 7914,
    "69": 7915,
    "सेस": 7916,
    "हारने": 7917,
    "सेशन": 7918,
    "लेबल": 7919,
    "कथन": 7920,
    "पुनः": 7921,
    "स्पेक्ट्र": 7922,
    "स्पेक्ट्रम": 7923,
    "गृहमंत्री": 7924,
    "शहद": 7925,
    "लिखना": 7926,
    "३०": 7927,
    "तीव्र": 7928,
    "144": 7929,
    "गोविंद": 7930,
    "अपलोड": 7931,
    "नियामक": 7932,
    "यें।": 7933,
    "प्रयुक्त": 7934,
    "निकले।": 7935,
    "गर्भा": 7936,
    "चम्मच": 7937,
    "av": 7938,
    "News,": 7939,
    "Vide": 7940,
    "vi": 7941,
    "पैनल": 7942,
    "इटली": 7943,
    "सिद्": 7944,
    "वितरित": 7945,
    "los": 7946,
    "lose": 7947,
    "आईएसआई": 7948,
    "बढ़ाई": 7949,
    "us": 7950,
    "देगी": 7951,
    "uar": 7952,
    "uary": 7953,
    "ay,": 7954,
    "स्टू": 7955,
    "स्टूडियो": 7956,
    "क्रियान्वयन": 7957,
    "ll": 7958,
    "टोग्रा": 7959,
    "फ़ाइल": 7960,
    "स्पर्श": 7961,
    "कलेक्शन": 7962,
    "01": 7963,
    "Lab": 7964,
    "Label": 7965,
    "Labels:": 7966,
    "ha": 7967,
    "हमसे": 7968,
    "अनवर": 7969,
    "कहर": 7970,
    "ag": 7971,
    "De": 7972,
    "comment": 7973,
    "लगे.": 7974,
    "आलिया": 7975,
    "उत्‍": 7976,
    "स्पॉ": 7977,
    "स्पॉट": 7978,
    "पीढ़ी": 7979,
    "2005": 7980,
    "ियल": 7981,
    "थर्ड": 7982,
    "Updated:": 7983,
    "मेहमान": 7984,
    "गुप्त": 7985,
    "प्रतिबंधित": 7986,
    "उमा": 7987,
    "मधुर": 7988,
    "अख़": 7989,
    "प्रतिस्पर्धा": 7990,
    "क्षमा": 7991,
    "जावा": 7992,
    "पैन": 7993,
    "टूटी": 7994,
    "समझना": 7995,
    "श्रीकृष्ण": 7996,
    "इमेज": 7997,
    "सामं": 7998,
    "हौसले": 7999,
    "साहित्यकार": 8000,
    "महासंघ": 8001,
    "खोजने": 8002,
    "होती.": 8003,
    "जाएगी,": 8004,
    "प्रतिद्वं": 8005,
    "मॉड": 8006,
    "यज्ञ": 8007,
    "800": 8008,
    "अनजाने": 8009,
    "जबरन": 8010,
    "शियम": 8011,
    "आचरण": 8012,
    "डेमो": 8013,
    "लाज": 8014,
    "इने": 8015,
    "इनेलो": 8016,
    "ेय": 8017,
    "टी-20": 8018,
    "हराया।": 8019,
    "आशीष": 8020,
    "एव": 8021,
    "समग्र": 8022,
    "औपचारिक": 8023,
    "चिंत": 8024,
    "चिंतन": 8025,
    "अद": 8026,
    "गवाह": 8027,
    "करे.": 8028,
    "प्रवर्": 8029,
    "नेटवर्किंग": 8030,
    "सख्ती": 8031,
    "समूहों": 8032,
    "आश्र": 8033,
    "पालक": 8034,
    "ज्जा": 8035,
    "घाव": 8036,
    "खाया": 8037,
    "बां": 8038,
    "अध्याय": 8039,
    "गुहार": 8040,
    "अनुष्": 8041,
    "अनुष्का": 8042,
    "प्रारंभिक": 8043,
    "आवश्‍": 8044,
    "आवश्‍यक": 8045,
    "देवता": 8046,
    "रवैया": 8047,
    "ढूंढ": 8048,
    "विवश": 8049,
    "आर्य": 8050,
    "अन्न": 8051,
    "रामलीला": 8052,
    "खूबसूर": 8053,
    "खूबसूरती": 8054,
    "आज़ा": 8055,
    "दिलों": 8056,
    "होशि": 8057,
    "रंजन": 8058,
    "फंसा": 8059,
    "जाइए": 8060,
    "कटा": 8061,
    "पर.": 8062,
    "सोसाइ": 8063,
    "सोसाइटी": 8064,
    "आवश्यकताओं": 8065,
    "फिल्मी": 8066,
    "ज़रूरी": 8067,
    "स्वार्थ": 8068,
    "चैलें": 8069,
    "कराची": 8070,
    "गायक": 8071,
    "प्रेशर": 8072,
    "हार्ट": 8073,
    "देखती": 8074,
    "दिखे": 8075,
    "कागज": 8076,
    "सबूत": 8077,
    "तालि": 8078,
    "मानवाधिकार": 8079,
    "गीन": 8080,
    "जाती.": 8081,
    "जायेगा.": 8082,
    "दुबारा": 8083,
    "हस्": 8084,
    "दर्जनों": 8085,
    "इंडेक्स": 8086,
    "महल": 8087,
    "त्योहारों": 8088,
    "दुबई": 8089,
    "यर्स": 8090,
    "अवॉ": 8091,
    "अवॉर्ड": 8092,
    "हॉस्टल": 8093,
    "वापि": 8094,
    "वापिस": 8095,
    "शेट्टी": 8096,
    "वीरवार": 8097,
    "हाईवे": 8098,
    "कम्यु": 8099,
    "कम्युनि": 8100,
    "चुरा": 8101,
    "अवस्थी": 8102,
    "महामंत्री": 8103,
    "बूत": 8104,
    "ओवैसी": 8105,
    "यादों": 8106,
    "गिरफ्त": 8107,
    "जयललिता": 8108,
    "पंक": 8109,
    "पंकज": 8110,
    "उद": 8111,
    "ओसामा": 8112,
    "आयरन": 8113,
    "ंकित": 8114,
    "अमृतसर": 8115,
    "अमेठी": 8116,
    "प्रकोप": 8117,
    "कायदा": 8118,
    "टकराव": 8119,
    "रोना": 8120,
    "एड्स": 8121,
    "संगीतकार": 8122,
    "पहुंचता": 8123,
    "अकादमी": 8124,
    "रजत": 8125,
    "उत्सु": 8126,
    "पिक्चर": 8127,
    "मानस": 8128,
    "इश्क": 8129,
    "डॉन": 8130,
    "अलगाव": 8131,
    "फौर": 8132,
    "फौरन": 8133,
    "लीस": 8134,
    "फील्ड": 8135,
    "जंगलों": 8136,
    "श्रीदेवी": 8137,
    "सितारे": 8138,
    "थमा": 8139,
    "डिलीवरी": 8140,
    "किले": 8141,
    "गुरूवार": 8142,
    "एथ": 8143,
    "मानकों": 8144,
    "दुः": 8145,
    "दुःख": 8146,
    "फेंकने": 8147,
    "यूज": 8148,
    "एप्लिकेशन": 8149,
    "संतुलित": 8150,
    "पूर्वोत्तर": 8151,
    "प्रभात": 8152,
    "कम्": 8153,
    "बैंक,": 8154,
    "बॉर्डर": 8155,
    "छापा": 8156,
    "टूरि": 8157,
    "साथ,": 8158,
    "कैटरी": 8159,
    "कैटरीना": 8160,
    "राइ": 8161,
    "दुकानदार": 8162,
    "हर्": 8163,
    "टीका": 8164,
    "उपलब्धता": 8165,
    "जुलूस": 8166,
    "सिंगल": 8167,
    "सत्": 8168,
    "भ्रष्ट": 8169,
    "परम्परा": 8170,
    "कॉफी": 8171,
    "तुझे": 8172,
    "विदेशों": 8173,
    "केदारनाथ": 8174,
    "निकासी": 8175,
    "गुजार": 8176,
    "लिखता": 8177,
    "श्रीनि": 8178,
    "श्रीनिवासन": 8179,
    "भावनात्मक": 8180,
    "मियत": 8181,
    "सभ्यता": 8182,
    "फिराक": 8183,
    "रोने": 8184,
    "कतई": 8185,
    "ष्कार": 8186,
    "भाई,": 8187,
    "ध्‍": 8188,
    "सौंद": 8189,
    "सौंदर्य": 8190,
    "गांग": 8191,
    "गांगु": 8192,
    "गांगुली": 8193,
    "जोश": 8194,
    "दांव": 8195,
    "हैरानी": 8196,
    "एजु": 8197,
    "एजुकेशन": 8198,
    "परवेज": 8199,
    "मुशर": 8200,
    "मुशर्र": 8201,
    "मुशर्रफ": 8202,
    "सीना": 8203,
    "चुनने": 8204,
    "भाइयों": 8205,
    "टीज": 8206,
    "सिड": 8207,
    "घराने": 8208,
    "प्रतिष्ठान": 8209,
    "जानकारों": 8210,
    "हेलीकॉप्टर": 8211,
    "खासियत": 8212,
    "बेचा": 8213,
    "भेजी": 8214,
    "इनकम": 8215,
    "अकेली": 8216,
    "दयाल": 8217,
    "दस्त": 8218,
    "र्ण": 8219,
    "व्‍यक्ति": 8220,
    "मिला.": 8221,
    "घी": 8222,
    "ज़ोर": 8223,
    "फ्रे": 8224,
    "चाइल्ड": 8225,
    "गिरकर": 8226,
    "टकी": 8227,
    "इधर,": 8228,
    "मम्मी": 8229,
    "राष्ट्रवादी": 8230,
    "वय": 8231,
    "मार्गदर्शन": 8232,
    "पुण": 8233,
    "धमाके": 8234,
    "सोचना": 8235,
    "पूल": 8236,
    "सिन": 8237,
    "शास्त्रीय": 8238,
    "सर्किट": 8239,
    "किराया": 8240,
    "प्रवाह": 8241,
    "बहुजन": 8242,
    "मुर्": 8243,
    "गंदगी": 8244,
    "खदान": 8245,
    "जलवायु": 8246,
    "रुकने": 8247,
    "येदि": 8248,
    "येदिय": 8249,
    "येदियुर": 8250,
    "पश्चात्": 8251,
    "बेचार": 8252,
    "कपा": 8253,
    "नृत्य": 8254,
    "लेनी": 8255,
    "इस्लामिक": 8256,
    "सद्": 8257,
    "जूस": 8258,
    "किलोग": 8259,
    "किलोग्रा": 8260,
    "किलोग्राम": 8261,
    "मेगापिक्सल": 8262,
    "सेंसर": 8263,
    "रहमान": 8264,
    "आएगा।": 8265,
    "उपवास": 8266,
    "दस्ते": 8267,
    "मर्रा": 8268,
    "मरम्मत": 8269,
    "वियत": 8270,
    "साफ-": 8271,
    "पकड़ने": 8272,
    "बख्": 8273,
    "पहुँचने": 8274,
    "बेटियां": 8275,
    "स्वयंसेवक": 8276,
    "साइबर": 8277,
    "एबी": 8278,
    "साझे": 8279,
    "ग्ध": 8280,
    "खरीदना": 8281,
    "एक्सप": 8282,
    "एक्सपर्ट": 8283,
    "यत्न": 8284,
    "रं": 8285,
    "अनुशासन": 8286,
    "10-": 8287,
    "-बाप": 8288,
    "ड्रेस": 8289,
    "दलाल": 8290,
    "कसाब": 8291,
    "पहुंचाया": 8292,
    "हिसार": 8293,
    "मलाइ": 8294,
    "मलाइका": 8295,
    "हौसला": 8296,
    "निकायों": 8297,
    "कर्मा": 8298,
    "शिकायतों": 8299,
    "रोबोट": 8300,
    "कारोबारियों": 8301,
    "निरीक्षक": 8302,
    "ुण": 8303,
    "प्रिय": 8304,
    "आता।": 8305,
    "विद": 8306,
    "मंे": 8307,
    "छात्र-": 8308,
    "त्‍व": 8309,
    "‍ध": 8310,
    "समुदा": 8311,
    "समुदायों": 8312,
    "गंवा": 8313,
    "बनारस": 8314,
    "आभा": 8315,
    "शशि": 8316,
    "सड": 8317,
    "कन्": 8318,
    "एग्": 8319,
    "एलर्जी": 8320,
    "ेक्षित": 8321,
    "चालकों": 8322,
    "तंग": 8323,
    "ठप": 8324,
    "ऎसा": 8325,
    "उनपर": 8326,
    "विजयवर्गीय": 8327,
    "देहा": 8328,
    "मादा": 8329,
    "नपुर": 8330,
    "कमाने": 8331,
    "अनिश्चित": 8332,
    "बल्लेबाजों": 8333,
    "फ़ो": 8334,
    "उत्तराखण्ड": 8335,
    "12वीं": 8336,
    "संभालने": 8337,
    "हिं": 8338,
    "बंधक": 8339,
    "मीना": 8340,
    "रेख": 8341,
    "मराह": 8342,
    "प्रदूषित": 8343,
    "बांटा": 8344,
    "पोलियो": 8345,
    "प्रग": 8346,
    "वन्य": 8347,
    "गगन": 8348,
    "स्मरण": 8349,
    "पारा": 8350,
    "ब्रह्म": 8351,
    "लिप्त": 8352,
    "विनम्र": 8353,
    "रिश्तेदार": 8354,
    "हथे": 8355,
    "शायर": 8356,
    "विश्वकप": 8357,
    "अंध": 8358,
    "भयान": 8359,
    "भयानक": 8360,
    "सिमट": 8361,
    "कर्ष": 8362,
    "पिताजी": 8363,
    "कैदी": 8364,
    "पर।": 8365,
    "सिंधिया": 8366,
    "दित्य": 8367,
    "चौंकाने": 8368,
    "जाएं।": 8369,
    "कॉमन": 8370,
    "बोले,": 8371,
    "लैब": 8372,
    "दाग": 8373,
    "बेटों": 8374,
    "फलों": 8375,
    "पाइए": 8376,
    "काम।": 8377,
    "कर्तव्य": 8378,
    "उंगली": 8379,
    "मर्डर": 8380,
    "08": 8381,
    "Ujala": 8382,
    "10.": 8383,
    "उम्": 8384,
    "ज़ि": 8385,
    "09": 8386,
    "वटी": 8387,
    "71": 8388,
    "लाला": 8389,
    "१५": 8390,
    "सुखद": 8391,
    "अखंड": 8392,
    "दर्शाता": 8393,
    "54": 8394,
    "उपग्रह": 8395,
    "64": 8396,
    "ंतरित": 8397,
    "1984": 8398,
    "बिलियन": 8399,
    "for": 8400,
    "मुर": 8401,
    "मुरली": 8402,
    "82": 8403,
    "108": 8404,
    "mber": 8405,
    "परिवेश": 8406,
    "धमाका": 8407,
    "११": 8408,
    "नौबत": 8409,
    "प्रख्यात": 8410,
    "ह्यू": 8411,
    "द्विवे": 8412,
    "नकद": 8413,
    "किसके": 8414,
    "सिंधु": 8415,
    "सिंगा": 8416,
    "सिंगापुर": 8417,
    "विज्ञा": 8418,
    "माउ": 8419,
    "प्रताड़": 8420,
    "न्दा": 8421,
    "तस्करों": 8422,
    "अन्‍य": 8423,
    "ail": 8424,
    "no": 8425,
    "ia": 8426,
    "Hindi,": 8427,
    "गंज": 8428,
    "नस": 8429,
    "अयोग्य": 8430,
    "न्यूज,": 8431,
    "जगह।": 8432,
    "पैक": 8433,
    "डेविड": 8434,
    "बों": 8435,
    "it": 8436,
    "वर्स": 8437,
    "जम": 8438,
    "ष्टी": 8439,
    "ष्टीकरण": 8440,
    "क्ट्रेट": 8441,
    "विंडो": 8442,
    "कांग": 8443,
    "बडे": 8444,
    "लेडी": 8445,
    "क्योकि": 8446,
    "प्रजाति": 8447,
    "इकाइयों": 8448,
    "सनसनी": 8449,
    "आवेदक": 8450,
    "ज़रूर": 8451,
    "खनिज": 8452,
    "फट": 8453,
    "शहा": 8454,
    "शहाबु": 8455,
    "शहाबुद्दीन": 8456,
    "उतारने": 8457,
    "ख़ु": 8458,
    "वोटरों": 8459,
    "जींद": 8460,
    "विद्रो": 8461,
    ":)": 8462,
    "बनाएं": 8463,
    "उम्मीदें": 8464,
    "भगवा": 8465,
    "पहना": 8466,
    "चूना": 8467,
    "नवरा": 8468,
    "नवरात्र": 8469,
    "मिलेंगे": 8470,
    "ंगा।": 8471,
    "धुन": 8472,
    "उजा": 8473,
    "बखू": 8474,
    "बखूबी": 8475,
    "महासभा": 8476,
    "पाएंगे": 8477,
    "जल्दबाजी": 8478,
    "संभावनाओं": 8479,
    "उदार": 8480,
    "अम": 8481,
    "ढी": 8482,
    "देगा": 8483,
    "किस्मत": 8484,
    "कुंडली": 8485,
    "सातवें": 8486,
    "विच": 8487,
    "बाज़ार": 8488,
    "डालती": 8489,
    "वांछित": 8490,
    "होता.": 8491,
    "साम्": 8492,
    "साम्प्रदायिक": 8493,
    "आवाग": 8494,
    "आवागमन": 8495,
    "अंपा": 8496,
    "अंपायर": 8497,
    "प्रश्नों": 8498,
    "इरादे": 8499,
    "हिंदुत्व": 8500,
    "छलांग": 8501,
    "एकीकृत": 8502,
    "कमलेश": 8503,
    "ईंध": 8504,
    "ईंधन": 8505,
    "आवाज़": 8506,
    "सघन": 8507,
    "अच्‍": 8508,
    "प्रीत": 8509,
    "अड़": 8510,
    "-19": 8511,
    "-चार": 8512,
    "गिलास": 8513,
    "अतीत": 8514,
    "शाखाओं": 8515,
    "त्वर": 8516,
    "त्वरित": 8517,
    "नान": 8518,
    "सतह": 8519,
    "रवैये": 8520,
    "सैम": 8521,
    "भेजकर": 8522,
    "दशी": 8523,
    "रवी": 8524,
    "मियां": 8525,
    "डिस्ट्री": 8526,
    "डिस्ट्रीब्यू": 8527,
    "निर्दिष्ट": 8528,
    "याम": 8529,
    "विक्रम": 8530,
    "अध्यापकों": 8531,
    "समुचित": 8532,
    "अनुपम": 8533,
    "कौशिक": 8534,
    "कॉमे": 8535,
    "कॉमेडी": 8536,
    "रूपों": 8537,
    "रखेंगे।": 8538,
    "फलस्वरूप": 8539,
    "बेन": 8540,
    "बताओ": 8541,
    "एनजीओ": 8542,
    "मोड़": 8543,
    "दोषियों": 8544,
    "ज़न": 8545,
    "उन्मूल": 8546,
    "उन्मूलन": 8547,
    "फिटनेस": 8548,
    "पहाड़ी": 8549,
    "सेफ्टी": 8550,
    "लड़कों": 8551,
    "नरेश": 8552,
    "विवादित": 8553,
    "भावुक": 8554,
    "रूचि": 8555,
    "परिभाषा": 8556,
    "उद्योगों": 8557,
    "टुकड़े": 8558,
    "बैरल": 8559,
    "पासवर्ड": 8560,
    "बंदरगाह": 8561,
    "रोमां": 8562,
    "रोमांटिक": 8563,
    "पलायन": 8564,
    "ोप": 8565,
    "रितिक": 8566,
    "दस्तावेजों": 8567,
    "फुल": 8568,
    "मेकअप": 8569,
    "अबतक": 8570,
    "तक,": 8571,
    "कोशिशें": 8572,
    "हरकतों": 8573,
    "मंडली": 8574,
    "सोचता": 8575,
    "जोड़ा": 8576,
    "भुगतना": 8577,
    "समाना": 8578,
    "करते।": 8579,
    "लियत": 8580,
    "सूचीबद्ध": 8581,
    "आयुष्": 8582,
    "आयुष्मान": 8583,
    "शार": 8584,
    "धुरी": 8585,
    "लूटपाट": 8586,
    "शक्तिशाली": 8587,
    "प्रयाग": 8588,
    "पैकेज": 8589,
    "सुखी": 8590,
    "छोटी-छोटी": 8591,
    "बजकर": 8592,
    "अभ्यर्थ": 8593,
    "अभ्यर्थियों": 8594,
    "आवाजा": 8595,
    "आवाजाही": 8596,
    "फंसे": 8597,
    "लादेन": 8598,
    "नतीजों": 8599,
    "लैंग": 8600,
    "कट्": 8601,
    "बेचैन": 8602,
    "बौद्धि": 8603,
    "बौद्धिक": 8604,
    "विराम": 8605,
    "लंबाई": 8606,
    "द्विपक्ष": 8607,
    "द्विपक्षीय": 8608,
    "मिसाइ": 8609,
    "मिसाइल": 8610,
    "भड़": 8611,
    "संधि": 8612,
    "बैन": 8613,
    "कड़े": 8614,
    "स्व.": 8615,
    "निरोधक": 8616,
    "सहयोगियों": 8617,
    "गरों": 8618,
    "रोष": 8619,
    "पत्रों": 8620,
    "पड़ा.": 8621,
    "अलब": 8622,
    "अलबत्ता": 8623,
    "फिसल": 8624,
    "झड़": 8625,
    "किसकी": 8626,
    "थु": 8627,
    "चौकीदार": 8628,
    "को.": 8629,
    "विश्वस": 8630,
    "विश्वसनीय": 8631,
    "मुश्किलें": 8632,
    "व्यवस्थाओं": 8633,
    "प्रसंग": 8634,
    "लिप": 8635,
    "निवासियों": 8636,
    "ष्‍य": 8637,
    "मुठभेड़": 8638,
    "कहावत": 8639,
    "श्रॉ": 8640,
    "श्रॉफ": 8641,
    "जानबूझकर": 8642,
    "धक": 8643,
    "रखे।": 8644,
    "ग़ज़": 8645,
    "इंस्टीट्यूट": 8646,
    "ज़िम्मे": 8647,
    "टुडे": 8648,
    "गर्भाव": 8649,
    "गर्भावस्था": 8650,
    "अंततः": 8651,
    "विक्रय": 8652,
    "ओला": 8653,
    "लगेगा।": 8654,
    "बिका": 8655,
    "इशारा": 8656,
    "1991": 8657,
    "आरपीएफ": 8658,
    "दुनियाभर": 8659,
    "विपण": 8660,
    "विपणन": 8661,
    "लिब": 8662,
    "विवेकान": 8663,
    "विवेकानंद": 8664,
    "जितेंद्र": 8665,
    "कूट": 8666,
    "स्नेह": 8667,
    "मुम": 8668,
    "मुमकिन": 8669,
    "पेड़ों": 8670,
    "झुलस": 8671,
    "दिखते": 8672,
    "ट्रेंड": 8673,
    "ब्यूटी": 8674,
    "ख़ास": 8675,
    "रोकथाम": 8676,
    "गिंग": 8677,
    "न्‍": 8678,
    "तोड़ने": 8679,
    "चलिए": 8680,
    "अभूत": 8681,
    "लड़े": 8682,
    "पढ़िए": 8683,
    "एसआईटी": 8684,
    "आठवीं": 8685,
    "मोड़": 8686,
    "दिवंगत": 8687,
    "ठेका": 8688,
    "पढने": 8689,
    "ज़रूर": 8690,
    "रचनात्मक": 8691,
    "टिका": 8692,
    "पहाड़": 8693,
    "महिमा": 8694,
    "जीवंत": 8695,
    "प्रशंसक": 8696,
    "रोमांस": 8697,
    "विदाई": 8698,
    "नाम,": 8699,
    "कर्स": 8700,
    "रिलीज़": 8701,
    "दवाई": 8702,
    "मनोवैज्ञानिक": 8703,
    "मेधा": 8704,
    "फिस": 8705,
    "पीए": 8706,
    "सेवानिवृत्त": 8707,
    "घेरे": 8708,
    "आयुर्वेद": 8709,
    "इशारे": 8710,
    "खोलकर": 8711,
    "टीई": 8712,
    "आलोच": 8713,
    "सूट": 8714,
    "डाली": 8715,
    "टिप्स": 8716,
    "सेतु": 8717,
    "प्रांग": 8718,
    "प्रांगण": 8719,
    "शुक्ल": 8720,
    "स्वत": 8721,
    "वारे": 8722,
    "आंसू": 8723,
    "इको": 8724,
    "शेखा": 8725,
    "शेखावत": 8726,
    "मानती": 8727,
    "माफ": 8728,
    "गाया": 8729,
    "श्रीनगर": 8730,
    "उठने": 8731,
    "लुटे": 8732,
    "मचाने": 8733,
    "लड़कियों": 8734,
    "फ़ै": 8735,
    "गोष्": 8736,
    "गोष्ठी": 8737,
    "फते": 8738,
    "पौध": 8739,
    "पौधों": 8740,
    "मार्गों": 8741,
    "गाइड": 8742,
    "दें.": 8743,
    "खड़ी": 8744,
    "कीटना": 8745,
    "वाकि": 8746,
    "वाकिफ": 8747,
    "चिट्": 8748,
    "साक्ष्य": 8749,
    "संग्राम": 8750,
    "यद्य": 8751,
    "यद्यपि": 8752,
    "वेदी": 8753,
    "ऑफ़": 8754,
    "फ्रें": 8755,
    "गानों": 8756,
    "सम्बन्धित": 8757,
    "सूचनाएं": 8758,
    "करोड": 8759,
    "साहू": 8760,
    "अवार्ड": 8761,
    "आशय": 8762,
    "ट्रांस": 8763,
    "सेल्फी": 8764,
    "चिह्": 8765,
    "तरफा": 8766,
    "पेरि": 8767,
    "प्रसव": 8768,
    "कार्ट": 8769,
    "उपयुक्त": 8770,
    "ुसार": 8771,
    "मिडि": 8772,
    "मिडिल": 8773,
    "क्वालि": 8774,
    "क्वालिटी": 8775,
    "निर्देशों": 8776,
    "प्रतिभागियों": 8777,
    "सायना": 8778,
    "कोशिका": 8779,
    "दूरदराज": 8780,
    "एक-दो": 8781,
    "श्रमिक": 8782,
    "दिग्गज": 8783,
    ",500": 8784,
    "हाली": 8785,
    "सीए": 8786,
    "डान": 8787,
    "बेंग": 8788,
    "जिये": 8789,
    "सुधीर": 8790,
    "पुतला": 8791,
    "वारंट": 8792,
    "जेसीबी": 8793,
    "सेक्शन": 8794,
    "लीबिया": 8795,
    "प्रोसेसर": 8796,
    "हड़": 8797,
    "हड़ताल": 8798,
    "उबर": 8799,
    "लगाए।": 8800,
    "अभद्र": 8801,
    "वीन": 8802,
    "गोलियां": 8803,
    "टेक्नोलॉजी": 8804,
    "प्रायः": 8805,
    "एनर्जी": 8806,
    "चियों": 8807,
    "तटीय": 8808,
    "इयां": 8809,
    "पड़ते": 8810,
    "दीक्षा": 8811,
    "इंद्र": 8812,
    "कैप": 8813,
    "क्रमश:": 8814,
    "लटका": 8815,
    "जनादेश": 8816,
    "घात": 8817,
    "घोड़े": 8818,
    "पेमेंट": 8819,
    "साख": 8820,
    "एयरलाइंस": 8821,
    "उपराष्ट्र": 8822,
    "उपराष्ट्रपति": 8823,
    "विलि": 8824,
    "आॅ": 8825,
    "मंह": 8826,
    "अर्जित": 8827,
    "उत्पीड़": 8828,
    "उत्पीड़न": 8829,
    "प्रीमियर": 8830,
    "सकता,": 8831,
    "आंकड़ा": 8832,
    "भुव": 8833,
    "भुवनेश्वर": 8834,
    "एके": 8835,
    "वी.": 8836,
    "तकलीफ": 8837,
    "है.”": 8838,
    "पाई।": 8839,
    "प्राचार्य": 8840,
    "वगै": 8841,
    "वगैरह": 8842,
    "रुझान": 8843,
    "कुश्": 8844,
    "कुश्ती": 8845,
    "मेघ": 8846,
    "संस्थापक": 8847,
    "क्ले": 8848,
    "राक्ष": 8849,
    "फैमिली": 8850,
    "ज्वा": 8851,
    "दुरुपयोग": 8852,
    "पायी": 8853,
    "परंपरागत": 8854,
    "काउंस": 8855,
    "काउंसलिंग": 8856,
    "कमीशन": 8857,
    "टेलीफोन": 8858,
    "स्पेन": 8859,
    "बढऩे": 8860,
    "महंत": 8861,
    "हाइवे": 8862,
    "धर्मों": 8863,
    "झटके": 8864,
    "ए.एस.": 8865,
    "छीन": 8866,
    "सपनों": 8867,
    "एनसीआर": 8868,
    "ऋतु": 8869,
    "फिक्सिंग": 8870,
    "बैड": 8871,
    "बैडमि": 8872,
    "बैडमिंटन": 8873,
    "ोने": 8874,
    "कॉमर्स": 8875,
    "रॉब": 8876,
    "रॉबर्ट": 8877,
    "गुर्": 8878,
    "गुर्जर": 8879,
    "कराता": 8880,
    "कैम्प": 8881,
    "पाता।": 8882,
    "वास्‍": 8883,
    "आड़े": 8884,
    "आंगनबाड़ी": 8885,
    "नस्": 8886,
    "धूल": 8887,
    "तहरीर": 8888,
    "रामायण": 8889,
    "चलेगा।": 8890,
    "सिद्धू": 8891,
    "भरत": 8892,
    "बुलाने": 8893,
    "त्स्य": 8894,
    "फॉर्": 8895,
    "संन्यास": 8896,
    "लम्बे": 8897,
    "नफ": 8898,
    "नफरत": 8899,
    "सूद": 8900,
    "पहनने": 8901,
    "दहेज": 8902,
    "दबो": 8903,
    "रेफर": 8904,
    "क्वार्": 8905,
    "क्वार्टर": 8906,
    "फैक्टरी": 8907,
    "टंकी": 8908,
    "डेरा": 8909,
    "कराई।": 8910,
    "संशोधित": 8911,
    "मोहल्ला": 8912,
    "फ्लो": 8913,
    "टेनिस": 8914,
    "हमको": 8915,
    "द्रविड़": 8916,
    "ओमप्रकाश": 8917,
    "झूठा": 8918,
    "अनो": 8919,
    "संभवत:": 8920,
    "निकलना": 8921,
    "कारण,": 8922,
    "परवाह": 8923,
    "पीटा": 8924,
    "घड़ी": 8925,
    "उत्कृ": 8926,
    "उत्कृष्ट": 8927,
    "छुट्": 8928,
    "de": 8929,
    "कुरै": 8930,
    "कुरैशी": 8931,
    "हिल": 8932,
    "चुपचाप": 8933,
    "केला": 8934,
    "दाखिले": 8935,
    "बीएम": 8936,
    "पर्यटक": 8937,
    "गर्ग": 8938,
    "लोका": 8939,
    "लोकायुक्त": 8940,
    "महंगे": 8941,
    "स्पिनर": 8942,
    "केशव": 8943,
    "श्रीराम": 8944,
    "दूरसंचार": 8945,
    "यहा": 8946,
    "दे,": 8947,
    "दुकानदारों": 8948,
    "भै": 8949,
    "भैया": 8950,
    "इंडस्ट्रीज": 8951,
    "पटिया": 8952,
    "पटियाला": 8953,
    "राण": 8954,
    "अनियमितता": 8955,
    "नोकिया": 8956,
    "मौन": 8957,
    "मसल": 8958,
    "हामि": 8959,
    "हामिद": 8960,
    "दंपती": 8961,
    "महंगी": 8962,
    "एलपीजी": 8963,
    "खुलासे": 8964,
    ":-": 8965,
    "मानदेय": 8966,
    "जिन्दगी": 8967,
    "ट्राफी": 8968,
    "ड्राइव": 8969,
    "56": 8970,
    "शिवाजी": 8971,
    "1960": 8972,
    "भारत-पाक": 8973,
    "1983": 8974,
    "73": 8975,
    "जुए": 8976,
    "नमी": 8977,
    "खोले": 8978,
    "83": 8979,
    "संगठित": 8980,
    "88": 8981,
    "काव्य": 8982,
    "2001": 8983,
    "जीडीपी": 8984,
    "व्यवस्थित": 8985,
    "छः": 8986,
    "क्रिसम": 8987,
    "क्रिसमस": 8988,
    "विश्‍": 8989,
    "लगाएं": 8990,
    "गिरवी": 8991,
    "रिटाय": 8992,
    "रिटायर्ड": 8993,
    "140": 8994,
    "दंगे": 8995,
    "5.": 8996,
    "थी?": 8997,
    "जमात": 8998,
    "डिस्क": 8999,
    "जलाने": 9000,
    "मुस्लिमों": 9001,
    "6.": 9002,
    "बैठकों": 9003,
    "पुरे": 9004,
    "Live": 9005,
    "नेपाली": 9006,
    "पहाड़ी": 9007,
    "Au": 9008,
    "gu": 9009,
    "10:": 9010,
    "evi": 9011,
    "Ban": 9012,
    "आर्टिकल": 9013,
    "प्रॉपर्": 9014,
    "प्रॉपर्टी": 9015,
    "जरु": 9016,
    "जरुरी": 9017,
    "खिड़की": 9018,
    "फैली": 9019,
    "कमांड": 9020,
    "माइंड": 9021,
    "odi": 9022,
    "05": 9023,
    "बेघर": 9024,
    "चयनित": 9025,
    "काउंसिल": 9026,
    "राजन": 9027,
    "ry": 9028,
    "Hom": 9029,
    "Home": 9030,
    "कॉपी": 9031,
    "ja": 9032,
    "To": 9033,
    "त्रिक": 9034,
    "January": 9035,
    "सस्ता": 9036,
    "राजनेता": 9037,
    "कार्यान्वयन": 9038,
    "बर्थडे": 9039,
    "Ap": 9040,
    "this": 9041,
    "Mon": 9042,
    "oun": 9043,
    "प्रपत्र": 9044,
    "स्टार्स": 9045,
    "समझे": 9046,
    "जगन्": 9047,
    "जगन्नाथ": 9048,
    "नाच": 9049,
    "होट": 9050,
    "लाभार्थियों": 9051,
    "कोहरे": 9052,
    "टैंक": 9053,
    "प्रीति": 9054,
    "छिड़": 9055,
    "Nov": 9056,
    "BJ": 9057,
    "BJP": 9058,
    "परहेज": 9059,
    "महत्त्वपूर्ण": 9060,
    "सन्देश": 9061,
    "रजनीकांत": 9062,
    "मिस्र": 9063,
    "नारियल": 9064,
    "टिप्पणियाँ": 9065,
    "पुजारी": 9066,
    "उपायुक्त": 9067,
    "बढ़ाना": 9068,
    "व्यर्थ": 9069,
    "गंदे": 9070,
    "त्ल": 9071,
    "सम्पन्न": 9072,
    "छठी": 9073,
    "पत्तियों": 9074,
    "टेक्स": 9075,
    "तोहफे": 9076,
    "चाहें": 9077,
    "गुवाहा": 9078,
    "गुवाहाटी": 9079,
    "आइडिया": 9080,
    "स्टेज": 9081,
    "पड़ेगा": 9082,
    "सैल": 9083,
    "दिखाता": 9084,
    "सामंज": 9085,
    "सामंजस्य": 9086,
    "झूठी": 9087,
    "फ़्": 9088,
    "दिखाए": 9089,
    "ताकतों": 9090,
    "मुंडा": 9091,
    "दार्श": 9092,
    "दार्शनिक": 9093,
    "मिश्रण": 9094,
    "अगला": 9095,
    "अधिनियम,": 9096,
    "भौगो": 9097,
    "भौगोलिक": 9098,
    "सकेंगे": 9099,
    "संगत": 9100,
    "बदलता": 9101,
    "निमंत्र": 9102,
    "निमंत्रण": 9103,
    "सहवा": 9104,
    "सहवाग": 9105,
    "मूव": 9106,
    "सच्चे": 9107,
    "डेमोक्रे": 9108,
    "डेमोक्रेटिक": 9109,
    "नगर,": 9110,
    "सर्किल": 9111,
    "अजीत": 9112,
    "आधुनिकता": 9113,
    "सच्ची": 9114,
    "शहाद": 9115,
    "शहादत": 9116,
    "विकासशील": 9117,
    "वसूल": 9118,
    "मंथन": 9119,
    "अतिथियों": 9120,
    "कवरेज": 9121,
    "एप्पल": 9122,
    "गम्": 9123,
    "गम्भीर": 9124,
    "निदेशा": 9125,
    "निदेशालय": 9126,
    "सरेआम": 9127,
    "सड़कें": 9128,
    "तैनाती": 9129,
    "पेशा": 9130,
    "जमाव": 9131,
    "सिफारिशों": 9132,
    "डीलर": 9133,
    "देओ": 9134,
    "देओल": 9135,
    "रिक्शा": 9136,
    "चलाते": 9137,
    "संयोजन": 9138,
    "मान्यताओं": 9139,
    "कारगिल": 9140,
    "वेबसाइटों": 9141,
    "रोधी": 9142,
    "चोटी": 9143,
    "बनवाने": 9144,
    "भगा": 9145,
    "सिग": 9146,
    "सिगरेट": 9147,
    "स्‍थान": 9148,
    "दुर्घटनाओं": 9149,
    "अनुयाय": 9150,
    "अनुयायियों": 9151,
    "जनजाति": 9152,
    "अनूप": 9153,
    "माँग": 9154,
    "अन्तर": 9155,
    "गुणा": 9156,
    "रंगी": 9157,
    "कार्यालयों": 9158,
    "भूखे": 9159,
    "असंभव": 9160,
    "ार्पण": 9161,
    "मीद": 9162,
    "व्याप्त": 9163,
    "कॅ": 9164,
    "कॅरियर": 9165,
    "डालते": 9166,
    "वैधता": 9167,
    "सचमु": 9168,
    "सचमुच": 9169,
    "उन्नति": 9170,
    "पढ़कर": 9171,
    "मुकाम": 9172,
    "क्रीम": 9173,
    "रॉयल": 9174,
    "स्तन": 9175,
    "बहनों": 9176,
    "तिहाई": 9177,
    "लो।": 9178,
    "लेवल": 9179,
    "उखा": 9180,
    "अपनों": 9181,
    "फैला": 9182,
    "बिलास": 9183,
    "बिलासपुर": 9184,
    "प्रक्षे": 9185,
    "ट्रायल": 9186,
    "ने.": 9187,
    "टेलीविजन": 9188,
    "दसवीं": 9189,
    "तालिबान": 9190,
    "वका": 9191,
    "वकालत": 9192,
    "्यौ": 9193,
    "उठाई": 9194,
    "हस्तियों": 9195,
    "मिनि": 9196,
    "नेताजी": 9197,
    "व्यंग": 9198,
    "व्यंग्य": 9199,
    "शाका": 9200,
    "कहासुनी": 9201,
    "राफेल": 9202,
    "मियाजा": 9203,
    "पद्म": 9204,
    "इज्": 9205,
    "इज्जत": 9206,
    "1500": 9207,
    "ओबीसी": 9208,
    "राजपू": 9209,
    "राजपूत": 9210,
    "पर्स": 9211,
    "कलाम": 9212,
    "अभिनंदन": 9213,
    "उपलब्धियों": 9214,
    "दत्ता": 9215,
    "उसमे": 9216,
    "बोलना": 9217,
    "फोर्": 9218,
    "पाएगा।": 9219,
    "बरतने": 9220,
    "भूकंप": 9221,
    "शुदा": 9222,
    "संघीय": 9223,
    "बगल": 9224,
    "एसएच": 9225,
    "तोमर": 9226,
    "कालिक": 9227,
    "आपात": 9228,
    "घाटे": 9229,
    "निभाने": 9230,
    "उर्वर": 9231,
    "अम्बेडकर": 9232,
    "अफवाह": 9233,
    "पड़े।": 9234,
    "टीना": 9235,
    "खिलाड़ी": 9236,
    "साफ़": 9237,
    "माओवादियों": 9238,
    "रिमोट": 9239,
    "मेजबान": 9240,
    "गुट": 9241,
    "विद्रोह": 9242,
    "दाई": 9243,
    "तरफ़": 9244,
    "अलीगढ़": 9245,
    "प्पल": 9246,
    "बुनियाद": 9247,
    "नसीब": 9248,
    "तमा": 9249,
    "दोहराया": 9250,
    "ग्रि": 9251,
    "उग्रवादी": 9252,
    "अंतरिम": 9253,
    "न्हे": 9254,
    "खौ": 9255,
    "खौफ": 9256,
    "लगीं।": 9257,
    "पड़ेगा": 9258,
    "भाषी": 9259,
    "परीक्षाओं": 9260,
    "वेशन": 9261,
    "प्रमाणित": 9262,
    "फेडर": 9263,
    "लोग,": 9264,
    "1995": 9265,
    "2003": 9266,
    "ड़की": 9267,
    "आईएएस": 9268,
    "वाहक": 9269,
    "यूके": 9270,
    "जमीनी": 9271,
    "मोहल्ले": 9272,
    "ही.": 9273,
    "दब": 9274,
    "फ्लॉ": 9275,
    "फ्लॉप": 9276,
    "इसपर": 9277,
    "ब्रिगे": 9278,
    "हुईं": 9279,
    "किला": 9280,
    "पत्र,": 9281,
    "रहेगी.": 9282,
    "नैति": 9283,
    "नैतिकता": 9284,
    "गुम": 9285,
    "कभार": 9286,
    "बॉलि": 9287,
    "बॉलिवुड": 9288,
    "युगल": 9289,
    "शिवरात्रि": 9290,
    "आईएएनएस": 9291,
    "म्या": 9292,
    "क्यों?": 9293,
    "हिन्दुओं": 9294,
    "चावला": 9295,
    "सरकारें": 9296,
    "शोधकर्ताओं": 9297,
    "उठते": 9298,
    "रिलेशन": 9299,
    "कुरु": 9300,
    "कुरुक्षेत्र": 9301,
    "ानुसार": 9302,
    "अहमियत": 9303,
    "पूँ": 9304,
    "पूँजी": 9305,
    "जाएंगे,": 9306,
    "सतत": 9307,
    "जाएंगी": 9308,
    "‘आप": 9309,
    "काग": 9310,
    "बहिष्कार": 9311,
    "माला": 9312,
    "दियां": 9313,
    "चलें": 9314,
    "स्ट्रीट": 9315,
    "जाने-माने": 9316,
    "व्हाट्स": 9317,
    "पाउ": 9318,
    "पाउडर": 9319,
    "परिप्रे": 9320,
    "परिप्रेक्ष्य": 9321,
    "सोचे": 9322,
    "आपमें": 9323,
    "निवेदन": 9324,
    "हल्की": 9325,
    "परिप": 9326,
    "परिपक्": 9327,
    "परिपक्व": 9328,
    "प्रतीत": 9329,
    "करिश्मा": 9330,
    "लोकल": 9331,
    "उठी": 9332,
    "गड़बड़ी": 9333,
    "एसिड": 9334,
    "मुंबई,": 9335,
    "भवानी": 9336,
    "मालिकों": 9337,
    "रिमांड": 9338,
    "समृद्धि": 9339,
    "नानक": 9340,
    "दुर्बल": 9341,
    "कसूर": 9342,
    "मिलेगा.": 9343,
    "आशु": 9344,
    "सूर्या": 9345,
    "शिवलिंग": 9346,
    "रास्त": 9347,
    "रास्तों": 9348,
    "अपवाद": 9349,
    "प्रिया": 9350,
    "आएंगी।": 9351,
    "इक्वि": 9352,
    "इक्विटी": 9353,
    "रूसी": 9354,
    "इस्तीफे": 9355,
    "करंट": 9356,
    "प्रदेशा": 9357,
    "प्रदेशाध्यक्ष": 9358,
    "अधूरा": 9359,
    "पाले": 9360,
    "क्रांतिकारी": 9361,
    "गढ़वाल": 9362,
    "जिसपर": 9363,
    "पार्लर": 9364,
    "ल्थ": 9365,
    "प्रतिकूल": 9366,
    "जौहर": 9367,
    "देशमुख": 9368,
    "लोनियों": 9369,
    "आराध": 9370,
    "आराधना": 9371,
    "खपत": 9372,
    "जूते": 9373,
    "जुरा": 9374,
    "खंडे": 9375,
    "गड्": 9376,
    "सेलिब्रे": 9377,
    "मिलेंगे।": 9378,
    "ही।": 9379,
    "सुचार": 9380,
    "बालिकाओं": 9381,
    "विरूद्ध": 9382,
    "भांति": 9383,
    "ज्ञानी": 9384,
    "इधर-": 9385,
    "इधर-उधर": 9386,
    "सोहन": 9387,
    "नोई": 9388,
    "मणिपुर": 9389,
    "येदियुरप्पा": 9390,
    "एजेंट": 9391,
    "निभाई": 9392,
    "आओ": 9393,
    "माकपा": 9394,
    "दरी": 9395,
    "हिदा": 9396,
    "हिदायत": 9397,
    "चंद्रा": 9398,
    "दुबे": 9399,
    "सीतार": 9400,
    "2.5": 9401,
    "भूपेंद्र": 9402,
    "सक्सेना": 9403,
    "पुरस्कृत": 9404,
    "नेहरु": 9405,
    "तहसीलदार": 9406,
    "गांधीजी": 9407,
    "जोकि": 9408,
    "प्रत्यर्": 9409,
    "किसे": 9410,
    "दृढ़": 9411,
    "अर्थशास्त्र": 9412,
    "तरल": 9413,
    "ंगर": 9414,
    "करवाए": 9415,
    "छोड़ा": 9416,
    "रोजमर्रा": 9417,
    "प्रचलित": 9418,
    "सीमाओं": 9419,
    "एह": 9420,
    "एहसास": 9421,
    "गाजी": 9422,
    "नि:": 9423,
    "सुब्र": 9424,
    "अभियानों": 9425,
    "एकत्रित": 9426,
    "बुलाई": 9427,
    "एवज": 9428,
    "निकला।": 9429,
    "भाटिया": 9430,
    "बाघ": 9431,
    "इंटेलि": 9432,
    "इंटेलिजें": 9433,
    "बढ़ाया": 9434,
    "चुनी": 9435,
    "बवाल": 9436,
    "सर्स": 9437,
    "फॉलो": 9438,
    "साझेदारी": 9439,
    "बलिया": 9440,
    "धंधा": 9441,
    "घर-घर": 9442,
    "बुन": 9443,
    "राजनय": 9444,
    "गहन": 9445,
    "बरस": 9446,
    "जर्मन": 9447,
    "सीमेंट": 9448,
    "मयं": 9449,
    "मयंक": 9450,
    "टैबलेट": 9451,
    "खासतौर": 9452,
    "मददगार": 9453,
    "सिपाही": 9454,
    "रहीम": 9455,
    "डम": 9456,
    "ज़रू": 9457,
    "बीपी": 9458,
    "सकेगी।": 9459,
    "बीएड": 9460,
    "धनु": 9461,
    "खाद्": 9462,
    "खाद्या": 9463,
    "खाद्यान्न": 9464,
    "डिय़": 9465,
    "मामा": 9466,
    "होशियार": 9467,
    "सामुदायिक": 9468,
    "जेड": 9469,
    "ीयू": 9470,
    "माननीय": 9471,
    "महीना": 9472,
    "पुनर्वास": 9473,
    "चांदी": 9474,
    "ईयर": 9475,
    "निकालना": 9476,
    "र्मल": 9477,
    "संभाग": 9478,
    "वाड़ा": 9479,
    "बिखर": 9480,
    "प्रशंसकों": 9481,
    "उच्चा": 9482,
    "बढ़ी": 9483,
    "राजनेताओं": 9484,
    "ल्टी": 9485,
    "अनियंत्रित": 9486,
    "ैंडल": 9487,
    "ल्यू": 9488,
    "प्रमोद": 9489,
    "सेक्सी": 9490,
    "स्सी": 9491,
    "महत्‍व": 9492,
    "उपलब्‍ध": 9493,
    "विलास": 9494,
    "पासवान": 9495,
    "एग्जाम": 9496,
    "प्रतिबद्धता": 9497,
    "मीकि": 9498,
    "दहन": 9499,
    "ट्रिक": 9500,
    "कम्प्यूटर": 9501,
    "साक्षरता": 9502,
    "गुरमी": 9503,
    "गुरमीत": 9504,
    "मुनाफा": 9505,
    "कण": 9506,
    "देंगी।": 9507,
    "निवेशक": 9508,
    "संगीन": 9509,
    "विकलांग": 9510,
    "मकानों": 9511,
    "षड्य": 9512,
    "षड्यंत्र": 9513,
    "रिय": 9514,
    "बड़": 9515,
    "हेक्टेयर": 9516,
    "क्लार्क": 9517,
    "नौजवानों": 9518,
    "बेरोजग": 9519,
    "बेरोजगारी": 9520,
    "उद्ध": 9521,
    "सहार": 9522,
    "सहारनपुर": 9523,
    "सलामी": 9524,
    "इंस्टाग्राम": 9525,
    "सिस": 9526,
    "आधारभूत": 9527,
    "विक्षिप्त": 9528,
    "समाजसेवी": 9529,
    "आश्व": 9530,
    "आश्वस्त": 9531,
    "सुप्रीमो": 9532,
    "परीक्षाएं": 9533,
    "उद्यान": 9534,
    "स्टार्ट": 9535,
    "पुण्य": 9536,
    "पुष्प": 9537,
    "चीख": 9538,
    "हिंसक": 9539,
    "कदर": 9540,
    "जामा": 9541,
    "सौंपे": 9542,
    "सियां": 9543,
    "वामपंथी": 9544,
    "खां": 9545,
    "गुमराह": 9546,
    "पेशक": 9547,
    "पेशकश": 9548,
    "बौछ": 9549,
    "बौछार": 9550,
    "ताव": 9551,
    "कास्ट": 9552,
    "मुख्या": 9553,
    "रई": 9554,
    "रईस": 9555,
    "थानाधिकारी": 9556,
    "पीडि़ता": 9557,
    "कम्पनियों": 9558,
    "नड्डा": 9559,
    "ूक": 9560,
    "वर्च": 9561,
    "वर्चस्व": 9562,
    "बर्फबारी": 9563,
    "संप्रग": 9564,
    "तैयारियां": 9565,
    "उपयोगकर्ता": 9566,
    "सबका": 9567,
    "अंकल": 9568,
    "कर्ण": 9569,
    "कुशी": 9570,
    "ज्‍या": 9571,
    "ज्‍यादा": 9572,
    "भतीजे": 9573,
    "लीक": 9574,
    "कुपोषण": 9575,
    "पूर्वांचल": 9576,
    "टर्न": 9577,
    "भीत": 9578,
    "नामों": 9579,
    "मुक": 9580,
    "मर्जी": 9581,
    "होड़": 9582,
    "प्रतिरोध": 9583,
    "हैं.’": 9584,
    "फ़ो": 9585,
    "पारस": 9586,
    "चिन्हित": 9587,
    "नं.": 9588,
    "धारावा": 9589,
    "धारावाहिक": 9590,
    "परत": 9591,
    "काल्": 9592,
    "फल-": 9593,
    "चैंपियनशिप": 9594,
    "गेंदबाजों": 9595,
    "ीकरण": 9596,
    "मेहर": 9597,
    "पौधा": 9598,
    "पीएचडी": 9599,
    "गवर्नर": 9600,
    "जीप": 9601,
    "धातु": 9602,
    "तृतीय": 9603,
    "प्रधा": 9604,
    "प्रधाना": 9605,
    "यूथ": 9606,
    "मसाला": 9607,
    "ज्योतिरा": 9608,
    "ज्योतिरादित्य": 9609,
    "खुर्": 9610,
    "खुर्शी": 9611,
    "खुर्शीद": 9612,
    "चव्हा": 9613,
    "चव्हाण": 9614,
    "देता।": 9615,
    "will": 9616,
    "सड़कों": 9617,
    "पुस्तकें": 9618,
    "रहेगा,": 9619,
    "ब्रिज": 9620,
    "हाँ,": 9621,
    "अंतर्": 9622,
    "मैक": 9623,
    "शवों": 9624,
    "लाती": 9625,
    "कपड़": 9626,
    "कपड़ों": 9627,
    "लगा,": 9628,
    "मुसी": 9629,
    "मुसीबत": 9630,
    "बालाजी": 9631,
    "सस्पेंड": 9632,
    "चिदंबर": 9633,
    "चिदंबरम": 9634,
    "पांचवें": 9635,
    "राजी": 9636,
    "जहर": 9637,
    "शह": 9638,
    "भूमिगत": 9639,
    "करे,": 9640,
    "विध": 9641,
    "विधवा": 9642,
    "महिंद्रा": 9643,
    "साईं": 9644,
    "रसायन": 9645,
    "दौड़": 9646,
    "रत्न": 9647,
    "विशेषकर": 9648,
    "बॉम्": 9649,
    "re": 9650,
    "बोले-": 9651,
    "गांधी,": 9652,
    "लॉक": 9653,
    "बहरहाल": 9654,
    "News।": 9655,
    "छात्रावास": 9656,
    "पं.": 9657,
    "नरसिंह": 9658,
    "नेत्र": 9659,
    "उभरती": 9660,
    "प्रवास": 9661,
    "रणजी": 9662,
    "अप्रैल,": 9663,
    "सुने": 9664,
    "१८": 9665,
    "अखा": 9666,
    "ताश": 9667,
    "शक्तियां": 9668,
    "गईं,": 9669,
    "61": 9670,
    "चित्रा": 9671,
    "अकाली": 9672,
    "1988": 9673,
    "जबर्द": 9674,
    "जबर्दस्त": 9675,
    "अधूरी": 9676,
    "86": 9677,
    "रिहाई": 9678,
    "थिए": 9679,
    "थिएटर": 9680,
    "धनी": 9681,
    "माई": 9682,
    "निकाले": 9683,
    "ऋतिक": 9684,
    "गृहस्थी": 9685,
    "जनजातीय": 9686,
    "ध्‍य": 9687,
    "स्‍था": 9688,
    "जीवी": 9689,
    "गुनाह": 9690,
    "2जी": 9691,
    "शिंदे": 9692,
    "149": 9693,
    "झो": 9694,
    "पाकिस्‍तान": 9695,
    "रचनाकार": 9696,
    "सुरंग": 9697,
    "तया": 9698,
    "निदेश": 9699,
    "170": 9700,
    "हुआ?": 9701,
    "औऱ": 9702,
    "चलाकर": 9703,
    "8.": 9704,
    "गुड": 9705,
    "बन्ध": 9706,
    "कोसी": 9707,
    "धर्मनिरपेक्षता": 9708,
    "जानले": 9709,
    "जानलेवा": 9710,
    "किये।": 9711,
    "संपादन": 9712,
    "मनाई": 9713,
    "गांठ": 9714,
    "aper": 9715,
    "220": 9716,
    "जीरो": 9717,
    "Ele": 9718,
    "Election": 9719,
    "लचर": 9720,
    "हेडली": 9721,
    "इकबाल": 9722,
    "Ch": 9723,
    "बेरी": 9724,
    "ig": 9725,
    "ing": 9726,
    "तुर्": 9727,
    "झक": 9728,
    "कॉरपोरेशन": 9729,
    "देवगन": 9730,
    "14,": 9731,
    "आत्मविश्वास": 9732,
    "माध्य": 9733,
    "माध्यमिक": 9734,
    "Ho": 9735,
    "भूजल": 9736,
    "धौ": 9737,
    "धौनी": 9738,
    "ull": 9739,
    "परिणामों": 9740,
    "लेबल:": 9741,
    "नाइटेड": 9742,
    "day,": 9743,
    "बच्चो": 9744,
    "350": 9745,
    "eng": 9746,
    "Wed": 9747,
    "चाहिए?": 9748,
    "ानुभूति": 9749,
    "कीमतें": 9750,
    "ident": 9751,
    "बाहु": 9752,
    "बाहुबली": 9753,
    "post": 9754,
    "तोड़ी": 9755,
    "इव": 9756,
    "इवेंट": 9757,
    "ac": 9758,
    "लाजवाब": 9759,
    "फ्लैग": 9760,
    "भाषित": 9761,
    "जेक्शन": 9762,
    "(IST": 9763,
    "(IST)": 9764,
    "आजीवन": 9765,
    "ess": 9766,
    "अराज": 9767,
    "कचरे": 9768,
    "अगस्त,": 9769,
    "जिज्ञा": 9770,
    "बास": 9771,
    "है\"": 9772,
    "गिफ्ट": 9773,
    "भेजें": 9774,
    "अविनाश": 9775,
    "2016,": 9776,
    "पूजा-": 9777,
    "पूजा-अर्चना": 9778,
    "धूमधाम": 9779,
    "पद्मावती": 9780,
    "बिल्ड": 9781,
    "गैंगरेप": 9782,
    "स्पोर्ट्स": 9783,
    "जाप": 9784,
    "कहूं": 9785,
    "जुर्म": 9786,
    "परीक्षार्थी": 9787,
    "छठ": 9788,
    "नही,": 9789,
    "कुत्तों": 9790,
    "बागी": 9791,
    "जल्‍": 9792,
    "सेंजर": 9793,
    "सुनता": 9794,
    "बेसिक": 9795,
    "चाहते.": 9796,
    "सुनना": 9797,
    "सोचती": 9798,
    "गोमती": 9799,
    "मोहब्बत": 9800,
    "सुनाते": 9801,
    "विरोधियों": 9802,
    "जायज": 9803,
    "वाजि": 9804,
    "वाजिब": 9805,
    "देशभक्ति": 9806,
    "अस्थ": 9807,
    "पीडीपी": 9808,
    "सोया": 9809,
    "ल्वर": 9810,
    "कोचिंग": 9811,
    "नेशन": 9812,
    "अरुणा": 9813,
    "गूंज": 9814,
    "प्रतिद्वंद्वी": 9815,
    "साठ": 9816,
    "पारदर्शी": 9817,
    "अग्रिम": 9818,
    "ट्टियों": 9819,
    "जोड़ी": 9820,
    "दीं।": 9821,
    "अच्‍छा": 9822,
    "डेयरी": 9823,
    "तलाशने": 9824,
    "निकाली।": 9825,
    "बनाई।": 9826,
    "रोटरी": 9827,
    "जहरी": 9828,
    "नागा": 9829,
    "चुनना": 9830,
    "सैशन": 9831,
    "नवजात": 9832,
    "समय,": 9833,
    "सेठ": 9834,
    "असीम": 9835,
    "पड़ेगा.": 9836,
    "नीतिगत": 9837,
    "सैमसंग": 9838,
    "आरोप-": 9839,
    "प्रवर्तन": 9840,
    "अदालतों": 9841,
    "भया": 9842,
    "एकादशी": 9843,
    "लद्दा": 9844,
    "लद्दाख": 9845,
    "दायी": 9846,
    "अप्रत्यक्ष": 9847,
    "शक्तियों": 9848,
    "अनुमोदन": 9849,
    "कार्यपालक": 9850,
    "नियति": 9851,
    "व्यायाम": 9852,
    "वासना": 9853,
    "उम्मीदों": 9854,
    "संबोधन": 9855,
    "करायी": 9856,
    "ूंगा": 9857,
    "टिप्‍": 9858,
    "खेर": 9859,
    "अनुभ": 9860,
    "अनुभवी": 9861,
    "गिक": 9862,
    "नापाक": 9863,
    "बीच-": 9864,
    "फ़ी": 9865,
    "जताया।": 9866,
    "कुलर": 9867,
    "चलाना": 9868,
    "व्यापी": 9869,
    "नियंत्रक": 9870,
    "खिलौ": 9871,
    "अन्यथा": 9872,
    "हिटलर": 9873,
    "सनातन": 9874,
    "एकसाथ": 9875,
    "गंगो": 9876,
    "गंगोत्री": 9877,
    "तूल": 9878,
    "बटो": 9879,
    "चचे": 9880,
    "मोहित": 9881,
    "प्रेमिका": 9882,
    "खिलाडियों": 9883,
    "कटाक्ष": 9884,
    "ईमानदार": 9885,
    "प्रैक्": 9886,
    "प्रैक्टिस": 9887,
    "एशियाई": 9888,
    "खया": 9889,
    "खयाल": 9890,
    "प्रवचन": 9891,
    "विज्ञापनों": 9892,
    "तरस": 9893,
    "करारी": 9894,
    "भूट": 9895,
    "भूटान": 9896,
    "मताधिकार": 9897,
    "ंतरण": 9898,
    "कैन": 9899,
    "सेंगर": 9900,
    "एकांत": 9901,
    "करो,": 9902,
    "प्रत्यार": 9903,
    "प्रत्यारोप": 9904,
    "करोड़ों": 9905,
    "सली": 9906,
    "यूरे": 9907,
    "यूरेनियम": 9908,
    "सफलतापूर्वक": 9909,
    "तालमेल": 9910,
    "बढ़ता": 9911,
    "वाक": 9912,
    "उलट": 9913,
    "घू": 9914,
    "1992": 9915,
    "पक्की": 9916,
    "रोहतक": 9917,
    "नजरें": 9918,
    "चिड़": 9919,
    "सदनों": 9920,
    "कम्युनिस्ट": 9921,
    "व्याख्यान": 9922,
    "बक": 9923,
    "प्रज्ञा": 9924,
    "शारदा": 9925,
    "दिखी": 9926,
    "माधुरी": 9927,
    "अधिवक्ता": 9928,
    "तुमसे": 9929,
    "समझी": 9930,
    "आनन्द": 9931,
    "-भिन्न": 9932,
    "ख्वाजा": 9933,
    "प्रिंसि": 9934,
    "प्रिंसिपल": 9935,
    "तत्वा": 9936,
    "राजदूत": 9937,
    "ितों": 9938,
    "समलैंग": 9939,
    "सोलर": 9940,
    "उदासीन": 9941,
    "क्षु": 9942,
    "होंडा": 9943,
    "धर्में": 9944,
    "धर्मेंद्र": 9945,
    "शीत": 9946,
    "रिपब्लिक": 9947,
    "दक्ष": 9948,
    "घंटा": 9949,
    "अय": 9950,
    "ठिकानों": 9951,
    "कैदियों": 9952,
    "मेयर": 9953,
    "केसरी": 9954,
    "नमाज": 9955,
    "जॉर्ज": 9956,
    "ने।": 9957,
    "गश्त": 9958,
    "दिखा।": 9959,
    "बयां": 9960,
    "ग्रहों": 9961,
    "भूपेश": 9962,
    "झड़प": 9963,
    "मथु": 9964,
    "मथुरा": 9965,
    "चालीस": 9966,
    "घेराब": 9967,
    "घेराबंदी": 9968,
    "अल्प": 9969,
    "उल्टी": 9970,
    "स्क्रि": 9971,
    "स्क्रिप्ट": 9972,
    "मनमानी": 9973,
    "गुजरते": 9974,
    "बलू": 9975,
    "बलूचि": 9976,
    "बलूचिस्तान": 9977,
    "क्वे": 9978,
    "सत्रों": 9979,
    "अजमल": 9980,
    "उद्यम": 9981,
    "खानी": 9982,
    "असलियत": 9983,
    "स्वरुप": 9984,
    "हल्का": 9985,
    "फेंका": 9986,
    "सूक्ष्": 9987,
    "सूक्ष्म": 9988,
    "घबरा": 9989,
    "02": 9990,
    "वाहों": 9991,
    "गलतियां": 9992,
    "गुंडा": 9993,
    "गुंडागर्": 9994,
    "गुंडागर्दी": 9995,
    "फेरबदल": 9996,
    "एटी": 9997,
    "विकास,": 9998,
    "रखाव": 9999
  },
  "merges": {
    "क े": 4,
    "े ं": 5,
    "ह ै": 6,
    "ा र": 7,
    "न े": 8,
    "् र": 9,
    "म ें": 10,
    "य ा": 11,
    "क ी": 12,
    "स े": 13,
    "क ा": 14,
    "क ि": 15,
    "क र": 16,
    "क ो": 17,
    "ो ं": 18,
    "त ा": 19,
    "न ा": 20,
    "ह ी": 21,
    "स ्": 22,
    "र ्": 23,
    "प र": 24,
    "क ्": 25,
    "औ र": 26,
    "ा न": 27,
    "ल े": 28,
    "ल ा": 29,
    "प ्र": 30,
    "ल ि": 31,
    "है ।": 32,
    "ह ा": 33,
    "व ा": 34,
    "् य": 35,
    "ज ा": 36,
    "ह ो": 37,
    "स ा": 38,
    "भ ी": 39,
    "व ि": 40,
    "र ा": 41,
    "इ स": 42,
    "है ं": 43,
    "क ार": 44,
    "द े": 45,
    "द ि": 46,
    "म ा": 47,
    "ब ा": 48,
    "त े": 49,
    "त ि": 50,
    "त ी": 51,
    "न ि": 52,
    "ह ु": 53,
    "ही ं": 54,
    "ग ा": 55,
    "न ्": 56,
    "त ्र": 57,
    "थ ा": 58,
    "ए क": 59,
    "ड ़": 60,
    "ल ी": 61,
    "लि ए": 62,
    "न ी": 63,
    "स ं": 64,
    "न हीं": 65,
    "स ी": 66,
    "प ा": 67,
    "म ि": 68,
    "क् ष": 69,
    "र ह": 70,
    "ज ि": 71,
    "त ्": 72,
    "र ी": 73,
    "अ प": 74,
    "म ु": 75,
    "द ी": 76,
    "त ो": 77,
    "ि त": 78,
    "ं ग": 79,
    "भ ा": 80,
    "ल ्": 81,
    "य ों": 82,
    "ो ग": 83,
    "हैं ।": 84,
    "कि या": 85,
    "स म": 86,
    "व ार": 87,
    "स ि": 88,
    "च ा": 89,
    "द ा": 90,
    "य ह": 91,
    "ज ी": 92,
    "ग या": 93,
    "स र": 94,
    "ु र": 95,
    "य े": 96,
    "श ा": 97,
    "द ्": 98,
    "ट ी": 99,
    "ह ि": 100,
    "दे श": 101,
    "म े": 102,
    "कर ने": 103,
    "न् ह": 104,
    "उ न": 105,
    "क ु": 106,
    "उ स": 107,
    "क हा": 108,
    "आ प": 109,
    "म ी": 110,
    "प ू": 111,
    "र ि": 112,
    "सा थ": 113,
    "व े": 114,
    "ध ि": 115,
    "है .": 116,
    "बा द": 117,
    "उ न्ह": 118,
    "म ं": 119,
    "र े": 120,
    "ज ो": 121,
    "ख ा": 122,
    "त क": 123,
    "म ार": 124,
    "र ो": 125,
    "द ो": 126,
    "ै ं": 127,
    "प ी": 128,
    "रा ज": 129,
    "स ु": 130,
    "भ ार": 131,
    "प ह": 132,
    "ष ्": 133,
    "थ ी": 134,
    "ब ी": 135,
    "रह े": 136,
    "फ ि": 137,
    "स क": 138,
    "ग ी": 139,
    "ट ्र": 140,
    "् या": 141,
    "श ि": 142,
    "श ्": 143,
    "ल ोग": 144,
    "दि या": 145,
    "प ु": 146,
    "म ान": 147,
    "त र": 148,
    "ं द": 149,
    "र ू": 150,
    "स् थ": 151,
    "अ न": 152,
    "ब ार": 153,
    "अप ने": 154,
    "व ी": 155,
    "व ह": 156,
    "र हा": 157,
    "क ्र": 158,
    "है ,": 159,
    "ग े": 160,
    "च ु": 161,
    "च ्": 162,
    "ओ ं": 163,
    "हु ए": 164,
    "ब ि": 165,
    "ं च": 166,
    "थ े": 167,
    "ज ब": 168,
    "व र्": 169,
    "न ों": 170,
    "कि न": 171,
    "इ न": 172,
    "र ही": 173,
    "ह र": 174,
    "ों ने": 175,
    "ग ई": 176,
    "ड ि": 177,
    "च ार": 178,
    "प ्": 179,
    "मं त्र": 180,
    "सर कार": 181,
    "स् ट": 182,
    "ले किन": 183,
    "ह म": 184,
    "उन्ह ोंने": 185,
    "ज न": 186,
    "कु छ": 187,
    "मि ल": 188,
    "ब ना": 189,
    "द ू": 190,
    "बा त": 191,
    "ार ्": 192,
    "2 0": 193,
    "हा ं": 194,
    "अ धि": 195,
    "ल गा": 196,
    "जि स": 197,
    "ब ता": 198,
    "ब े": 199,
    "ं ध": 200,
    "य ो": 201,
    "ढ ़": 202,
    "ौ र": 203,
    "ल ग": 204,
    "म ो": 205,
    "श न": 206,
    "ान ी": 207,
    "म ्": 208,
    "ार ी": 209,
    "जा ए": 210,
    "स ब": 211,
    "प ि": 212,
    "हो ने": 213,
    "ग र": 214,
    "को ई": 215,
    "क ह": 216,
    "था ।": 217,
    "ख ि": 218,
    "मंत्र ी": 219,
    "पर ि": 220,
    "ल ो": 221,
    "क्ष ा": 222,
    "पह ले": 223,
    "म ैं": 224,
    "अ ब": 225,
    "ग ए": 226,
    "अप नी": 227,
    "व ्य": 228,
    "त ु": 229,
    "पु लि": 230,
    "कार ्य": 231,
    "स ो": 232,
    "वा ले": 233,
    "प्र ति": 234,
    "पुलि स": 235,
    "ं ड": 236,
    "ग ्र": 237,
    "ज े": 238,
    "ट े": 239,
    "ट र": 240,
    "श ्र": 241,
    "य ोग": 242,
    "को ं": 243,
    "लोग ों": 244,
    "मु ख": 245,
    "कि सी": 246,
    "इस के": 247,
    "ि यों": 248,
    "भार त": 249,
    "ब र": 250,
    "स ू": 251,
    "द र्": 252,
    "ट ा": 253,
    "का म": 254,
    "य ु": 255,
    "कर ते": 256,
    "नि र्": 257,
    "ज ान": 258,
    "म ौ": 259,
    "अन ु": 260,
    "ै से": 261,
    "छ ा": 262,
    "गा ।": 263,
    "सि ं": 264,
    "ब ्": 265,
    "उ प": 266,
    "आ ज": 267,
    "व ं": 268,
    "ल ों": 269,
    "च ि": 270,
    "ट ि": 271,
    "कार ी": 272,
    "मा म": 273,
    "द् वार": 274,
    "लि या": 275,
    "पू र्": 276,
    "त रह": 277,
    "सिं ह": 278,
    "रू प": 279,
    "द ु": 280,
    "हु आ": 281,
    "र ु": 282,
    "क् त": 283,
    "द्वार ा": 284,
    "आ ई": 285,
    "ध ान": 286,
    "ध ्य": 287,
    "अ ं": 288,
    "उन के": 289,
    "सम य": 290,
    "दे ख": 291,
    "इ ं": 292,
    "क ई": 293,
    "प े": 294,
    "क म": 295,
    "ड़ ी": 296,
    "दि न": 297,
    "ब हु": 298,
    "हैं .": 299,
    "फ ी": 300,
    "कर ्": 301,
    "सा ल": 302,
    "जा ने": 303,
    "ध ा": 304,
    "ले कर": 305,
    "श ुर": 306,
    "च े": 307,
    "जा ता": 308,
    "ज ु": 309,
    "च ी": 310,
    "स् ता": 311,
    "ी य": 312,
    "ध ार": 313,
    "र ख": 314,
    "्र े": 315,
    "म ह": 316,
    "प्र ा": 317,
    "स् त": 318,
    "हु ई": 319,
    "ना म": 320,
    "बता या": 321,
    "प हु": 322,
    "भ ि": 323,
    "बहु त": 324,
    "प ो": 325,
    "च ल": 326,
    "सक ता": 327,
    "ग ु": 328,
    "व ो": 329,
    "उ त्": 330,
    "द ्र": 331,
    "उन्ह ें": 332,
    "कर ें": 333,
    "हैं ,": 334,
    "थे ।": 335,
    "ए वं": 336,
    "स ार": 337,
    "ल य": 338,
    "फि र": 339,
    "य र": 340,
    "ष् ट्र": 341,
    "क् या": 342,
    "स भी": 343,
    "ब ंध": 344,
    "भा ग": 345,
    "ड़ े": 346,
    "द ौर": 347,
    "क्ष े": 348,
    "ज ू": 349,
    "म न": 350,
    "ब न": 351,
    "फि ल्": 352,
    "प ार्": 353,
    "ख ु": 354,
    "ड़ ा": 355,
    "हो ता": 356,
    "स द": 357,
    "श े": 358,
    "व र": 359,
    "क् ति": 360,
    "गया ।": 361,
    "श ी": 362,
    "ब ै": 363,
    "थी ।": 364,
    "राज ्य": 365,
    "प ुर": 366,
    "ब ो": 367,
    "क्षे त्र": 368,
    "ड ा": 369,
    "ख े": 370,
    "वा ली": 371,
    "घ र": 372,
    "चु ना": 373,
    "कर ना": 374,
    "ड ी": 375,
    "ि क": 376,
    "ब ढ़": 377,
    "ह ू": 378,
    "ज ्": 379,
    "त था": 380,
    "ंग ्रे": 381,
    "20 1": 382,
    "व न": 383,
    "पा स": 384,
    "स् था": 385,
    "र् ट": 386,
    "गी ।": 387,
    "क ृ": 388,
    "ू ल": 389,
    "ज ार": 390,
    "ब ु": 391,
    "खि ला": 392,
    "वर् ष": 393,
    "ए स": 394,
    "फिल् म": 395,
    "मुख ्य": 396,
    "स मा": 397,
    "रा ष्ट्र": 398,
    "फ ा": 399,
    "ती य": 400,
    "ब च्": 401,
    "म ै": 402,
    "उ से": 403,
    "शुर ू": 404,
    "क् यों": 405,
    "ग ि": 406,
    "उन की": 407,
    "म त": 408,
    "चा हि": 409,
    "रु प": 410,
    "दौर ान": 411,
    "उस के": 412,
    "ं प": 413,
    "चुना व": 414,
    "नि क": 415,
    "म हि": 416,
    "प ता": 417,
    "य हां": 418,
    "प्र देश": 419,
    "ण ा": 420,
    "य ू": 421,
    "बी च": 422,
    "चाहि ए": 423,
    "सक ते": 424,
    "सब से": 425,
    "का ंग्रे": 426,
    "स ह": 427,
    "दि ल्": 428,
    "सा म": 429,
    "0 0": 430,
    "्या दा": 431,
    "ज् ञ": 432,
    "कर ा": 433,
    "ह मार": 434,
    "त ार": 435,
    "फ ्": 436,
    "महि ला": 437,
    "दो नों": 438,
    "कार ण": 439,
    "ऐ से": 440,
    "त् व": 441,
    "आ रो": 442,
    "वि श्": 443,
    "र् थ": 444,
    "पहु ंच": 445,
    "कांग्रे स": 446,
    "ए ं": 447,
    "श्र ी": 448,
    "दिल् ली": 449,
    "द ान": 450,
    "बै ठ": 451,
    "हो ती": 452,
    "श ु": 453,
    "स भा": 454,
    "ज ना": 455,
    "ंद ्र": 456,
    "क्र म": 457,
    "दे ने": 458,
    "ग ो": 459,
    "किया ।": 460,
    "अ च्": 461,
    "ज ्यादा": 462,
    "ज ़": 463,
    "फ ै": 464,
    "ब द": 465,
    "अप ना": 466,
    "स् व": 467,
    "नी ति": 468,
    "भा व": 469,
    "छ ो": 470,
    "द र": 471,
    "भार तीय": 472,
    "अ गर": 473,
    "य ी": 474,
    "स्थ ान": 475,
    "द ार": 476,
    "माम ले": 477,
    "्य ू": 478,
    "पार् टी": 479,
    "ह त": 480,
    "स ुर": 481,
    "ट ना": 482,
    "अ व": 483,
    "यो जना": 484,
    "डि या": 485,
    "ह ार": 486,
    "ज ग": 487,
    "ड े": 488,
    "चा ह": 489,
    "स ान": 490,
    "लो क": 491,
    "ए म": 492,
    "मार ्": 493,
    "कर ी": 494,
    "ठ ा": 495,
    "गे ।": 496,
    "प् त": 497,
    "भ ू": 498,
    "ं व": 499,
    "वा द": 500,
    "ती न": 501,
    "क ै": 502,
    "ज र": 503,
    "मु झ": 504,
    "फ ो": 505,
    "ने ता": 506,
    "प ै": 507,
    "ज ैसे": 508,
    "भ र": 509,
    "क ॉ": 510,
    "अधि क": 511,
    "क्र ि": 512,
    "न् न": 513,
    "अ भि": 514,
    "अन ्य": 515,
    "टी म": 516,
    "ट ्": 517,
    "स र्": 518,
    "क ंप": 519,
    "ऐ सा": 520,
    "कर ो": 521,
    "रा म": 522,
    "पूर् व": 523,
    "इस ी": 524,
    "पि छ": 525,
    "नि या": 526,
    "त ना": 527,
    "1 9": 528,
    "श ो": 529,
    "प र्": 530,
    "ओ र": 531,
    "त ै": 532,
    "य ं": 533,
    "जान कारी": 534,
    "स न": 535,
    "ब ह": 536,
    "क् स": 537,
    "य त": 538,
    "खिला फ": 539,
    "ध्य क्ष": 540,
    "ग्र ा": 541,
    "ज ारी": 542,
    "ध ी": 543,
    "त ्य": 544,
    "का स": 545,
    "इस से": 546,
    "ह ों": 547,
    "शा मिल": 548,
    "सर े": 549,
    "बार े": 550,
    "कि ए": 551,
    "द् ध": 552,
    "कर ता": 553,
    "प त्र": 554,
    "सं बंध": 555,
    "सम झ": 556,
    "का न": 557,
    "ज रू": 558,
    "क ल": 559,
    "व्य क्ति": 560,
    "गा ंव": 561,
    "जा ती": 562,
    "इ से": 563,
    "भ ग": 564,
    "वि कास": 565,
    "च ौ": 566,
    "मो दी": 567,
    "रा त": 568,
    "ल त": 569,
    "अ लग": 570,
    "सक ती": 571,
    "मुझ े": 572,
    "प ं": 573,
    "ज य": 574,
    "प्र धान": 575,
    "कु मार": 576,
    "र् म": 577,
    "व ान": 578,
    "घ टना": 579,
    "प ति": 580,
    "य ार": 581,
    "था .": 582,
    "च ना": 583,
    "ड ॉ": 584,
    "क्यों कि": 585,
    "आप को": 586,
    "के ंद्र": 587,
    "पा कि": 588,
    "त् या": 589,
    "गई ।": 590,
    "सम ्": 591,
    "स ल": 592,
    "स्ता न": 593,
    "आ ने": 594,
    "पिछ ले": 595,
    "्र ा": 596,
    "ज पा": 597,
    "ं क": 598,
    "य न": 599,
    "ग त": 600,
    "मा ंग": 601,
    "भा जपा": 602,
    "वा ई": 603,
    "या न": 604,
    "य म": 605,
    "ं गा": 606,
    "ं त": 607,
    "त्र ा": 608,
    "वा ल": 609,
    "अधि कार": 610,
    "का फी": 611,
    "वि धा": 612,
    "प्र े": 613,
    "अ भी": 614,
    "वि भाग": 615,
    "ल न": 616,
    "क्ष ण": 617,
    "प त्": 618,
    "छ े": 619,
    "अनु सार": 620,
    "आ ए": 621,
    "द ्य": 622,
    "क भी": 623,
    "व ज": 624,
    "इस में": 625,
    "जू द": 626,
    "हो गा": 627,
    "विश् व": 628,
    "ला ख": 629,
    "दिया ।": 630,
    "ल ू": 631,
    "दि खा": 632,
    "ब ैं": 633,
    "मा ण": 634,
    "व हीं": 635,
    "पू री": 636,
    "1 0": 637,
    "ट्र े": 638,
    "ं ।": 639,
    "या द": 640,
    "आ गे": 641,
    "उस की": 642,
    "स् वी": 643,
    "ह े": 644,
    "स् क": 645,
    "च ों": 646,
    "ध न": 647,
    "पूर् ण": 648,
    "ज हां": 649,
    "ार ा": 650,
    "स्थ ि": 651,
    "च ित": 652,
    "द ें": 653,
    "ध ्या": 654,
    "की ।": 655,
    "र त": 656,
    "के ट": 657,
    "व ै": 658,
    "इस लिए": 659,
    "स्थ ित": 660,
    "जि न": 661,
    "राष्ट्र ीय": 662,
    "साम ने": 663,
    "हो ते": 664,
    "आ त": 665,
    "र् फ": 666,
    "शे ष": 667,
    "कार्य क्रम": 668,
    "न् या": 669,
    "दि ए": 670,
    "स् वा": 671,
    "य क": 672,
    "च ला": 673,
    "घ ा": 674,
    "प द": 675,
    "पो र्ट": 676,
    "ह में": 677,
    "क् टर": 678,
    "कहा ,": 679,
    "मुख्य मंत्री": 680,
    "उन का": 681,
    "जि ला": 682,
    "ह न": 683,
    "् ड": 684,
    "म द": 685,
    "आ धार": 686,
    "ज ै": 687,
    "आरो प": 688,
    "ं कि": 689,
    "गि र": 690,
    "कर े": 691,
    "ग ठ": 692,
    "त ब": 693,
    "या ं": 694,
    "राज नीति": 695,
    "व ल": 696,
    "पर ा": 697,
    "हा ला": 698,
    "जा ंच": 699,
    "ठ ी": 700,
    "आ दि": 701,
    "व्य व": 702,
    "स्थि ति": 703,
    "मे रे": 704,
    "जब कि": 705,
    "अ ध्यक्ष": 706,
    "हा ल": 707,
    "इस का": 708,
    "वा ला": 709,
    "श हर": 710,
    "ंग े": 711,
    "स ला": 712,
    "स फ": 713,
    "दू सरे": 714,
    "बना ने": 715,
    "न ो": 716,
    "प्रधान मंत्री": 717,
    "हमार े": 718,
    "दू र": 719,
    "मि ला": 720,
    "ल ं": 721,
    "जा ते": 722,
    "पा ंच": 723,
    "ल ने": 724,
    "आ र": 725,
    "अ ग": 726,
    "घ ो": 727,
    "सद स्": 728,
    "जिस में": 729,
    "ह जार": 730,
    "न ौ": 731,
    "भ े": 732,
    "परि वार": 733,
    "ता ओं": 734,
    "र ण": 735,
    "सुर क्षा": 736,
    "दू स": 737,
    "करो ड़": 738,
    "वि शेष": 739,
    "पाकि स्तान": 740,
    "कु ल": 741,
    "े श": 742,
    "जी त": 743,
    "समा ज": 744,
    "अ ला": 745,
    "जी वन": 746,
    "ख ्या": 747,
    "श ्य": 748,
    "ह ित": 749,
    "हा ँ": 750,
    "कर ण": 751,
    "करी ब": 752,
    "दर् ज": 753,
    "था ,": 754,
    "म् मी": 755,
    "य ल": 756,
    "पर ी": 757,
    "ब ंद": 758,
    "आ यो": 759,
    "हो गा।": 760,
    "इ ला": 761,
    "त् म": 762,
    "ब ल्": 763,
    "प क": 764,
    "इ स्": 765,
    "बा हर": 766,
    "व हां": 767,
    "उ ठा": 768,
    "स के": 769,
    "ज्ञ ान": 770,
    "जि त": 771,
    "उत् तर": 772,
    "दर् शन": 773,
    "ं ट": 774,
    "भा ष": 775,
    "ल ॉ": 776,
    "अला वा": 777,
    "कंप नी": 778,
    "बच् चों": 779,
    "ब स": 780,
    "लि ये": 781,
    "जाए गा।": 782,
    "कह ना": 783,
    "दि नों": 784,
    "पा ल": 785,
    "तै यार": 786,
    "वा स": 787,
    "रुप ये": 788,
    "च र्": 789,
    "या लय": 790,
    "न र": 791,
    "ंध ी": 792,
    "ें द्र": 793,
    "सि र्फ": 794,
    "प्र कार": 795,
    "आ या": 796,
    "प ड़": 797,
    "मा ल": 798,
    "पह ली": 799,
    "भ व": 800,
    "उ म्मी": 801,
    "आप के": 802,
    "यु क्त": 803,
    "उस ने": 804,
    "र् ड": 805,
    "सु न": 806,
    "प ार": 807,
    "जन ता": 808,
    "अधि कारी": 809,
    "प ानी": 810,
    "दु निया": 811,
    "त्र ों": 812,
    "वज ह": 813,
    "बे ह": 814,
    "ब ड़": 815,
    "य ही": 816,
    "व ्या": 817,
    "चु के": 818,
    "चाहिए ।": 819,
    "बैठ क": 820,
    "इस की": 821,
    "ब ड़ी": 822,
    "फ े": 823,
    "गा ंधी": 824,
    "त हत": 825,
    "ऐ सी": 826,
    "प्रा प्त": 827,
    "उम्मी द": 828,
    "स ै": 829,
    "प् ता": 830,
    "जि ले": 831,
    "ब ॉ": 832,
    "ज ल": 833,
    "20 0": 834,
    "द न": 835,
    "जा ना": 836,
    "रुप ए": 837,
    "सा ं": 838,
    "य दि": 839,
    "मी डिया": 840,
    "न ई": 841,
    "से वा": 842,
    "श त": 843,
    "बि क": 844,
    "क ल्": 845,
    "व्यव स्था": 846,
    "ले ख": 847,
    "को र्ट": 848,
    "वि धान": 849,
    "प क्ष": 850,
    "बैं क": 851,
    "ुर ु": 852,
    "लि ख": 853,
    "न गर": 854,
    "शा सन": 855,
    "हि स्": 856,
    "ल ें": 857,
    "ब ल": 858,
    "हा थ": 859,
    "म ू": 860,
    "अ स्": 861,
    "हाला ंकि": 862,
    "ष् ट": 863,
    "ख ो": 864,
    "है ?": 865,
[...]
